<|pad|>	0
<|unk|>	0
<s>	0
<|eos|>	0
<|im_start|>	0
<|im_end|>	0
<think>	0
</think>	0
<0x00>	0
<0x01>	0
<0x02>	0
<0x03>	0
<0x04>	0
<0x05>	0
<0x06>	0
<0x07>	0
<0x08>	0
<0x09>	0
<0x0A>	0
<0x0B>	0
<0x0C>	0
<0x0D>	0
<0x0E>	0
<0x0F>	0
<0x10>	0
<0x11>	0
<0x12>	0
<0x13>	0
<0x14>	0
<0x15>	0
<0x16>	0
<0x17>	0
<0x18>	0
<0x19>	0
<0x1A>	0
<0x1B>	0
<0x1C>	0
<0x1D>	0
<0x1E>	0
<0x1F>	0
<0x20>	0
<0x21>	0
<0x22>	0
<0x23>	0
<0x24>	0
<0x25>	0
<0x26>	0
<0x27>	0
<0x28>	0
<0x29>	0
<0x2A>	0
<0x2B>	0
<0x2C>	0
<0x2D>	0
<0x2E>	0
<0x2F>	0
<0x30>	0
<0x31>	0
<0x32>	0
<0x33>	0
<0x34>	0
<0x35>	0
<0x36>	0
<0x37>	0
<0x38>	0
<0x39>	0
<0x3A>	0
<0x3B>	0
<0x3C>	0
<0x3D>	0
<0x3E>	0
<0x3F>	0
<0x40>	0
<0x41>	0
<0x42>	0
<0x43>	0
<0x44>	0
<0x45>	0
<0x46>	0
<0x47>	0
<0x48>	0
<0x49>	0
<0x4A>	0
<0x4B>	0
<0x4C>	0
<0x4D>	0
<0x4E>	0
<0x4F>	0
<0x50>	0
<0x51>	0
<0x52>	0
<0x53>	0
<0x54>	0
<0x55>	0
<0x56>	0
<0x57>	0
<0x58>	0
<0x59>	0
<0x5A>	0
<0x5B>	0
<0x5C>	0
<0x5D>	0
<0x5E>	0
<0x5F>	0
<0x60>	0
<0x61>	0
<0x62>	0
<0x63>	0
<0x64>	0
<0x65>	0
<0x66>	0
<0x67>	0
<0x68>	0
<0x69>	0
<0x6A>	0
<0x6B>	0
<0x6C>	0
<0x6D>	0
<0x6E>	0
<0x6F>	0
<0x70>	0
<0x71>	0
<0x72>	0
<0x73>	0
<0x74>	0
<0x75>	0
<0x76>	0
<0x77>	0
<0x78>	0
<0x79>	0
<0x7A>	0
<0x7B>	0
<0x7C>	0
<0x7D>	0
<0x7E>	0
<0x7F>	0
<0x80>	0
<0x81>	0
<0x82>	0
<0x83>	0
<0x84>	0
<0x85>	0
<0x86>	0
<0x87>	0
<0x88>	0
<0x89>	0
<0x8A>	0
<0x8B>	0
<0x8C>	0
<0x8D>	0
<0x8E>	0
<0x8F>	0
<0x90>	0
<0x91>	0
<0x92>	0
<0x93>	0
<0x94>	0
<0x95>	0
<0x96>	0
<0x97>	0
<0x98>	0
<0x99>	0
<0x9A>	0
<0x9B>	0
<0x9C>	0
<0x9D>	0
<0x9E>	0
<0x9F>	0
<0xA0>	0
<0xA1>	0
<0xA2>	0
<0xA3>	0
<0xA4>	0
<0xA5>	0
<0xA6>	0
<0xA7>	0
<0xA8>	0
<0xA9>	0
<0xAA>	0
<0xAB>	0
<0xAC>	0
<0xAD>	0
<0xAE>	0
<0xAF>	0
<0xB0>	0
<0xB1>	0
<0xB2>	0
<0xB3>	0
<0xB4>	0
<0xB5>	0
<0xB6>	0
<0xB7>	0
<0xB8>	0
<0xB9>	0
<0xBA>	0
<0xBB>	0
<0xBC>	0
<0xBD>	0
<0xBE>	0
<0xBF>	0
<0xC0>	0
<0xC1>	0
<0xC2>	0
<0xC3>	0
<0xC4>	0
<0xC5>	0
<0xC6>	0
<0xC7>	0
<0xC8>	0
<0xC9>	0
<0xCA>	0
<0xCB>	0
<0xCC>	0
<0xCD>	0
<0xCE>	0
<0xCF>	0
<0xD0>	0
<0xD1>	0
<0xD2>	0
<0xD3>	0
<0xD4>	0
<0xD5>	0
<0xD6>	0
<0xD7>	0
<0xD8>	0
<0xD9>	0
<0xDA>	0
<0xDB>	0
<0xDC>	0
<0xDD>	0
<0xDE>	0
<0xDF>	0
<0xE0>	0
<0xE1>	0
<0xE2>	0
<0xE3>	0
<0xE4>	0
<0xE5>	0
<0xE6>	0
<0xE7>	0
<0xE8>	0
<0xE9>	0
<0xEA>	0
<0xEB>	0
<0xEC>	0
<0xED>	0
<0xEE>	0
<0xEF>	0
<0xF0>	0
<0xF1>	0
<0xF2>	0
<0xF3>	0
<0xF4>	0
<0xF5>	0
<0xF6>	0
<0xF7>	0
<0xF8>	0
<0xF9>	0
<0xFA>	0
<0xFB>	0
<0xFC>	0
<0xFD>	0
<0xFE>	0
<0xFF>	0
.	-3.14399
▁the	-3.23094
,	-3.44511
▁to	-3.72368
▁and	-3.7506
▁of	-3.8863
▁a	-4.0686
▁for	-4.25352
▁in	-4.45576
▁is	-4.50791
-	-4.511
/	-4.62241
s	-4.65521
▁that	-4.81063
▁or	-4.8376
:	-4.89709
▁your	-5.11545
▁on	-5.19262
▁	-5.25159
▁if	-5.28314
▁different	-5.3123
▁The	-5.32169
▁with	-5.34003
▁control	-5.36517
▁flow	-5.38773
▁are	-5.39815
else	-5.40531
▁handle	-5.40679
case	-5.40759
▁switch	-5.40851
▁statements	-5.41115
▁snippet	-5.41502
▁as	-5.60933
▁comments	-5.6357
▁(	-5.71376
'	-5.7209
▁you	-5.73357
▁be	-5.76015
▁by	-5.77685
▁-	-5.77917
▁from	-5.82941
▁it	-5.8423
run	-5.91791
▁Dry	-5.92555
▁explaining	-5.93188
▁how	-5.97521
▁can	-5.99409
▁well	-6.0449
▁was	-6.06034
)	-6.06722
▁an	-6.09844
▁have	-6.10209
▁then	-6.1253
▁at	-6.13947
▁this	-6.15061
_	-6.16924
▁based	-6.19514
▁cases	-6.2263
▁related	-6.26506
▁conditions	-6.27259
▁Incorporate	-6.30308
▁decision	-6.32651
▁not	-6.39786
▁their	-6.41593
▁which	-6.42365
▁"	-6.46166
▁Analysis	-6.47001
▁High	-6.47139
▁will	-6.4798
▁Low	-6.49202
▁Engineer	-6.49515
▁Experts	-6.50702
▁Making	-6.51229
▁Professionals	-6.51243
▁has	-6.51256
▁Beginners	-6.51668
▁Decision	-6.5191
▁Extreme	-6.51974
▁more	-6.52569
▁they	-6.54552
▁In	-6.61011
▁each	-6.61711
▁A	-6.64635
▁This	-6.66487
▁one	-6.69306
’	-6.71017
?	-6.71101
▁also	-6.72767
▁include	-6.728
▁about	-6.7497
▁process	-6.76405
▁but	-6.7889
▁were	-6.79363
▁It	-6.79541
▁provide	-6.80809
▁program	-6.81006
▁various	-6.82651
▁other	-6.83998
▁all	-6.8523
▁we	-6.86105
▁Use	-6.87758
▁approach	-6.88128
k	-6.88441
▁function	-6.89963
▁clear	-6.90831
▁ensure	-6.91631
▁C	-6.91683
;	-6.92591
▁code	-6.93998
▁I	-6.94269
▁perform	-6.9429
▁module	-6.94745
t	-6.96204
▁actions	-6.96258
▁behind	-6.97237
▁Build	-6.97373
▁Ensure	-6.97817
documented	-6.97869
▁appropriate	-6.97902
▁outline	-6.98348
▁script	-6.98663
▁Create	-6.98665
▁logic	-6.98768
▁may	-6.9878
▁hygiene	-6.99059
▁scenarios	-6.99588
▁Develop	-6.99652
commented	-7.00577
math	-7.00763
▁conditionally	-7.01035
▁detailed	-7.01094
▁Design	-7.02324
▁than	-7.02399
▁implement	-7.02656
making	-7.02686
▁when	-7.02717
▁into	-7.03018
▁Write	-7.03195
▁Consider	-7.03792
▁Provide	-7.04138
▁reasoning	-7.04569
▁structured	-7.04667
▁used	-7.05397
▁been	-7.05461
▁Implement	-7.05815
12	-7.07033
▁its	-7.07162
▁use	-7.07923
▁people	-7.10038
▁who	-7.11846
"	-7.12374
▁time	-7.12408
ing	-7.12471
▁most	-7.1299
▁these	-7.13517
▁some	-7.15848
▁cn	-7.16728
▁care	-7.17766
▁his	-7.18701
▁Determine	-7.18711
▁Calculate	-7.20698
▁them	-7.21474
▁such	-7.22049
▁our	-7.23147
▁Java	-7.23244
▁first	-7.24308
▁out	-7.2466
▁up	-7.25028
▁many	-7.27092
▁two	-7.28677
▁health	-7.31285
▁there	-7.31999
▁so	-7.32427
▁synthetic	-7.3295
▁database	-7.33273
▁do	-7.34543
▁what	-7.34952
▁new	-7.35519
▁water	-7.36216
▁only	-7.40001
▁he	-7.40114
▁had	-7.41878
▁during	-7.42807
▁over	-7.43222
▁years	-7.43744
▁through	-7.44166
▁would	-7.47046
▁like	-7.47108
▁between	-7.49135
▁Hygiene	-7.51565
▁Safety	-7.55723
).	-7.55771
▁make	-7.5706
▁students	-7.57412
▁Trust	-7.5847
▁|	-7.58556
▁help	-7.59235
▁any	-7.59574
▁Transparency	-7.59893
▁Reliability	-7.59903
▁Ethics	-7.6078
▁work	-7.6088
▁Responsibility	-7.61112
▁Privacy	-7.61238
▁Consent	-7.6146
▁Bias	-7.61932
▁If	-7.62527
▁children	-7.62756
ed	-7.63395
▁Check	-7.63672
▁where	-7.65458
▁no	-7.66184
4	-7.66885
▁“	-7.67226
▁should	-7.68418
▁information	-7.68755
▁system	-7.69324
▁They	-7.69812
▁Update	-7.70332
▁found	-7.70571
▁could	-7.71079
▁very	-7.717
S	-7.71885
▁Display	-7.72827
▁What	-7.73224
▁Transform	-7.73227
e	-7.73349
▁For	-7.74316
▁world	-7.75283
▁way	-7.75451
▁orca	-7.75801
▁after	-7.76346
▁using	-7.76477
▁study	-7.7658
▁olympiads	-7.77445
▁high	-7.77485
▁data	-7.7789
▁because	-7.78434
!	-7.78883
▁need	-7.79007
th	-7.79797
▁important	-7.8019
),	-7.80403
d	-7.81344
a	-7.82261
▁life	-7.82861
▁Go	-7.84163
▁year	-7.84427
▁part	-7.84699
j	-7.85173
▁We	-7.85528
▁said	-7.86085
▁made	-7.86247
▁number	-7.86773
▁There	-7.87508
▁being	-7.87982
▁Ruby	-7.88021
▁those	-7.88273
▁Rust	-7.88994
▁Python	-7.89805
▁often	-7.90623
▁home	-7.90644
▁get	-7.90859
▁1	-7.915
▁much	-7.91726
▁just	-7.92175
Script	-7.92372
▁You	-7.92434
▁even	-7.92499
#	-7.92552
▁both	-7.93323
▁research	-7.93552
▁Julia	-7.93837
▁long	-7.93923
▁body	-7.94038
▁TypeScript	-7.95524
▁same	-7.96299
▁These	-7.96699
▁around	-7.96705
▁known	-7.9672
▁called	-7.97248
++	-7.97936
▁three	-7.98948
▁Bash	-7.9993
▁see	-8.00194
▁To	-8.01448
▁When	-8.02397
▁As	-8.02509
▁2	-8.02578
▁Neo	-8.03086
▁before	-8.03187
▁day	-8.04275
▁including	-8.04589
▁small	-8.04842
▁Cypher	-8.05019
▁Hand	-8.05479
▁while	-8.05658
▁food	-8.05735
▁disease	-8.05835
▁her	-8.07548
▁relation	-8.08336
▁Updates	-8.08423
▁Using	-8.08434
▁common	-8.09027
▁He	-8.09368
▁Cleaning	-8.0947
ly	-8.09601
▁Checks	-8.10324
▁know	-8.10701
▁3	-8.11256
▁take	-8.1161
▁Transforms	-8.12282
▁Displays	-8.12355
▁But	-8.12363
▁now	-8.13157
▁SQL	-8.13223
▁area	-8.13269
▁school	-8.13569
."	-8.14058
▁large	-8.1478
▁under	-8.15012
▁good	-8.15033
▁example	-8.15651
▁human	-8.16072
▁species	-8.16332
▁energy	-8.16465
▁us	-8.16709
▁University	-8.1721
re	-8.17239
▁does	-8.1854
▁New	-8.18665
▁form	-8.1913
▁back	-8.19185
▁Proper	-8.20025
▁find	-8.20072
,"	-8.20266
▁Toilet	-8.20473
▁American	-8.20957
▁blood	-8.21392
▁Flossing	-8.21821
▁own	-8.22264
▁U	-8.22266
▁must	-8.22605
▁Personal	-8.22893
er	-8.24757
▁cause	-8.24833
▁Food	-8.25274
▁history	-8.25388
▁development	-8.25508
▁–	-8.26961
▁&	-8.27031
▁child	-8.27077
▁change	-8.27342
▁learning	-8.27421
▁early	-8.27462
▁How	-8.2779
▁within	-8.27833
y	-8.27998
▁state	-8.28744
▁down	-8.29183
▁United	-8.29632
▁power	-8.30785
▁place	-8.31202
▁However	-8.31943
▁risk	-8.32003
▁outside	-8.32658
|	-8.33244
”	-8.33596
▁every	-8.33676
▁Hair	-8.34146
▁personal	-8.34954
▁type	-8.35949
▁Education	-8.36201
▁10	-8.36511
m	-8.3655
▁still	-8.36771
▁B	-8.36966
▁'	-8.37124
▁name	-8.37184
▁here	-8.37191
▁learn	-8.37275
▁set	-8.37538
▁less	-8.37898
▁areas	-8.38021
▁few	-8.38043
▁right	-8.38062
▁light	-8.38129
▁following	-8.38278
▁several	-8.38292
▁become	-8.38487
n	-8.38553
▁without	-8.39467
▁States	-8.40757
▁women	-8.41134
▁family	-8.4136
▁book	-8.41475
▁Ear	-8.41571
▁Dental	-8.4198
▁means	-8.42308
▁another	-8.42449
▁available	-8.42821
▁Health	-8.42843
▁National	-8.43145
▁end	-8.43217
▁cells	-8.43312
▁group	-8.43356
▁Foot	-8.43565
▁great	-8.43781
▁Social	-8.4389
in	-8.4409
▁check	-8.44447
▁age	-8.45261
▁Handling	-8.45642
▁problems	-8.45696
▁usually	-8.45766
▁person	-8.46059
▁Nose	-8.46453
▁my	-8.46589
▁order	-8.46626
▁cancer	-8.46708
▁Weather	-8.46804
2	-8.46822
▁per	-8.46858
▁language	-8.47154
▁might	-8.47158
▁items	-8.47223
▁level	-8.47311
▁Sneezing	-8.47653
▁technique	-8.48162
▁After	-8.48247
▁An	-8.48433
▁best	-8.4859
▁able	-8.49063
▁One	-8.49127
D	-8.49176
▁public	-8.49181
The	-8.49398
or	-8.49615
▁plant	-8.49878
i	-8.50352
▁5	-8.50364
▁And	-8.50536
||	-8.50576
▁possible	-8.51612
▁social	-8.51712
▁better	-8.51806
▁last	-8.52143
▁4	-8.52647
▁create	-8.52826
▁Some	-8.52921
▁treatment	-8.53197
▁plants	-8.53256
▁20	-8.53308
▁look	-8.53351
▁low	-8.5355
▁words	-8.53568
▁air	-8.5375
▁she	-8.54001
▁off	-8.54236
▁Eye	-8.5435
▁natural	-8.54798
▁illness	-8.55095
▁problem	-8.55449
▁percent	-8.55678
▁English	-8.55751
▁times	-8.56164
▁since	-8.56492
▁Media	-8.56702
A	-8.56711
▁shared	-8.56745
▁course	-8.56964
▁systems	-8.57522
▁go	-8.57817
▁types	-8.57885
▁want	-8.57892
C	-8.5854
▁century	-8.58993
▁four	-8.59101
▁did	-8.59225
▁Travel	-8.595
▁S	-8.59935
▁million	-8.59963
amc	-8.60045
▁levels	-8.60071
▁country	-8.6012
▁too	-8.6017
▁technology	-8.60379
▁project	-8.60475
▁result	-8.60476
▁Handwashing	-8.60766
▁support	-8.60785
▁point	-8.60921
▁Nail	-8.6111
▁Preventing	-8.61407
g	-8.61964
▁due	-8.62427
▁least	-8.62487
▁Online	-8.62556
▁By	-8.62844
▁brain	-8.63099
▁among	-8.63145
▁education	-8.63159
▁test	-8.63463
▁Bathing	-8.63478
▁major	-8.63599
▁below	-8.63793
▁things	-8.64341
▁heart	-8.64361
▁against	-8.64516
the	-8.64567
▁So	-8.64811
▁non	-8.6484
▁making	-8.64998
▁given	-8.65008
r	-8.65022
▁along	-8.65399
▁little	-8.65524
▁science	-8.65594
▁today	-8.65876
▁government	-8.65986
▁across	-8.66205
▁come	-8.6625
▁population	-8.66349
▁paper	-8.66384
▁spaces	-8.66558
▁routine	-8.66692
▁skills	-8.66697
▁until	-8.66804
▁space	-8.67425
▁habits	-8.67459
▁present	-8.67497
▁second	-8.67565
▁environment	-8.67725
▁word	-8.6797
▁land	-8.68169
▁think	-8.68192
▁Security	-8.68315
▁At	-8.68665
▁range	-8.69156
▁results	-8.69174
▁days	-8.69546
▁D	-8.69708
▁surface	-8.6973
▁others	-8.69743
▁article	-8.69853
▁researchers	-8.69886
▁local	-8.70009
▁=	-8.70237
▁free	-8.70355
▁together	-8.70373
▁design	-8.7044
▁develop	-8.70503
▁All	-8.70563
▁symptoms	-8.70913
▁On	-8.70931
▁activities	-8.71013
▁site	-8.71284
▁increase	-8.71637
▁read	-8.72058
▁World	-8.72545
▁main	-8.72749
▁material	-8.72982
▁E	-8.7302
▁--	-8.7313
▁don	-8.73172
▁understand	-8.73179
▁[	-8.73239
▁Organization	-8.73378
▁developed	-8.73594
▁him	-8.73777
es	-8.7407
▁lead	-8.74366
▁current	-8.74543
(	-8.74793
▁specific	-8.74835
▁Earth	-8.75101
▁says	-8.75134
to	-8.75215
▁resources	-8.75308
▁community	-8.75474
al	-8.75648
▁show	-8.7623
o	-8.76256
▁likely	-8.76406
▁period	-8.76536
▁changes	-8.76736
▁coughing	-8.76761
▁why	-8.76889
▁materials	-8.77143
▁line	-8.77218
▁activity	-8.7726
▁side	-8.77298
▁full	-8.77317
▁size	-8.7744
▁young	-8.77483
▁ways	-8.77592
▁Managing	-8.77787
▁computer	-8.77995
▁physical	-8.78071
▁With	-8.78154
▁countries	-8.78286
▁cleanliness	-8.78688
▁above	-8.78772
▁say	-8.78868
▁6	-8.78871
▁knowledge	-8.79046
▁Clothing	-8.79079
▁soil	-8.79165
▁give	-8.79273
▁Shopping	-8.79322
▁Avoiding	-8.79352
▁white	-8.79369
▁later	-8.79385
▁class	-8.79513
▁etiquette	-8.79588
▁field	-8.79696
▁Oral	-8.79798
▁War	-8.79818
▁key	-8.7983
▁M	-8.79853
▁source	-8.79867
▁something	-8.80102
▁left	-8.80215
▁keep	-8.80657
▁animals	-8.80676
▁created	-8.80929
▁working	-8.81082
▁next	-8.81456
▁Transportation	-8.81473
▁questions	-8.81603
ups	-8.8166
▁page	-8.81725
▁higher	-8.8191
▁skin	-8.81938
▁experience	-8.82211
▁needs	-8.82324
▁Regular	-8.82679
▁amount	-8.82714
▁T	-8.83099
▁America	-8.83253
▁Finance	-8.83329
▁fact	-8.83529
▁access	-8.8361
▁production	-8.83636
▁studies	-8.83721
▁always	-8.8427
▁Dr	-8.84385
▁pressure	-8.84446
ve	-8.84837
▁effects	-8.85029
▁While	-8.85033
1	-8.85098
▁simple	-8.85209
▁patients	-8.85331
▁value	-8.85475
▁old	-8.85596
▁certain	-8.85779
▁according	-8.85964
▁Fitness	-8.86069
▁especially	-8.8625
▁role	-8.86382
▁short	-8.86457
▁start	-8.86676
▁general	-8.86841
▁future	-8.86945
▁reading	-8.87424
▁growth	-8.87453
▁men	-8.87463
▁story	-8.87541
ll	-8.87608
▁understanding	-8.87641
▁provides	-8.87725
▁lower	-8.87933
▁city	-8.87967
▁became	-8.88122
▁Tracking	-8.88187
▁case	-8.88192
▁building	-8.88197
▁Water	-8.88327
▁single	-8.88613
▁similar	-8.88758
▁pain	-8.88936
▁live	-8.89197
▁parts	-8.89396
▁quality	-8.8962
▁five	-8.89664
▁past	-8.90043
▁published	-8.90052
▁enough	-8.90102
▁report	-8.90129
▁P	-8.90486
▁student	-8.90496
▁That	-8.90652
▁seen	-8.90801
▁away	-8.90859
▁cell	-8.90992
▁open	-8.91303
▁North	-8.91625
▁makes	-8.91629
com	-8.91731
▁Science	-8.92113
▁having	-8.9214
▁products	-8.92182
▁Many	-8.92469
▁text	-8.92509
▁impact	-8.9257
▁climate	-8.92742
▁far	-8.92856
▁play	-8.9307
▁method	-8.93226
▁however	-8.93335
▁image	-8.93354
▁groups	-8.9341
▁black	-8.93555
▁individual	-8.93681
▁either	-8.9371
▁South	-8.9382
▁designed	-8.93865
▁Most	-8.94452
I	-8.94504
▁associated	-8.94621
▁caused	-8.9465
▁medical	-8.94851
▁causes	-8.95147
▁team	-8.95162
▁put	-8.95189
▁reduce	-8.95372
▁Here	-8.95676
▁hand	-8.9577
▁scientists	-8.95894
▁rate	-8.95922
▁variety	-8.96375
▁produce	-8.96681
▁near	-8.96916
▁12	-8.97067
▁Planning	-8.97622
▁practice	-8.97753
▁potential	-8.98041
▁addition	-8.98053
▁considered	-8.98575
▁term	-8.98623
c	-8.98756
▁effect	-8.98989
▁shows	-8.9917
▁whether	-8.99196
on	-8.99209
▁color	-8.99313
▁top	-8.9942
▁me	-8.99761
▁Keeping	-9.00089
▁Hands	-9.00128
▁taken	-9.00198
▁Research	-9.00213
▁writing	-9.0024
▁done	-9.0049
▁living	-9.00627
▁structure	-9.00738
▁gas	-9.00814
▁region	-9.01217
▁red	-9.01228
▁basic	-9.01423
▁loss	-9.01462
▁death	-9.01466
▁de	-9.01576
▁healthy	-9.01788
▁man	-9.02053
▁particular	-9.02083
▁factors	-9.02205
▁real	-9.02422
▁built	-9.02501
▁issues	-9.02647
▁15	-9.03303
▁week	-9.03534
▁significant	-9.03589
and	-9.03689
▁increased	-9.0382
▁throughout	-9.03852
▁8	-9.04002
▁prevent	-9.04274
▁required	-9.04343
▁question	-9.04357
▁ability	-9.04402
▁going	-9.04597
▁half	-9.04959
▁sure	-9.05023
▁model	-9.05031
▁further	-9.05172
▁From	-9.05202
▁content	-9.05396
▁includes	-9.0541
▁re	-9.05426
▁weight	-9.05493
ers	-9.05501
▁head	-9.05567
▁online	-9.05586
▁F	-9.0566
▁condition	-9.05964
▁School	-9.0605
▁management	-9.06294
▁environmental	-9.06569
▁effective	-9.06576
▁needed	-9.06977
▁really	-9.07009
▁R	-9.07208
▁numbers	-9.07347
▁once	-9.07415
▁global	-9.07486
▁K	-9.07531
▁uses	-9.07543
▁tree	-9.0762
▁temperature	-9.0764
▁almost	-9.07783
▁works	-9.07971
▁video	-9.07978
▁feet	-9.08018
x	-9.0805
▁list	-9.08152
▁modern	-9.08191
▁evidence	-9.08357
▁improve	-9.0848
▁already	-9.08526
▁ground	-9.08526
▁methods	-9.08619
▁self	-9.08901
▁view	-9.08967
▁State	-9.09155
▁parents	-9.09323
▁1.	-9.09381
▁nature	-9.0941
▁No	-9.09489
▁Your	-9.0972
▁Although	-9.09798
▁recent	-9.09802
▁lot	-9.09984
based	-9.10073
▁comes	-9.10129
▁H	-9.10298
▁analysis	-9.10304
▁fish	-9.10307
▁heat	-9.10575
▁law	-9.10599
▁never	-9.10735
▁came	-9.11099
▁British	-9.11107
▁thought	-9.11135
▁art	-9.11164
▁months	-9.11317
▁etc	-9.11357
▁war	-9.11484
▁whole	-9.11844
▁actually	-9.11908
▁grow	-9.12186
▁More	-9.12704
▁30	-9.12836
▁series	-9.13005
▁difficult	-9.13117
▁L	-9.1312
▁G	-9.13135
▁hard	-9.13323
▁John	-9.13327
▁idea	-9.13351
▁occur	-9.1361
▁easy	-9.13611
▁began	-9.13982
▁though	-9.14397
...	-9.14402
▁Public	-9.14417
▁damage	-9.14507
▁rather	-9.1464
▁According	-9.15508
▁total	-9.15603
▁trees	-9.15879
▁national	-9.15914
▁7	-9.15939
▁Before	-9.15939
▁special	-9.16074
▁oil	-9.16226
▁History	-9.16359
▁written	-9.16386
▁N	-9.16559
▁states	-9.16643
▁Do	-9.17356
▁average	-9.1742
▁forms	-9.17511
▁sometimes	-9.17578
.”	-9.17585
▁US	-9.17874
▁produced	-9.17944
▁contains	-9.17947
▁J	-9.1799
▁God	-9.18161
▁sources	-9.18262
l	-9.18389
▁teachers	-9.184
▁animal	-9.18737
▁complete	-9.19015
▁economic	-9.19068
▁ago	-9.19119
▁schools	-9.19284
▁necessary	-9.19372
▁diseases	-9.19679
▁developing	-9.19753
▁Students	-9.19831
▁normal	-9.19981
▁carbon	-9.20204
▁complex	-9.20242
▁x	-9.20297
▁provided	-9.20368
▁May	-9.20595
▁move	-9.20638
▁Our	-9.20772
▁Center	-9.20805
▁Problems	-9.20942
▁themselves	-9.21081
▁green	-9.21166
▁growing	-9.21191
▁members	-9.21276
▁inside	-9.21394
▁eye	-9.21445
▁original	-9.215
▁cannot	-9.21555
▁determine	-9.21611
▁rights	-9.21739
▁focus	-9.21865
▁lives	-9.21889
▁sea	-9.2197
▁close	-9.21976
▁itself	-9.2202
▁individuals	-9.2202
▁terms	-9.22045
▁services	-9.22084
▁answer	-9.22248
▁plan	-9.22322
▁helps	-9.22433
://	-9.22486
b	-9.22497
▁post	-9.22518
▁tools	-9.22627
▁infection	-9.22842
▁took	-9.22993
▁allow	-9.2307
▁build	-9.23202
▁images	-9.23243
▁hours	-9.2326
▁feel	-9.23285
▁cost	-9.23359
▁Day	-9.23458
▁shown	-9.23524
▁popular	-9.23738
▁kids	-9.23898
▁e	-9.23987
▁wide	-9.24092
▁During	-9.24132
▁upon	-9.2493
▁solar	-9.2495
▁She	-9.25416
▁strong	-9.25417
▁events	-9.25515
▁taking	-9.25748
▁object	-9.2579
▁Each	-9.25809
3	-9.25924
▁file	-9.25948
▁books	-9.26008
▁ever	-9.26152
▁First	-9.26222
▁business	-9.26486
▁generally	-9.26524
▁six	-9.26591
▁India	-9.2672
▁primary	-9.26781
▁leaves	-9.26872
▁Items	-9.27181
▁industry	-9.27181
▁service	-9.27304
▁Maintaining	-9.27516
▁movement	-9.27578
▁yet	-9.27741
▁features	-9.27796
▁subject	-9.28002
ops	-9.28009
▁turn	-9.28051
▁included	-9.28145
▁St	-9.2833
▁training	-9.28447
▁Protecting	-9.28471
▁scientific	-9.28504
▁essential	-9.28506
▁Choosing	-9.2854
▁allows	-9.28624
▁Management	-9.28646
▁standard	-9.28653
▁music	-9.2878
▁River	-9.28927
▁action	-9.28929
an	-9.28974
▁safety	-9.29027
▁diet	-9.29103
▁Department	-9.29143
▁matter	-9.29195
▁late	-9.29409
▁contact	-9.29461
▁money	-9.29621
B	-9.29742
▁culture	-9.29826
▁California	-9.30002
▁2.	-9.30048
▁involved	-9.30199
▁longer	-9.30247
▁ancient	-9.30252
▁again	-9.30348
▁led	-9.30495
▁sound	-9.30553
▁Europe	-9.30786
▁ideas	-9.30824
▁write	-9.30902
▁Moisturizing	-9.30929
▁Why	-9.30933
▁located	-9.30983
▁face	-9.31008
▁Trimming	-9.31035
▁foods	-9.31054
▁York	-9.31241
▁multiple	-9.31306
▁100	-9.31353
▁Nails	-9.31363
▁political	-9.31374
▁mean	-9.31672
▁teaching	-9.31745
▁benefits	-9.31751
▁Teeth	-9.31771
▁sun	-9.3194
▁m	-9.31946
▁chemical	-9.31997
▁protect	-9.32605
▁unique	-9.32696
▁step	-9.32724
▁spread	-9.3284
▁sense	-9.32849
▁programs	-9.32875
▁interest	-9.33005
▁teeth	-9.33302
▁largest	-9.33359
▁section	-9.3347
▁meaning	-9.33544
▁product	-9.33584
▁9	-9.33617
▁easily	-9.33945
P	-9.33969
▁society	-9.34087
▁issue	-9.34096
▁...	-9.34114
▁humans	-9.34146
▁kind	-9.34147
▁fire	-9.3427
▁software	-9.34417
▁Institute	-9.34612
▁miles	-9.35019
▁larger	-9.35029
▁takes	-9.35046
▁add	-9.35099
▁elements	-9.3522
▁Other	-9.35422
▁Now	-9.35483
▁network	-9.35512
▁European	-9.35525
▁game	-9.35526
▁share	-9.35615
▁require	-9.35823
▁big	-9.36008
▁reported	-9.36016
forum	-9.36386
▁particularly	-9.36469
▁bacteria	-9.36494
▁eat	-9.36593
▁greater	-9.36656
▁identify	-9.36878
▁reason	-9.36899
▁traditional	-9.37479
▁objects	-9.37588
man	-9.37722
▁Since	-9.37756
E	-9.37845
▁commonly	-9.37981
▁adults	-9.37995
▁daily	-9.38215
▁response	-9.38241
▁affect	-9.38256
us	-9.38506
▁virus	-9.38829
▁Africa	-9.38872
▁looking	-9.3904
en	-9.3926
▁behavior	-9.39402
▁County	-9.39412
▁house	-9.39464
▁p	-9.39483
▁occurs	-9.39585
▁try	-9.3962
▁useful	-9.39659
▁started	-9.39662
▁i	-9.3979
▁application	-9.39814
▁true	-9.39838
▁50	-9.39901
▁born	-9.40047
▁His	-9.40152
▁mass	-9.40163
▁Data	-9.40222
▁thing	-9.40274
▁attention	-9.40301
▁O	-9.40393
▁applications	-9.40402
▁points	-9.40477
▁techniques	-9.40556
▁force	-9.40587
p	-9.40593
▁positive	-9.40623
▁shape	-9.40741
▁theory	-9.40794
▁call	-9.40812
▁difference	-9.40817
▁cut	-9.41337
▁author	-9.41372
▁company	-9.41413
▁waste	-9.41474
▁position	-9.41537
▁speed	-9.41543
▁Temperature	-9.41563
▁device	-9.4163
▁African	-9.41905
▁summer	-9.41913
▁active	-9.42025
▁entire	-9.42066
▁typically	-9.42094
st	-9.42121
▁added	-9.42158
▁simply	-9.42175
▁devices	-9.42186
▁tool	-9.42244
▁processes	-9.42321
▁follow	-9.42619
▁mind	-9.42655
▁safe	-9.42731
▁center	-9.42794
▁discovered	-9.42871
▁probably	-9.42872
▁birds	-9.43225
▁believe	-9.43226
▁China	-9.43473
▁March	-9.43589
▁contain	-9.43744
▁leading	-9.43803
like	-9.43954
▁W	-9.43968
N	-9.44009
▁11	-9.44226
▁lines	-9.44359
▁website	-9.44409
▁memory	-9.44434
▁quickly	-9.44634
▁established	-9.44656
▁NASA	-9.44678
▁French	-9.44697
▁central	-9.44759
▁web	-9.44823
▁third	-9.45047
▁compared	-9.45173
▁highly	-9.45193
▁Of	-9.45238
▁Medical	-9.453
▁minutes	-9.45356
▁begin	-9.45372
▁nearly	-9.45416
▁stress	-9.45437
▁event	-9.45528
T	-9.45554
▁critical	-9.45588
able	-9.456
ic	-9.45656
▁performance	-9.45695
▁beginning	-9.45714
▁16	-9.45714
▁un	-9.45714
▁run	-9.4573
▁weather	-9.45984
▁X	-9.4623
▁18	-9.46255
▁address	-9.46265
▁collection	-9.46282
▁link	-9.4647
▁length	-9.46513
▁purpose	-9.4659
M	-9.46616
▁base	-9.46782
▁exercise	-9.46797
▁math	-9.46895
▁June	-9.469
▁appear	-9.46906
▁continue	-9.47164
▁named	-9.47431
▁values	-9.47489
▁getting	-9.47505
▁directly	-9.47623
▁serious	-9.47624
▁pre	-9.47677
▁England	-9.47697
▁Great	-9.47814
▁Is	-9.47865
▁fall	-9.4792
▁supply	-9.47943
▁communities	-9.48184
▁map	-9.4826
▁tell	-9.48374
▁sites	-9.4838
▁quite	-9.48598
▁Also	-9.48623
▁doing	-9.48647
▁V	-9.48661
▁dry	-9.48826
▁someone	-9.48853
▁families	-9.48945
▁construction	-9.49022
▁examples	-9.49203
▁classroom	-9.49467
▁ice	-9.49574
▁II	-9.49633
▁tests	-9.49636
▁International	-9.49647
▁month	-9.49691
▁market	-9.49718
▁media	-9.49719
▁protein	-9.4985
▁Because	-9.49979
▁People	-9.50006
F	-9.50243
▁international	-9.50246
▁teacher	-9.50298
▁April	-9.50316
▁sleep	-9.5033
▁search	-9.50343
▁Clean	-9.505
▁winter	-9.50599
▁importance	-9.50613
▁digital	-9.50856
▁Children	-9.51282
▁creating	-9.51282
▁account	-9.51289
▁user	-9.51337
▁night	-9.51359
▁West	-9.51401
▁middle	-9.51603
▁patient	-9.51818
up	-9.5185
▁unit	-9.51954
R	-9.52041
▁poor	-9.52077
▁severe	-9.52136
▁location	-9.52177
▁deep	-9.52194
▁measure	-9.52205
▁Indian	-9.52289
▁Common	-9.52597
▁record	-9.52636
▁tissue	-9.52656
is	-9.52711
▁requires	-9.52787
▁communication	-9.52839
▁Canada	-9.53014
▁cold	-9.53391
,”	-9.53573
▁Americans	-9.53585
▁mental	-9.53591
▁additional	-9.53617
▁19	-9.53661
▁affected	-9.53767
▁hands	-9.53784
▁earth	-9.53856
▁July	-9.53958
▁diabetes	-9.53978
▁weeks	-9.54049
▁fun	-9.54093
▁Control	-9.54108
▁instead	-9.54317
▁held	-9.5471
▁avoid	-9.54966
▁14	-9.55013
▁thinking	-9.55207
▁equipment	-9.55293
▁goal	-9.55309
▁protection	-9.55358
▁formed	-9.55516
▁properties	-9.55647
▁although	-9.55747
▁native	-9.55748
▁rest	-9.55788
▁See	-9.55833
▁guide	-9.56145
▁increasing	-9.56212
▁planet	-9.56243
▁love	-9.56255
▁Today	-9.56587
▁fuel	-9.56647
▁genetic	-9.56677
▁Safe	-9.5674
▁let	-9.56768
▁Q	-9.56835
▁gives	-9.56839
▁concept	-9.56854
▁projects	-9.56862
▁date	-9.57032
▁smaller	-9.57045
▁picture	-9.57056
▁acid	-9.57096
▁lesson	-9.57205
h	-9.57218
▁German	-9.57416
▁Then	-9.57433
org	-9.5768
▁Act	-9.57683
▁fruit	-9.57697
▁older	-9.57775
▁pages	-9.57776
▁whose	-9.5778
▁places	-9.57865
K	-9.57969
▁visit	-9.58039
H	-9.5806
▁eyes	-9.582
▁Australia	-9.58266
▁recently	-9.58331
▁front	-9.58415
▁bring	-9.58441
▁+	-9.58611
▁solution	-9.58645
ism	-9.58844
ness	-9.58869
▁eating	-9.59072
▁car	-9.59137
▁act	-9.59293
▁consider	-9.59378
▁DNA	-9.5939
▁wind	-9.59628
▁review	-9.59756
▁cover	-9.59767
▁machine	-9.59784
▁resource	-9.59828
▁testing	-9.59873
▁birth	-9.59891
▁doesn	-9.59896
▁historical	-9.59923
▁north	-9.60089
▁therefore	-9.60436
▁40	-9.60523
▁King	-9.60546
as	-9.60998
▁13	-9.61055
▁rates	-9.61123
▁exposure	-9.61178
▁remains	-9.61218
▁City	-9.61273
▁reach	-9.61539
▁components	-9.61541
▁limited	-9.61542
▁c	-9.61819
▁currently	-9.61877
▁September	-9.61934
▁direct	-9.61959
▁version	-9.61972
▁25	-9.61976
year	-9.62114
▁lack	-9.62122
▁cultural	-9.62179
▁offer	-9.62194
▁3.	-9.62276
▁responsible	-9.62567
▁piece	-9.62663
▁sugar	-9.62766
▁Internet	-9.62778
▁thus	-9.62844
▁doctor	-9.62882
▁January	-9.62905
▁described	-9.6294
▁About	-9.62952
▁co	-9.62959
▁blue	-9.63281
▁bone	-9.63488
▁via	-9.63498
▁metal	-9.63535
▁users	-9.63556
▁town	-9.63762
▁topic	-9.6389
▁lost	-9.64179
O	-9.64241
▁scale	-9.64282
▁Washington	-9.64388
▁spring	-9.64409
▁south	-9.64503
▁military	-9.64508
▁Products	-9.64546
▁Storage	-9.64747
▁news	-9.64805
term	-9.64832
▁Even	-9.64859
▁Injury	-9.65232
▁educational	-9.65269
▁patterns	-9.65326
▁nation	-9.65384
▁Once	-9.65445
▁table	-9.65512
▁standards	-9.65556
▁identified	-9.65604
▁Monitoring	-9.65892
▁Read	-9.65992
▁influence	-9.66028
▁disorder	-9.66072
▁Techniques	-9.66095
▁Spread	-9.6615
▁died	-9.66162
▁relationship	-9.66283
▁n	-9.66337
▁placed	-9.66366
▁drug	-9.66398
▁becomes	-9.66431
▁negative	-9.66556
▁distance	-9.66564
▁October	-9.66582
▁Eyes	-9.66612
▁hot	-9.66719
▁dark	-9.66896
▁property	-9.6698
▁Shared	-9.67036
▁policy	-9.67053
▁Not	-9.67224
▁stage	-9.6738
We	-9.67448
▁Please	-9.67495
▁basis	-9.67701
▁stop	-9.67708
▁regular	-9.67774
▁return	-9.68007
▁defined	-9.68115
▁providing	-9.68141
▁muscle	-9.68155
▁wood	-9.68211
▁grade	-9.68213
▁Good	-9.68216
▁interesting	-9.68222
▁expected	-9.68287
▁Touching	-9.68351
8	-9.68417
▁August	-9.68488
▁receive	-9.68622
▁names	-9.68692
▁December	-9.68708
▁brought	-9.68742
▁meet	-9.68762
▁towards	-9.68902
▁security	-9.68931
▁signs	-9.69011
▁thousands	-9.69101
▁drugs	-9.69194
▁models	-9.69196
▁applied	-9.69246
▁General	-9.69265
▁b	-9.69457
▁findings	-9.6948
▁choose	-9.695
▁structures	-9.69507
▁soon	-9.69515
▁Their	-9.69583
▁reasons	-9.69671
▁explore	-9.70076
▁http	-9.7008
▁steps	-9.70121
f	-9.70335
▁mouth	-9.70354
▁17	-9.70371
▁followed	-9.70417
▁baby	-9.70422
▁differences	-9.70492
G	-9.7054
▁Chinese	-9.70616
▁Sanitizer	-9.70635
L	-9.7066
▁Step	-9.70771
▁character	-9.70817
▁anti	-9.70921
▁Floss	-9.70927
▁concepts	-9.70956
▁Be	-9.71011
▁Properly	-9.71028
▁bottom	-9.71097
▁approximately	-9.71221
▁functions	-9.71234
▁Tissues	-9.71258
▁stories	-9.71262
▁treat	-9.71295
▁practices	-9.7131
▁rules	-9.71442
▁Park	-9.71483
This	-9.71525
▁flowers	-9.71574
▁Nasal	-9.71674
▁river	-9.71686
▁job	-9.71786
▁offers	-9.71823
▁t	-9.71939
▁Germs	-9.72056
▁correct	-9.72081
▁Disinfecting	-9.72278
▁East	-9.72314
▁rise	-9.7235
▁Caring	-9.72377
▁therapy	-9.72422
▁style	-9.72441
▁season	-9.72598
▁fat	-9.72916
▁Learn	-9.72944
▁received	-9.73053
▁0	-9.73071
▁equal	-9.73072
▁explain	-9.73088
▁Coughing	-9.73163
▁previous	-9.734
▁forest	-9.73404
▁Can	-9.73556
▁details	-9.73604
▁Drying	-9.73674
▁degree	-9.73935
▁moving	-9.73956
▁attack	-9.74183
▁went	-9.74193
▁goes	-9.7439
▁garden	-9.744
▁female	-9.74468
▁teach	-9.74532
▁billion	-9.74554
▁situation	-9.74669
▁Congestion	-9.74834
▁February	-9.74888
▁clean	-9.7492
▁Two	-9.7498
▁room	-9.75092
▁layer	-9.75163
▁rich	-9.752
▁workers	-9.75242
▁seems	-9.75288
ity	-9.75292
▁Museum	-9.75312
▁successful	-9.75353
▁upper	-9.75365
▁efforts	-9.75375
▁federal	-9.75451
▁regions	-9.75484
▁reports	-9.75764
▁plastic	-9.75805
▁success	-9.75892
▁Grade	-9.75946
▁professional	-9.76007
▁member	-9.76041
▁strategies	-9.76264
▁powerful	-9.76378
▁Over	-9.76382
▁financial	-9.76406
▁medicine	-9.76406
▁please	-9.76558
▁electricity	-9.76629
▁radiation	-9.76735
▁Learning	-9.76753
▁hold	-9.76766
▁companies	-9.76834
▁costs	-9.76846
▁Space	-9.76881
▁maintain	-9.76882
▁Black	-9.76911
▁yellow	-9.76922
▁widely	-9.77017
▁dog	-9.77023
▁square	-9.77024
▁pattern	-9.77176
▁records	-9.77239
▁talk	-9.77358
▁President	-9.77361
▁infections	-9.77417
▁measures	-9.77532
▁am	-9.77539
▁oxygen	-9.77567
▁letter	-9.77594
▁proper	-9.77605
▁root	-9.77619
▁November	-9.77757
▁opportunity	-9.77761
▁appears	-9.77766
▁final	-9.7778
▁fast	-9.77807
▁Web	-9.77825
▁characteristics	-9.77825
▁San	-9.77938
▁completely	-9.77946
▁Click	-9.77946
▁degrees	-9.7797
▁sub	-9.78218
v	-9.78229
▁immune	-9.78277
www	-9.78302
▁mother	-9.78568
▁told	-9.78581
▁relatively	-9.78682
▁asked	-9.78781
▁trade	-9.78851
▁Help	-9.78877
▁engineering	-9.78913
▁bad	-9.79012
▁click	-9.79107
▁private	-9.79189
▁famous	-9.79285
▁forces	-9.79465
▁seeds	-9.79482
▁introduced	-9.79584
▁got	-9.79783
▁disorders	-9.79958
▁beyond	-9.79961
▁document	-9.80287
▁presented	-9.80325
▁overall	-9.80333
▁covered	-9.80339
▁ask	-9.80382
▁toward	-9.80392
▁trying	-9.80409
▁fields	-9.80422
▁reference	-9.80428
▁changed	-9.80437
▁electrical	-9.80465
▁System	-9.80496
▁causing	-9.80553
▁topics	-9.80602
▁College	-9.80742
▁Roman	-9.80796
▁Society	-9.80801
▁William	-9.80887
▁bit	-9.80895
▁rare	-9.80916
▁consumption	-9.80955
▁increases	-9.81149
▁emissions	-9.81166
▁religious	-9.81195
▁21	-9.81269
▁running	-9.81432
W	-9.81528
▁injury	-9.81531
▁describe	-9.81805
▁challenges	-9.8185
▁everything	-9.81906
▁adult	-9.81912
▁games	-9.8192
▁reduced	-9.8195
▁technologies	-9.82006
▁organic	-9.82085
▁distribution	-9.8216
▁temperatures	-9.82161
▁UK	-9.82173
▁My	-9.82436
▁treated	-9.8244
▁cities	-9.82518
▁volume	-9.82618
▁released	-9.82716
▁sent	-9.82755
▁cross	-9.82908
▁Scheduling	-9.82922
▁release	-9.82989
▁organization	-9.83052
▁estimated	-9.83074
▁remain	-9.83087
▁planning	-9.83264
It	-9.83349
▁conducted	-9.83444
▁earlier	-9.83445
▁rock	-9.83542
▁Services	-9.83674
▁seven	-9.83752
▁sample	-9.83817
▁showed	-9.83879
▁Union	-9.83967
▁inches	-9.83986
▁anything	-9.84117
▁vision	-9.8414
▁Special	-9.84167
▁Care	-9.84189
▁benefit	-9.84325
of	-9.84358
▁Spanish	-9.84391
▁separate	-9.84447
▁seem	-9.84464
▁involves	-9.84483
▁bird	-9.84501
▁extremely	-9.84511
▁24	-9.8462
▁Information	-9.84695
ia	-9.84706
▁everyone	-9.84726
▁effort	-9.84758
▁HIV	-9.84764
▁visual	-9.84811
▁saw	-9.8483
▁London	-9.84864
▁literature	-9.84914
▁male	-9.8497
▁gene	-9.85
▁figure	-9.8505
▁existing	-9.85223
▁northern	-9.85308
▁cycle	-9.85365
▁wild	-9.85374
▁direction	-9.85524
▁Area	-9.85554
▁Project	-9.85677
▁Texas	-9.85688
▁mission	-9.85696
▁Germany	-9.8571
▁hair	-9.85711
▁southern	-9.85725
▁believed	-9.85805
▁buildings	-9.85903
▁apply	-9.85946
▁letters	-9.86069
▁break	-9.86099
▁Greek	-9.86149
▁resistance	-9.86334
▁Western	-9.86566
▁referred	-9.86611
▁Journal	-9.86649
▁Japanese	-9.86682
▁task	-9.86814
▁travel	-9.86987
▁al	-9.87013
▁links	-9.87082
▁father	-9.87084
▁files	-9.87103
▁leave	-9.87156
5	-9.87232
▁Japan	-9.87308
▁economy	-9.87345
▁heavy	-9.87365
▁decades	-9.87385
▁factor	-9.87481
▁learned	-9.87526
▁Association	-9.87541
▁gain	-9.87564
▁definition	-9.87564
▁foot	-9.87662
▁achieve	-9.87668
▁store	-9.87699
▁Make	-9.87734
▁breast	-9.87762
▁context	-9.87802
▁save	-9.87825
▁atmosphere	-9.87876
▁Heart	-9.87893
▁notes	-9.87932
▁eight	-9.87955
▁assessment	-9.8803
▁board	-9.88047
▁languages	-9.88068
▁presence	-9.88143
▁laws	-9.88228
▁woman	-9.88282
▁status	-9.88294
V	-9.88395
▁combination	-9.88406
▁pollution	-9.88533
▁sign	-9.88564
▁remove	-9.88617
▁balance	-9.88639
▁eggs	-9.88641
▁Re	-9.88668
▁alcohol	-9.88728
▁consists	-9.88775
".	-9.88798
▁commercial	-9.8881
▁highest	-9.88824
▁curriculum	-9.88882
▁Access	-9.88889
▁professor	-9.88903
▁2012	-9.88964
▁tooth	-9.89006
▁note	-9.89012
by	-9.89045
▁suggests	-9.89112
▁majority	-9.89117
▁stay	-9.89134
▁articles	-9.89164
▁aspects	-9.89203
▁rule	-9.8923
ist	-9.89294
▁strength	-9.89302
▁chronic	-9.89328
▁coming	-9.89457
▁surgery	-9.8946
▁wall	-9.89574
▁glass	-9.89584
▁carry	-9.89593
▁Another	-9.89688
▁display	-9.89714
▁iron	-9.89736
▁carried	-9.89744
▁classes	-9.89814
▁worked	-9.89862
▁storage	-9.89888
▁feed	-9.89908
▁populations	-9.8994
▁Sea	-9.89959
▁pay	-9.90012
▁choice	-9.90019
▁film	-9.90033
▁capital	-9.90221
▁Red	-9.90222
▁Mexico	-9.90422
▁Technology	-9.90436
▁France	-9.90444
▁milk	-9.90448
▁Student	-9.90479
▁passed	-9.90484
▁frequently	-9.90564
▁d	-9.90694
▁House	-9.90696
▁James	-9.90811
▁connected	-9.91005
▁requirements	-9.91234
▁mainly	-9.91324
▁THE	-9.91334
▁wrote	-9.91342
▁easier	-9.91348
ation	-9.91504
▁road	-9.91545
▁affects	-9.91558
▁legal	-9.91625
▁eventually	-9.91711
▁Asia	-9.91754
▁becoming	-9.91819
▁mid	-9.91819
▁dogs	-9.91826
▁starting	-9.9184
▁resulting	-9.9195
▁alone	-9.91982
▁fully	-9.92039
▁opportunities	-9.92055
▁generation	-9.92121
▁plans	-9.92338
▁son	-9.92501
▁Library	-9.92524
▁output	-9.92543
▁ten	-9.92549
▁speech	-9.92555
▁mostly	-9.92648
▁capacity	-9.92655
it	-9.92657
▁Contact	-9.9266
▁ocean	-9.92687
▁habitat	-9.92706
ton	-9.92721
▁colors	-9.92757
▁units	-9.92858
▁progress	-9.92885
▁island	-9.93
▁huge	-9.93178
▁nuclear	-9.93256
▁bodies	-9.93552
at	-9.93581
▁giving	-9.93599
▁lived	-9.93601
▁options	-9.9373
▁1,	-9.93781
▁numerous	-9.93811
▁discussion	-9.93854
▁performed	-9.93876
▁Following	-9.93878
▁Church	-9.94141
▁box	-9.94199
▁chance	-9.94224
▁Cross	-9.94294
▁chemicals	-9.94304
▁David	-9.94307
▁depression	-9.9437
▁experts	-9.9444
▁core	-9.94451
▁observed	-9.94469
▁warm	-9.94478
▁changing	-9.94537
▁star	-9.94547
▁liquid	-9.94649
▁experiences	-9.94685
▁remember	-9.94759
▁target	-9.94785
▁won	-9.94807
▁discuss	-9.9483
▁yourself	-9.94864
▁setting	-9.94934
▁annual	-9.94935
▁Let	-9.95035
▁Both	-9.95055
▁processing	-9.95073
▁linked	-9.95107
▁Local	-9.95176
▁Book	-9.95202
▁friends	-9.95206
▁journal	-9.95235
▁tend	-9.95288
▁represent	-9.95318
▁60	-9.95318
▁pieces	-9.95378
▁moon	-9.95443
▁refers	-9.95494
▁staff	-9.95494
▁lessons	-9.95498
▁church	-9.95534
▁conservation	-9.9561
▁advanced	-9.95625
▁ones	-9.95629
▁statement	-9.95639
▁fluid	-9.9573
▁suggest	-9.95737
▁allowed	-9.95856
▁muscles	-9.95875
▁finding	-9.95905
▁urban	-9.95936
▁George	-9.96061
▁extra	-9.9609
▁significantly	-9.96353
▁Sun	-9.96648
▁exposed	-9.96694
▁industrial	-9.96716
u	-9.96763
▁hope	-9.96921
▁Types	-9.96966
▁operations	-9.97012
▁demand	-9.97026
time	-9.97167
=	-9.97187
▁element	-9.97204
▁particles	-9.97242
▁depending	-9.97309
▁vitamin	-9.97328
▁principles	-9.97377
▁stars	-9.97384
▁Are	-9.97425
▁begins	-9.97465
▁practical	-9.97475
▁reaction	-9.97543
▁Its	-9.97584
▁recorded	-9.97658
▁draw	-9.9778
▁electric	-9.97782
▁signal	-9.97797
▁4.	-9.97877
▁origin	-9.97878
▁deal	-9.97895
▁survey	-9.97984
▁Service	-9.98036
▁joint	-9.98074
▁Course	-9.98231
▁looks	-9.98324
▁feature	-9.98399
▁divided	-9.98412
▁brown	-9.98515
In	-9.98632
▁email	-9.98665
▁Development	-9.98705
▁Right	-9.98738
▁exist	-9.98763
▁Human	-9.98828
▁Researchers	-9.98844
▁primarily	-9.98923
▁price	-9.98938
▁Medicine	-9.9898
▁Program	-9.98991
▁goals	-9.99078
▁happens	-9.99093
▁Civil	-9.99095
▁removed	-9.9918
▁happen	-9.99229
less	-9.99269
▁Jesus	-9.99298
▁characters	-9.99329
▁Results	-9.99378
▁dangerous	-9.9953
▁visible	-9.99687
▁Language	-9.99691
▁pass	-9.99745
▁moved	-9.99929
▁Latin	-9.9995
te	-10.0006
▁vegetables	-10.0013
▁Jewish	-10.0014
▁actual	-10.0024
▁infected	-10.0027
▁Lake	-10.003
▁clinical	-10.0037
▁frequency	-10.0041
▁Island	-10.0041
▁die	-10.0042
▁gets	-10.0065
▁introduction	-10.0076
▁roots	-10.008
▁Therefore	-10.0082
▁engine	-10.0082
▁challenge	-10.0088
▁2013	-10.0094
▁stone	-10.0101
related	-10.0102
▁serve	-10.011
day	-10.0111
▁Mars	-10.012
▁west	-10.0136
▁height	-10.0142
▁properly	-10.0144
▁collected	-10.0145
▁gold	-10.0164
▁gave	-10.0167
▁background	-10.017
▁income	-10.0174
▁hearing	-10.0178
▁office	-10.018
▁Pacific	-10.0181
▁internal	-10.0185
▁White	-10.0186
▁isn	-10.0188
▁exactly	-10.0205
▁recommended	-10.0208
▁nothing	-10.0214
▁News	-10.0217
▁et	-10.0227
▁centuries	-10.0228
▁drive	-10.023
▁reducing	-10.0234
▁chapter	-10.0237
rs	-10.0251
▁connection	-10.0252
▁alternative	-10.0253
▁2010	-10.0272
▁format	-10.0277
▁multi	-10.0278
▁procedure	-10.0287
▁fine	-10.029
▁Central	-10.0298
▁surrounding	-10.0303
▁promote	-10.0306
▁continued	-10.031
▁facts	-10.0325
▁Professor	-10.0334
▁Britain	-10.034
▁tips	-10.0343
▁instance	-10.0344
ian	-10.0347
z	-10.0358
▁enter	-10.0362
▁computers	-10.0363
▁Find	-10.0364
▁formation	-10.0368
▁academic	-10.0372
▁km	-10.0376
▁amounts	-10.0379
▁Life	-10.0383
▁Environmental	-10.0384
▁Or	-10.0387
▁path	-10.039
▁studied	-10.0402
▁motor	-10.0402
▁Art	-10.0415
▁solid	-10.0417
▁Wind	-10.0428
▁Energy	-10.0429
▁Middle	-10.0441
▁east	-10.0442
▁print	-10.0444
▁host	-10.0447
▁anyone	-10.0451
▁genes	-10.0454
▁essay	-10.046
▁stem	-10.047
▁latest	-10.0477
▁race	-10.0481
▁Old	-10.0482
▁beautiful	-10.0483
▁programming	-10.0485
▁cm	-10.0488
▁Others	-10.0491
▁interested	-10.0495
▁diagnosis	-10.0497
▁dead	-10.0507
▁library	-10.0508
▁slow	-10.0527
▁message	-10.0529
▁college	-10.0529
▁perhaps	-10.053
▁operating	-10.0532
▁awareness	-10.0536
▁efficient	-10.0536
▁input	-10.0538
▁initial	-10.0538
▁ball	-10.054
▁operation	-10.0543
▁sounds	-10.0564
▁purposes	-10.057
▁biological	-10.0575
▁Congress	-10.0588
▁liver	-10.0592
▁taught	-10.0608
▁f	-10.0616
um	-10.0622
▁independent	-10.0622
▁served	-10.0624
see	-10.0625
▁solutions	-10.0648
▁component	-10.0648
▁2011	-10.065
▁forward	-10.0653
▁didn	-10.0655
▁coast	-10.0669
▁grown	-10.0672
▁De	-10.0676
▁determined	-10.0696
▁drinking	-10.0697
▁completed	-10.0697
▁homes	-10.0701
▁meat	-10.0715
J	-10.0719
6	-10.0727
▁Body	-10.0729
no	-10.0733
▁discovery	-10.0735
▁presentation	-10.0736
▁track	-10.0738
▁samples	-10.074
▁motion	-10.0742
▁insects	-10.0753
▁command	-10.0756
▁ready	-10.076
w	-10.0762
▁participants	-10.077
▁Content	-10.0771
▁screen	-10.0772
▁perfect	-10.0784
▁ages	-10.0794
▁containing	-10.0801
▁previously	-10.0809
▁showing	-10.0811
▁relevant	-10.0811
▁agricultural	-10.0814
▁radio	-10.0821
▁immediately	-10.0833
▁expression	-10.0836
▁failure	-10.0856
▁vehicle	-10.0858
ion	-10.0867
▁explains	-10.0868
▁pictures	-10.087
▁Thus	-10.0875
▁killed	-10.0876
",	-10.0882
▁Google	-10.0882
–	-10.0886
le	-10.0894
▁indicate	-10.0911
▁describes	-10.0912
▁relationships	-10.0915
▁intended	-10.0923
▁nutrients	-10.0924
▁photo	-10.0932
▁heard	-10.0932
▁Healthy	-10.0953
▁onto	-10.0962
▁Florida	-10.0979
▁efficiency	-10.098
▁relative	-10.098
▁emergency	-10.0981
▁organizations	-10.0985
▁Eating	-10.0989
▁himself	-10.099
▁Have	-10.102
▁western	-10.1037
line	-10.1042
▁hour	-10.1048
old	-10.1057
▁Council	-10.1061
▁fresh	-10.1063
▁vaccine	-10.1065
+	-10.1107
▁creation	-10.1108
▁Note	-10.111
▁hear	-10.1111
▁kinds	-10.1112
▁soft	-10.1119
▁crops	-10.1123
▁seed	-10.1126
ie	-10.1132
▁evolution	-10.1138
▁contribute	-10.1142
▁vital	-10.1147
▁double	-10.1157
▁injuries	-10.1158
▁Virginia	-10.1161
▁turned	-10.1163
▁fruits	-10.1164
▁former	-10.1166
▁risks	-10.1173
▁measured	-10.1173
▁Professional	-10.1183
▁sustainable	-10.1188
▁block	-10.1202
▁tiny	-10.1204
▁Better	-10.1213
);	-10.122
▁syndrome	-10.1229
▁Air	-10.1231
▁helping	-10.1244
▁deaths	-10.1249
▁fight	-10.1267
▁tasks	-10.1268
▁helped	-10.1271
▁faster	-10.1272
▁landscape	-10.1273
▁ear	-10.1275
▁phase	-10.1285
▁experienced	-10.129
▁wrong	-10.1293
▁bones	-10.1295
▁wildlife	-10.1307
▁vary	-10.1318
▁effectively	-10.1321
▁typical	-10.1324
▁Benefits	-10.1325
▁authors	-10.1338
▁Like	-10.1339
▁worldwide	-10.134
one	-10.1369
▁oral	-10.1385
▁leads	-10.1387
▁enjoy	-10.1388
▁morning	-10.1393
▁Studies	-10.1397
▁solve	-10.1407
▁official	-10.141
for	-10.1426
▁Early	-10.1429
▁200	-10.1433
▁combined	-10.1433
▁forests	-10.1442
▁aware	-10.1444
▁Academic	-10.1445
▁sexual	-10.1454
▁electronic	-10.1456
▁civil	-10.1456
▁Press	-10.1466
▁o	-10.1473
▁normally	-10.1474
▁situations	-10.1476
▁Just	-10.1483
▁Bay	-10.1487
▁encourage	-10.1489
▁monitoring	-10.1496
▁Topics	-10.1501
▁novel	-10.1508
▁Native	-10.1513
▁selected	-10.1513
nd	-10.1516
▁allowing	-10.1533
▁flu	-10.1539
▁conflict	-10.1548
▁appearance	-10.1551
▁documents	-10.1552
▁maximum	-10.1554
▁answers	-10.1559
▁prior	-10.1563
▁Government	-10.1566
▁Women	-10.157
▁slightly	-10.1576
▁Thomas	-10.1579
▁accurate	-10.1581
▁hundreds	-10.1585
▁Every	-10.1593
▁meeting	-10.1593
▁subjects	-10.1595
▁drawing	-10.1602
▁Guidelines	-10.161
▁ship	-10.1617
▁impacts	-10.1617
▁flight	-10.1618
▁Part	-10.162
▁salt	-10.1622
▁Christian	-10.1629
▁Reading	-10.163
▁experiment	-10.1634
▁walls	-10.1637
▁marine	-10.1649
▁pregnancy	-10.1662
▁represents	-10.1675
▁aid	-10.1682
▁technical	-10.1682
▁constant	-10.1686
▁Exercise	-10.1696
▁dental	-10.1704
▁cards	-10.1712
▁emotional	-10.1717
▁improved	-10.1723
▁spent	-10.1725
▁violence	-10.173
▁Scientists	-10.1731
▁played	-10.1738
▁originally	-10.1738
▁comprehensive	-10.1744
▁Diet	-10.1744
▁Green	-10.1746
el	-10.1746
▁Time	-10.1754
▁substance	-10.1762
▁OF	-10.1763
▁title	-10.1767
▁Disease	-10.1776
▁concern	-10.1793
▁portion	-10.1802
▁regarding	-10.1804
▁Product	-10.1816
▁Math	-10.1817
▁Year	-10.1821
▁tested	-10.1846
▁clearly	-10.1856
ate	-10.1857
▁Don	-10.1865
▁server	-10.1867
▁sides	-10.1871
▁Areas	-10.1873
▁proteins	-10.188
▁foreign	-10.188
▁waves	-10.1886
▁limit	-10.1895
▁stored	-10.1896
▁external	-10.1899
▁treatments	-10.1902
▁select	-10.1915
▁Flight	-10.1916
▁inflammation	-10.1939
▁window	-10.1947
▁credit	-10.1948
▁attempt	-10.1949
▁farmers	-10.195
▁mobile	-10.195
▁periods	-10.1956
▁excellent	-10.1958
▁rain	-10.196
▁steel	-10.1969
▁coal	-10.197
▁nerve	-10.1976
▁Last	-10.1977
▁Skin	-10.1997
▁fundamental	-10.2003
▁stand	-10.2008
▁legs	-10.2009
▁Type	-10.2024
▁occurred	-10.2035
▁crop	-10.2035
▁Task	-10.2043
▁Chapter	-10.2043
▁extreme	-10.205
▁gender	-10.2052
▁send	-10.2056
▁continues	-10.2066
▁22	-10.2068
▁charge	-10.2072
▁maps	-10.2084
▁Y	-10.2084
▁Speed	-10.2093
▁Doctor	-10.2097
▁specifically	-10.2106
▁dust	-10.2108
▁phone	-10.2109
▁battle	-10.2112
▁focused	-10.2112
▁respect	-10.2118
▁Cancer	-10.2125
▁career	-10.213
▁fit	-10.2132
ry	-10.2132
▁transport	-10.2139
▁depends	-10.2141
▁concerns	-10.2143
de	-10.2151
▁covers	-10.2157
▁v	-10.2168
▁anxiety	-10.2169
land	-10.217
ized	-10.2173
▁wanted	-10.2174
▁controlled	-10.2181
▁Basics	-10.2196
▁variable	-10.2196
▁Co	-10.2204
▁Market	-10.2208
▁familiar	-10.2211
▁kept	-10.222
▁Robert	-10.2222
▁reduction	-10.2222
▁floor	-10.2224
▁Take	-10.2227
▁court	-10.2233
▁manage	-10.2241
▁Who	-10.2244
▁religion	-10.2254
▁diverse	-10.2254
X	-10.2259
▁generate	-10.2261
▁sequence	-10.2266
▁attacks	-10.227
▁rapidly	-10.2273
▁Home	-10.2275
▁Australian	-10.2279
▁greatest	-10.2279
▁reality	-10.2281
▁sand	-10.2283
▁Resources	-10.2291
▁Face	-10.2292
▁magnetic	-10.2306
▁procedures	-10.2308
▁circuit	-10.2316
▁decided	-10.2331
▁User	-10.2335
▁thin	-10.2339
▁laboratory	-10.2341
▁Performance	-10.2343
▁Off	-10.2344
▁g	-10.2349
▁girls	-10.2371
▁playing	-10.2374
▁aircraft	-10.238
▁follows	-10.2385
▁voice	-10.2393
▁Processing	-10.2394
▁molecules	-10.2397
▁prepared	-10.2397
▁vessels	-10.2397
▁readers	-10.2405
▁prevention	-10.2408
▁speak	-10.2408
▁option	-10.2409
▁citizens	-10.2416
▁broad	-10.2421
▁agriculture	-10.2425
▁camera	-10.2426
▁copy	-10.2426
▁Natural	-10.2428
▁king	-10.2438
▁rural	-10.2439
▁Date	-10.2439
▁Study	-10.246
10	-10.247
▁Free	-10.2477
son	-10.2477
▁driving	-10.248
▁largely	-10.2489
▁Dictionary	-10.2491
▁flat	-10.2494
▁adding	-10.2494
▁prepare	-10.2495
▁internet	-10.2506
▁edge	-10.2509
na	-10.2513
▁diversity	-10.2513
▁manner	-10.2515
rd	-10.2516
▁card	-10.2518
▁producing	-10.2521
▁warming	-10.2526
▁spot	-10.2527
▁helpful	-10.2535
▁finally	-10.2535
▁sky	-10.2537
▁potentially	-10.2538
▁Foundation	-10.2538
▁CO	-10.2538
▁discussed	-10.254
ling	-10.2546
▁organisms	-10.255
▁closely	-10.2551
▁medium	-10.2551
▁childhood	-10.2555
▁policies	-10.256
▁starts	-10.256
▁Recovery	-10.2562
▁Nature	-10.2562
▁cool	-10.2565
▁naturally	-10.2568
▁80	-10.2569
age	-10.257
▁leaders	-10.2576
ar	-10.2581
▁Guide	-10.2584
▁stomach	-10.2588
▁approaches	-10.2592
▁rapid	-10.2597
▁produces	-10.2599
▁contrast	-10.2599
▁experiments	-10.2601
▁Bible	-10.2602
▁listed	-10.2613
▁round	-10.262
▁suitable	-10.262
▁generated	-10.2627
▁watch	-10.2627
▁sets	-10.2631
▁bright	-10.2632
▁studying	-10.2633
▁unknown	-10.2634
▁hit	-10.2644
▁valuable	-10.2644
▁hundred	-10.2648
▁fear	-10.265
▁raised	-10.2651
▁farm	-10.2652
▁advantage	-10.2652
▁millions	-10.2656
▁derived	-10.2656
-19	-10.2657
▁sex	-10.2659
▁sheet	-10.2662
▁feeling	-10.2665
▁protected	-10.2668
▁recognized	-10.267
▁Those	-10.268
▁spend	-10.2684
▁string	-10.2686
▁Equipment	-10.2693
▁Rate	-10.2695
▁increasingly	-10.2705
▁stages	-10.2707
▁strategy	-10.2707
▁Sugar	-10.2713
▁secondary	-10.2716
▁refer	-10.2719
▁dioxide	-10.2719
▁looked	-10.272
▁residents	-10.2729
▁transfer	-10.2731
▁Records	-10.2735
▁moment	-10.2739
▁reached	-10.274
ization	-10.2752
▁Get	-10.2757
▁tax	-10.2762
▁eastern	-10.2762
▁poverty	-10.2771
▁Frequently	-10.2784
▁drink	-10.2786
▁freedom	-10.279
▁Where	-10.279
▁abuse	-10.2794
▁proposed	-10.2797
▁explained	-10.2798
▁Exam	-10.2811
▁detail	-10.2815
ta	-10.282
▁Mary	-10.2821
▁Only	-10.2841
▁Charles	-10.2842
▁threat	-10.2843
▁concentration	-10.2846
▁2009	-10.2849
▁consequences	-10.285
▁Paul	-10.2856
▁station	-10.2856
▁detect	-10.2874
▁description	-10.2875
▁satellite	-10.2876
▁obtained	-10.288
▁instruction	-10.2891
▁vehicles	-10.2891
ally	-10.2896
▁ideal	-10.2897
▁Carolina	-10.2898
▁Henry	-10.291
▁park	-10.2911
▁perspective	-10.2911
▁buy	-10.2915
▁cent	-10.2915
▁walk	-10.2917
▁fever	-10.2931
▁sentence	-10.2934
▁cat	-10.2936
▁parent	-10.2939
▁shapes	-10.2939
▁Correct	-10.2947
▁noted	-10.2954
▁survive	-10.2956
▁Tobacco	-10.2965
▁Stock	-10.2968
▁Trip	-10.2972
▁Frequency	-10.2972
▁Mr	-10.2973
▁selection	-10.2975
▁supported	-10.2976
▁micro	-10.2977
▁keeping	-10.2979
▁Fruits	-10.2981
▁movements	-10.2988
▁diagnosed	-10.2992
▁attached	-10.3002
▁Formation	-10.3002
ment	-10.3002
▁vast	-10.3003
▁cognitive	-10.3007
▁leader	-10.3007
▁Infections	-10.3013
▁extent	-10.3014
▁Windows	-10.3016
▁Identity	-10.3022
▁colour	-10.3024
▁Traffic	-10.3026
▁drop	-10.3034
▁Electronics	-10.3037
▁advice	-10.304
▁architecture	-10.3043
▁index	-10.3043
▁signals	-10.3057
▁director	-10.3058
▁courses	-10.3069
▁transmission	-10.307
▁quick	-10.3071
▁officials	-10.3078
▁traffic	-10.3086
▁massive	-10.3088
▁lab	-10.3113
▁#	-10.3117
▁Law	-10.3121
▁Army	-10.3127
▁figures	-10.3145
▁leaf	-10.3153
▁Detection	-10.3153
▁extensive	-10.3155
▁snow	-10.317
▁creative	-10.3172
▁23	-10.3172
▁guidelines	-10.3175
▁download	-10.3182
▁Technique	-10.3183
▁environments	-10.3186
▁universe	-10.3187
co	-10.3187
▁neck	-10.3193
▁Post	-10.3201
▁straight	-10.3203
▁otherwise	-10.3212
▁facilities	-10.3215
▁Wet	-10.3216
men	-10.3217
▁vocabulary	-10.322
▁Shipping	-10.3222
▁Hotel	-10.3224
▁Southern	-10.3232
▁Through	-10.3236
▁era	-10.3249
▁Mouth	-10.3257
▁manufacturing	-10.3258
▁capable	-10.3265
▁Humidity	-10.3265
▁Northern	-10.3267
▁examine	-10.3267
▁Open	-10.3269
▁wave	-10.3269
▁suffer	-10.3278
▁president	-10.3281
▁survival	-10.3285
▁Feet	-10.3289
▁lung	-10.3296
[	-10.33
▁Vegetables	-10.3303
▁hole	-10.3308
▁Second	-10.3313
▁harmful	-10.3317
▁remote	-10.332
▁flower	-10.332
▁physics	-10.3321
▁plays	-10.3325
▁Outer	-10.3328
▁battery	-10.3329
▁networks	-10.3331
▁twice	-10.3335
▁brief	-10.3336
▁decrease	-10.3337
▁minimum	-10.3338
▁depth	-10.3343
▁Valley	-10.335
▁Washing	-10.3357
▁labor	-10.3365
▁party	-10.3367
Y	-10.3371
▁instrument	-10.3386
▁Rights	-10.3386
▁cars	-10.3393
▁5.	-10.3398
▁BC	-10.3403
0	-10.3403
▁lose	-10.3407
▁Marketing	-10.3413
▁instruments	-10.3414
▁aim	-10.3417
▁2008	-10.3421
▁Measures	-10.343
▁toxic	-10.3433
▁sensitive	-10.344
▁district	-10.3448
▁Soap	-10.3456
▁Investment	-10.3462
▁symbol	-10.3464
▁Federal	-10.3467
▁Cybersecurity	-10.3468
▁mountain	-10.3469
▁stroke	-10.3473
▁Source	-10.3473
▁Sick	-10.3479
▁corn	-10.348
▁instructions	-10.3485
▁Ride	-10.349
▁crucial	-10.3491
▁Forecast	-10.3498
▁locations	-10.3505
▁Covering	-10.3512
▁village	-10.3517
▁cutting	-10.3518
▁Illness	-10.352
▁institutions	-10.3524
▁Tongue	-10.3524
▁Vehicle	-10.3529
▁suggested	-10.3531
▁70	-10.3531
▁stream	-10.3538
▁sports	-10.3539
▁offered	-10.354
▁identity	-10.3542
ch	-10.3545
▁chain	-10.3556
▁monitor	-10.3557
▁28	-10.3557
▁medications	-10.3562
:||	-10.3563
▁Removal	-10.3564
▁Elbow	-10.3567
▁Despite	-10.3572
▁saying	-10.3573
▁Route	-10.3574
▁meters	-10.3578
▁Sometimes	-10.358
▁wear	-10.3585
▁composition	-10.3586
▁forced	-10.3587
▁Calculation	-10.3591
▁Global	-10.3592
▁closed	-10.3596
▁Lens	-10.3597
▁filled	-10.3598
▁Wearing	-10.3607
▁meant	-10.3607
▁Her	-10.3607
▁Appropriate	-10.3612
▁Canadian	-10.3617
▁Payment	-10.3636
▁Counting	-10.364
▁shall	-10.3642
▁obesity	-10.3652
▁Reducing	-10.3653
▁Seeking	-10.3656
▁machines	-10.3657
▁couple	-10.3657
▁voltage	-10.3658
▁hydrogen	-10.366
▁Preventive	-10.3662
▁Lord	-10.3664
▁Man	-10.3665
▁Availability	-10.3667
▁foundation	-10.3668
▁usage	-10.3673
▁nine	-10.3673
▁tissues	-10.3674
▁Precipitation	-10.3681
▁youth	-10.3683
▁distinct	-10.3688
▁Z	-10.3688
▁Allergies	-10.3694
▁Copyright	-10.3696
▁26	-10.3696
▁sold	-10.3697
▁Spaces	-10.3697
▁raise	-10.3698
▁tradition	-10.3701
Tips	-10.3707
▁Clearing	-10.3715
▁Group	-10.3718
&	-10.3723
▁Nations	-10.3726
▁Reservation	-10.3727
▁300	-10.3728
▁Columbia	-10.3729
▁Passages	-10.3733
▁goods	-10.3733
▁greenhouse	-10.3735
▁Odor	-10.3738
▁jobs	-10.3741
▁raw	-10.3741
▁Laundry	-10.3745
▁peace	-10.3751
▁domestic	-10.3751
▁enhance	-10.3751
▁Israel	-10.3752
▁fiber	-10.3752
▁angle	-10.3755
▁Dealing	-10.3759
▁creates	-10.3759
▁tube	-10.3761
▁2000	-10.3766
▁Climate	-10.3767
▁reader	-10.3769
▁smoke	-10.377
▁county	-10.3779
▁interactive	-10.378
▁La	-10.378
▁enable	-10.3785
▁Restrooms	-10.3793
▁except	-10.3794
▁concerned	-10.3801
▁Loan	-10.3802
▁Completely	-10.3807
▁Egypt	-10.3811
▁substances	-10.3815
▁Goal	-10.3815
▁suffering	-10.3817
▁nations	-10.3825
▁tropical	-10.3826
▁Pricing	-10.3826
7	-10.3834
▁Instead	-10.3837
▁Shaping	-10.3844
▁Shoes	-10.3844
▁sort	-10.3849
▁cholesterol	-10.3854
▁density	-10.3856
▁Accessories	-10.3857
▁Toenails	-10.3862
▁revealed	-10.3863
▁Clothes	-10.3866
▁Respecting	-10.3867
▁breathing	-10.3867
▁Three	-10.3868
▁Seconds	-10.3873
▁opposite	-10.3873
▁leaving	-10.3874
▁Blowing	-10.3875
▁Carrying	-10.3875
mm	-10.3876
▁decade	-10.3877
▁Scrubbing	-10.3879
▁improving	-10.3879
▁Such	-10.3879
▁Mildew	-10.3886
▁Dentist	-10.3888
▁circle	-10.3889
▁Jews	-10.3891
os	-10.3891
▁egg	-10.3892
▁regional	-10.3893
▁layers	-10.3894
▁Filing	-10.3895
▁calcium	-10.3896
▁communicate	-10.39
▁Court	-10.3903
▁appeared	-10.3907
ne	-10.3907
▁Conditioning	-10.392
▁doctors	-10.3921
▁Family	-10.3924
▁Recommendations	-10.3924
▁mathematics	-10.3924
▁painting	-10.3924
▁broken	-10.3929
▁cloud	-10.393
▁Habit	-10.3938
▁rocks	-10.394
▁grass	-10.394
▁trial	-10.3941
▁Fabrics	-10.3943
▁item	-10.3944
▁nor	-10.3946
▁Un	-10.3949
▁Among	-10.3949
▁audience	-10.3952
▁kill	-10.3953
▁Fraud	-10.3953
▁respond	-10.3954
▁Irritation	-10.3955
▁Suitable	-10.3957
▁Age	-10.3963
▁friend	-10.3967
▁Brushing	-10.3974
▁establish	-10.3982
▁lots	-10.3982
▁coastal	-10.3983
▁Contamination	-10.3985
id	-10.3985
.|	-10.3986
▁framework	-10.3987
▁error	-10.3991
▁organs	-10.3993
▁Surfaces	-10.3994
▁fill	-10.3994
▁Illnesses	-10.3997
▁Eyelids	-10.3998
▁Verification	-10.3998
▁Attractions	-10.4
▁count	-10.4002
▁Utensils	-10.4002
ine	-10.401
▁Visiting	-10.401
▁Office	-10.4016
▁stands	-10.4021
▁Stain	-10.4028
▁Cleansing	-10.4029
▁press	-10.4034
▁Cuticle	-10.4038
▁Foodborne	-10.4039
▁compounds	-10.4047
▁Enrollment	-10.405
▁Mouthwash	-10.405
▁expect	-10.4053
▁y	-10.4057
▁Calendar	-10.4063
▁colleagues	-10.4067
▁recognize	-10.4067
▁horse	-10.4067
▁Earwax	-10.4068
▁Comfortable	-10.407
Contamination	-10.4072
▁load	-10.4076
▁Track	-10.4081
▁Ocean	-10.4082
▁worth	-10.4084
▁focuses	-10.4084
▁organized	-10.4086
▁Encryption	-10.409
▁Ireland	-10.4091
▁regularly	-10.4099
▁tells	-10.4099
▁Towels	-10.4099
▁inner	-10.4102
un	-10.4106
▁houses	-10.4107
▁Disposal	-10.4113
▁Wipes	-10.4115
▁tall	-10.4119
▁Buildup	-10.412
▁Plant	-10.412
▁(1	-10.4128
▁hospital	-10.4131
▁Nosebleeds	-10.4131
▁Sanitizing	-10.4134
▁edition	-10.4136
▁adopted	-10.414
▁happened	-10.4148
▁intake	-10.4149
▁fly	-10.4155
▁outcomes	-10.4158
▁Any	-10.416
▁Engagement	-10.4161
Sharing	-10.4163
▁Toothbrush	-10.4177
▁concrete	-10.418
▁reflect	-10.4182
level	-10.4183
▁feeding	-10.4198
▁opening	-10.4198
▁assess	-10.42
▁sections	-10.4204
▁met	-10.4204
▁connect	-10.4205
▁whom	-10.4206
▁exchange	-10.4209
):	-10.4216
▁Odors	-10.4219
▁claim	-10.4221
▁returned	-10.4224
▁nearby	-10.4225
▁permanent	-10.4226
▁noise	-10.4226
▁rivers	-10.4243
▁Recommendation	-10.4246
▁Shampoo	-10.4246
▁Russian	-10.4247
Touched	-10.425
▁touch	-10.4256
▁decline	-10.4263
▁Discounts	-10.4267
▁pretty	-10.427
▁Rins	-10.4271
▁kidney	-10.4273
▁slowly	-10.4273
▁involve	-10.4274
▁nutrition	-10.4276
▁acids	-10.428
▁Introduction	-10.4282
▁Company	-10.4287
which	-10.4293
▁fossil	-10.4306
▁column	-10.4316
▁household	-10.4324
▁measurement	-10.4324
▁bridge	-10.4328
▁thoughts	-10.4329
out	-10.433
▁define	-10.433
▁90	-10.4331
▁responsibility	-10.4335
▁Calculations	-10.4336
▁existence	-10.4338
▁Though	-10.434
▁Etiquette	-10.4341
▁bed	-10.4344
▁difficulty	-10.4355
▁indicates	-10.4358
▁mechanical	-10.4365
▁successfully	-10.4365
▁Itineraries	-10.4366
▁Power	-10.4373
▁founded	-10.4373
▁Land	-10.4381
▁Transit	-10.4382
free	-10.4388
▁Ears	-10.439
et	-10.4391
▁transportation	-10.4393
▁historic	-10.4395
▁skill	-10.4398
▁Routine	-10.4401
▁Well	-10.4402
▁mixed	-10.4406
▁mentioned	-10.4411
▁asthma	-10.4411
▁exercises	-10.4415
▁felt	-10.442
▁tea	-10.4425
▁Booking	-10.4426
▁talking	-10.4428
▁represented	-10.443
▁breeding	-10.4432
▁tail	-10.4436
▁arms	-10.4448
▁conventional	-10.4457
ray	-10.4465
▁remained	-10.4467
▁journey	-10.4467
▁Indicators	-10.4472
▁Russia	-10.4478
▁array	-10.4479
▁blocks	-10.4487
▁dedicated	-10.4496
▁Next	-10.4497
▁professionals	-10.4499
▁smoking	-10.4505
▁opened	-10.4508
▁nose	-10.4509
▁viruses	-10.451
▁Republic	-10.4512
▁army	-10.4512
▁interaction	-10.4513
▁seek	-10.4514
▁everyday	-10.4518
▁Sciences	-10.4519
▁cultures	-10.452
▁speaking	-10.4521
▁Styling	-10.4531
▁mark	-10.4534
▁Yet	-10.454
am	-10.4542
▁apart	-10.4542
▁Correctly	-10.4544
▁Exams	-10.4546
▁intelligence	-10.4551
▁pet	-10.4552
▁mechanism	-10.4556
▁plate	-10.4559
▁27	-10.4562
▁Intake	-10.4564
▁despite	-10.4572
▁photos	-10.4573
ists	-10.4578
▁Moon	-10.4581
▁demonstrate	-10.4581
▁storm	-10.4582
ley	-10.4585
▁younger	-10.4585
▁surfaces	-10.4586
▁walking	-10.4588
▁Expense	-10.459
▁Under	-10.4592
▁Christ	-10.4593
▁moisture	-10.4598
▁thick	-10.4606
▁Budgeting	-10.4615
▁diameter	-10.4615
▁feelings	-10.4617
ies	-10.4618
▁Sentiment	-10.4624
▁Sprays	-10.4626
ary	-10.4627
▁pair	-10.4631
▁damaged	-10.4633
▁compare	-10.4633
U	-10.4633
▁literacy	-10.4636
▁babies	-10.4641
▁prices	-10.4642
▁Word	-10.4649
▁sector	-10.4653
▁Which	-10.466
▁aren	-10.467
▁remaining	-10.4673
▁persons	-10.4674
▁Reminder	-10.4674
▁aims	-10.4679
▁minerals	-10.4683
▁principle	-10.4696
▁presents	-10.4704
ma	-10.4709
▁obtain	-10.4711
▁tried	-10.4717
▁expensive	-10.4719
▁turns	-10.4722
▁Workout	-10.4723
▁notice	-10.4726
▁outer	-10.4736
▁mice	-10.474
▁constructed	-10.4741
▁entry	-10.4742
▁blog	-10.4744
▁mm	-10.4746
▁characterized	-10.4747
▁Calorie	-10.4752
▁2007	-10.4759
▁medication	-10.4762
▁underlying	-10.4767
▁extended	-10.4768
▁equivalent	-10.4771
▁supplies	-10.4776
▁fixed	-10.4778
▁Atlantic	-10.4778
▁soldiers	-10.479
▁35	-10.4795
▁Notifications	-10.4795
▁ratio	-10.4798
▁Academy	-10.4798
▁View	-10.4802
▁greatly	-10.4804
▁pounds	-10.4806
▁views	-10.4806
▁agencies	-10.4807
▁artificial	-10.4813
▁bank	-10.4815
▁possibly	-10.4832
▁||	-10.4839
▁discover	-10.484
▁Italy	-10.4851
▁collect	-10.4851
▁achieved	-10.4864
▁launched	-10.4869
▁Al	-10.4878
▁waters	-10.4879
▁variables	-10.4884
▁conduct	-10.489
▁supports	-10.49
▁AND	-10.4906
▁Trending	-10.4907
▁spacecraft	-10.4914
▁exact	-10.492
▁evaluate	-10.4925
▁Long	-10.4931
▁marked	-10.4937
▁zone	-10.494
▁replaced	-10.4942
▁composed	-10.4945
▁2,	-10.4954
▁biology	-10.4954
▁businesses	-10.4955
▁respiratory	-10.4955
?"	-10.4959
▁paint	-10.4965
▁virtual	-10.4967
▁orbit	-10.4969
scale	-10.498
▁lies	-10.4982
▁Ohio	-10.4986
▁ships	-10.4987
▁truth	-10.4989
▁calls	-10.499
▁replace	-10.4991
▁Page	-10.4991
▁contained	-10.4992
▁500	-10.5002
▁calories	-10.5004
▁infrastructure	-10.5005
▁implementation	-10.5006
▁wire	-10.5009
▁reactions	-10.5015
▁engage	-10.5016
▁videos	-10.5017
▁Schedules	-10.502
▁behaviour	-10.5023
▁Does	-10.5023
▁accounts	-10.5029
▁recovery	-10.5037
▁Test	-10.5041
▁formal	-10.5045
▁copper	-10.5063
▁Engineering	-10.5063
▁evaluation	-10.5063
▁authority	-10.5063
Z	-10.5072
▁grows	-10.5076
▁females	-10.5077
▁categories	-10.5077
▁carefully	-10.5082
▁printed	-10.5083
▁border	-10.5085
▁assist	-10.5088
▁arts	-10.5098
▁Eastern	-10.5106
▁branches	-10.5108
▁maintenance	-10.5116
▁PDF	-10.5118
▁observations	-10.512
▁Wikipedia	-10.5125
▁Questions	-10.5128
▁Commission	-10.5132
▁giant	-10.5132
▁Agency	-10.5135
▁runs	-10.5135
▁Prevention	-10.5138
▁Catholic	-10.5145
▁Big	-10.5152
▁thousand	-10.5154
▁governments	-10.5157
▁learners	-10.5159
if	-10.5163
▁acts	-10.5163
▁Peter	-10.5167
▁holes	-10.5167
▁drawn	-10.5176
▁wet	-10.5182
▁Monday	-10.5184
▁frame	-10.5186
▁recommend	-10.5191
ant	-10.5195
▁cats	-10.5197
▁burning	-10.5201
▁lake	-10.5209
▁Empire	-10.5216
▁chosen	-10.523
▁button	-10.5233
▁inter	-10.5236
▁Forest	-10.5243
▁involving	-10.5246
▁objective	-10.5253
▁molecular	-10.5253
▁taste	-10.5271
▁crisis	-10.5272
▁players	-10.5279
▁Child	-10.5281
▁join	-10.5282
▁Keep	-10.5283
▁participate	-10.5288
▁ends	-10.529
▁understood	-10.5291
9	-10.5291
▁islands	-10.5296
▁division	-10.53
▁closer	-10.5303
▁Review	-10.531
▁USA	-10.532
▁planets	-10.5328
▁mathematical	-10.5328
▁choices	-10.5332
▁District	-10.5353
")	-10.5354
▁museum	-10.5357
▁train	-10.5357
▁exam	-10.5371
▁university	-10.5375
▁publication	-10.5382
▁Italian	-10.5383
▁2016	-10.5384
▁interface	-10.539
▁chemistry	-10.5395
▁beneficial	-10.5395
▁zero	-10.5405
▁destroyed	-10.5405
▁marks	-10.5415
▁managed	-10.5418
▁worksheets	-10.5428
▁oldest	-10.5431
▁justice	-10.5432
▁chart	-10.5433
▁Royal	-10.5441
▁narrow	-10.5448
▁sharing	-10.5453
▁explanation	-10.5457
▁Plan	-10.546
▁resolution	-10.5462
▁Symptoms	-10.5469
▁expert	-10.5469
▁accessible	-10.5471
▁fewer	-10.5474
▁Definition	-10.5477
▁Kids	-10.5482
▁Class	-10.5489
▁rising	-10.5491
▁males	-10.5497
▁settings	-10.5502
▁drought	-10.5502
▁decisions	-10.5509
▁updated	-10.5509
▁arm	-10.5513
such	-10.5515
▁Spain	-10.5516
▁examination	-10.5516
▁measurements	-10.5516
▁grew	-10.5518
▁worse	-10.5522
▁comparison	-10.5523
▁1990	-10.5524
▁biggest	-10.5525
▁lungs	-10.5525
▁Richard	-10.5529
▁artists	-10.553
▁percentage	-10.553
known	-10.5537
▁Back	-10.5549
▁covering	-10.5549
▁launch	-10.5554
▁plane	-10.5554
▁statistics	-10.5554
▁scientist	-10.5555
▁Board	-10.5556
▁certainly	-10.5557
▁measuring	-10.5562
▁mode	-10.5577
▁capture	-10.5578
▁decide	-10.5582
▁Kingdom	-10.5583
▁engineers	-10.5583
▁accepted	-10.559
▁Christmas	-10.5592
▁2006	-10.5593
▁mild	-10.5609
▁recognition	-10.5615
me	-10.5622
▁r	-10.5625
▁centre	-10.5627
▁stock	-10.5628
▁printing	-10.5632
▁Work	-10.5635
▁agency	-10.5639
▁purchase	-10.5642
▁mineral	-10.5654
▁installed	-10.5664
▁grid	-10.5666
▁mechanisms	-10.5669
▁fair	-10.5673
▁scene	-10.5676
▁widespread	-10.5681
la	-10.5684
▁tank	-10.5694
-1	-10.5695
▁formula	-10.5697
▁domain	-10.5697
▁missing	-10.5698
▁stable	-10.5698
▁audio	-10.5701
▁Environment	-10.5714
▁secure	-10.5721
▁Michael	-10.5724
▁detection	-10.5728
▁behaviors	-10.5731
▁territory	-10.5753
What	-10.5754
▁theme	-10.5755
▁Did	-10.5756
▁match	-10.5758
▁bar	-10.5762
▁minor	-10.5766
▁gases	-10.5768
▁varieties	-10.5769
▁nitrogen	-10.5776
▁Conservation	-10.5779
▁lifestyle	-10.5781
▁sentences	-10.5787
▁Friday	-10.5792
▁bill	-10.5793
called	-10.5793
▁Brown	-10.5796
▁aspect	-10.5801
▁moves	-10.5813
▁equation	-10.5815
▁connections	-10.582
▁distributed	-10.5833
▁1)	-10.5836
izing	-10.5839
▁trip	-10.5839
▁Street	-10.5842
▁song	-10.5844
▁renewable	-10.5848
▁nervous	-10.5852
▁theories	-10.5858
▁earliest	-10.5863
▁overview	-10.5865
ra	-10.587
▁app	-10.5872
▁estimate	-10.5888
▁dates	-10.5889
▁vulnerable	-10.5894
▁Change	-10.5899
▁wife	-10.59
▁Martin	-10.5901
▁integrated	-10.5902
▁bio	-10.5902
▁musical	-10.5903
▁entirely	-10.5905
est	-10.5907
▁master	-10.5912
▁exists	-10.5913
▁Community	-10.5913
▁standing	-10.5917
▁leg	-10.592
▁healthcare	-10.592
▁Centre	-10.5922
▁Laboratory	-10.5923
▁examined	-10.5929
▁Young	-10.5938
▁Michigan	-10.5943
▁Search	-10.5947
▁platform	-10.5951
▁parallel	-10.5963
▁unusual	-10.5966
▁Number	-10.597
▁Writing	-10.598
▁wants	-10.598
▁issued	-10.5982
▁designs	-10.5993
▁intervention	-10.5994
▁estimates	-10.6002
▁department	-10.6002
▁limits	-10.6005
not	-10.6009
▁philosophy	-10.6011
▁Survey	-10.6015
▁mix	-10.6019
▁Rome	-10.6022
▁artist	-10.6023
▁Finally	-10.6026
▁impossible	-10.6027
▁unless	-10.6035
▁consumers	-10.6036
▁paid	-10.6038
▁Digital	-10.6042
▁researcher	-10.6044
▁1:	-10.6052
▁Several	-10.6053
▁branch	-10.606
▁minute	-10.606
▁Chicago	-10.6065
▁frequent	-10.6065
▁Zealand	-10.6066
▁preparation	-10.6066
▁debate	-10.6067
▁campaign	-10.6074
ca	-10.6082
▁operate	-10.6089
▁sufficient	-10.6092
▁Constitution	-10.6093
▁2017	-10.6095
▁Mark	-10.6096
▁obvious	-10.6103
▁2015	-10.6109
▁responses	-10.611
▁Jan	-10.6116
▁hardware	-10.6116
▁independence	-10.6123
▁supporting	-10.6132
▁Fort	-10.614
▁boys	-10.6143
▁150	-10.6146
▁seconds	-10.6149
▁Mar	-10.6153
▁wish	-10.6156
▁Pre	-10.6157
▁chief	-10.6168
▁maintaining	-10.6179
▁planting	-10.6182
▁functional	-10.6182
▁twenty	-10.6186
▁possibility	-10.6188
▁Georgia	-10.6193
▁2014	-10.6196
▁gap	-10.6199
▁trained	-10.6201
▁employees	-10.6202
▁player	-10.6216
▁mining	-10.6222
▁Key	-10.6227
use	-10.623
▁modified	-10.6232
▁poem	-10.6232
▁arrived	-10.6235
▁industries	-10.6236
▁Wildlife	-10.6236
▁excess	-10.6237
▁occurring	-10.624
▁joined	-10.6244
▁silver	-10.6244
▁harm	-10.6246
▁seeing	-10.6247
▁coffee	-10.6248
▁Scotland	-10.6251
▁interactions	-10.6261
▁sunlight	-10.6264
▁orange	-10.6265
▁Unfortunately	-10.6265
▁Solar	-10.6266
▁flag	-10.6275
▁Sunday	-10.6278
▁Image	-10.6291
▁ecosystem	-10.6292
▁belief	-10.6293
▁lay	-10.6297
ting	-10.6302
▁assistance	-10.6304
▁category	-10.6308
▁di	-10.6311
▁accuracy	-10.6319
ous	-10.6321
▁Asian	-10.6325
▁argument	-10.6329
▁Arts	-10.6331
ur	-10.6334
▁Administration	-10.6337
▁heating	-10.6342
▁analyze	-10.6347
▁photographs	-10.6347
▁plus	-10.6348
▁knew	-10.6349
▁Photo	-10.6352
▁continuous	-10.6353
▁farming	-10.6356
▁claims	-10.636
▁chest	-10.6363
▁(1)	-10.6364
ty	-10.6366
▁interests	-10.6367
way	-10.6367
▁port	-10.6375
▁psychological	-10.6377
()	-10.639
▁45	-10.6399
▁List	-10.6406
▁Up	-10.6417
▁captured	-10.6424
▁unable	-10.6426
▁hormone	-10.6427
li	-10.6427
▁disabilities	-10.6432
▁laser	-10.6439
▁rarely	-10.6439
▁route	-10.6441
▁favorite	-10.6441
▁Add	-10.6445
▁forming	-10.6445
off	-10.6452
da	-10.6453
▁Indians	-10.6455
▁investment	-10.6456
▁finished	-10.6471
per	-10.6472
▁challenging	-10.6478
▁pick	-10.6479
▁Report	-10.6484
▁Computer	-10.6485
▁Treatment	-10.6485
▁sensors	-10.6487
▁introduce	-10.6498
▁net	-10.65
▁writer	-10.65
▁significance	-10.6504
▁express	-10.6509
▁shaped	-10.6509
▁bear	-10.652
▁ring	-10.6527
▁1970	-10.6527
▁Network	-10.6528
▁1960	-10.6529
shaped	-10.6531
▁evolved	-10.6544
▁29	-10.6548
▁Article	-10.655
▁glucose	-10.6552
▁generations	-10.6555
▁phenomenon	-10.6556
▁h	-10.6556
▁l	-10.6558
▁Colorado	-10.6562
▁identification	-10.6563
▁super	-10.6567
▁facing	-10.6569
▁panel	-10.657
▁acute	-10.6571
▁faith	-10.6576
▁expressed	-10.6582
▁Wednesday	-10.6583
▁struggle	-10.6588
▁screening	-10.6598
▁advance	-10.66
▁rice	-10.66
▁Examples	-10.6601
▁immediate	-10.6603
▁mortality	-10.6612
▁tract	-10.6615
▁Name	-10.662
▁pregnant	-10.6621
▁whereas	-10.6622
▁identifying	-10.6625
▁papers	-10.6628
▁computing	-10.6629
▁fourth	-10.6631
▁sweet	-10.6634
▁delivery	-10.6634
▁preventing	-10.6634
▁announced	-10.6641
▁cleaning	-10.6645
▁feedback	-10.6652
▁habitats	-10.6656
▁transmitted	-10.666
ner	-10.6666
ive	-10.6667
▁https	-10.6672
▁www	-10.6673
▁graph	-10.6677
▁lands	-10.6678
▁genus	-10.6681
▁partner	-10.6686
▁advantages	-10.6687
▁UN	-10.6689
▁educators	-10.669
▁texts	-10.6691
▁Smith	-10.6691
▁funding	-10.6691
▁messages	-10.6706
▁depend	-10.6712
▁clothing	-10.6713
▁Download	-10.6714
▁MD	-10.6714
▁disaster	-10.6715
▁emotions	-10.6717
▁TV	-10.6717
▁vertical	-10.6721
▁shift	-10.6722
▁Paris	-10.6723
▁1980	-10.6728
▁leadership	-10.6729
▁Tuesday	-10.673
▁improvement	-10.6734
▁fairly	-10.6735
▁regulations	-10.6743
▁spinal	-10.6743
▁consistent	-10.6747
▁turning	-10.6748
▁resulted	-10.6751
If	-10.6754
▁gravity	-10.6758
▁collaboration	-10.6771
▁grain	-10.6773
American	-10.6783
▁imaging	-10.6787
▁Agriculture	-10.6788
▁Blue	-10.679
▁Soviet	-10.679
▁holds	-10.6791
▁danger	-10.6794
▁expansion	-10.6794
▁Encyclopedia	-10.6795
▁warning	-10.6795
▁compound	-10.68
▁Ask	-10.681
▁amazing	-10.6811
▁competition	-10.6815
▁detected	-10.6816
▁wealth	-10.6816
▁breath	-10.6818
▁acres	-10.6818
▁Irish	-10.6819
▁happy	-10.6819
net	-10.6821
▁band	-10.6828
▁Protection	-10.6829
water	-10.6832
be	-10.6842
▁w	-10.6844
▁fell	-10.6851
▁noun	-10.6855
▁shell	-10.6855
▁spectrum	-10.6856
▁2)	-10.6872
▁housing	-10.6873
ING	-10.6875
▁row	-10.6877
▁influenced	-10.6884
▁urine	-10.6885
▁(18	-10.6889
▁cancers	-10.6893
▁cord	-10.6894
▁bacterial	-10.6894
▁door	-10.6895
▁guidance	-10.6904
▁brings	-10.6905
▁cooking	-10.6908
▁reduces	-10.6911
▁fighting	-10.6927
▁insulin	-10.6933
▁random	-10.6935
▁vs	-10.694
▁session	-10.6945
▁atoms	-10.6948
▁correctly	-10.6951
▁Place	-10.6951
do	-10.6952
▁latter	-10.6952
▁roughly	-10.6957
▁organ	-10.696
▁Published	-10.696
▁crime	-10.6966
▁temple	-10.6967
▁aged	-10.6967
▁exploration	-10.6968
▁centers	-10.6969
example	-10.697
▁visitors	-10.6974
▁filter	-10.6976
▁Arctic	-10.6978
▁El	-10.6982
▁vegetation	-10.6996
▁police	-10.6997
▁parties	-10.7
▁putting	-10.7004
▁Due	-10.7008
▁yield	-10.7014
▁ranging	-10.7015
▁entered	-10.7016
▁newly	-10.7018
led	-10.7018
▁reliable	-10.702
▁structural	-10.7025
▁marriage	-10.7033
▁dynamic	-10.7041
▁Little	-10.7042
▁k	-10.7043
▁affecting	-10.7046
▁facility	-10.7047
▁complicated	-10.705
▁principal	-10.7052
▁trouble	-10.7053
▁beliefs	-10.7054
▁convert	-10.7054
▁lens	-10.7054
▁objectives	-10.7062
▁tip	-10.7071
▁Hall	-10.7073
▁Heritage	-10.7074
▁ultimately	-10.7082
▁Start	-10.7086
▁Author	-10.709
▁smooth	-10.7097
▁catch	-10.7103
▁batteries	-10.7105
▁insect	-10.7106
▁Joseph	-10.7109
▁contemporary	-10.7111
▁thermal	-10.7115
▁Level	-10.7115
▁robot	-10.7123
▁desired	-10.7123
▁Based	-10.7127
▁daughter	-10.7129
▁automatically	-10.7129
including	-10.7132
▁confidence	-10.7133
▁falls	-10.7134
▁television	-10.7136
▁Table	-10.7137
▁demonstrated	-10.7141
▁1950	-10.7153
▁ahead	-10.7154
▁owners	-10.7156
▁III	-10.7157
▁verb	-10.7162
▁experimental	-10.7168
▁vote	-10.7171
▁Thursday	-10.718
▁reserved	-10.718
▁Non	-10.7182
▁passing	-10.7183
▁bees	-10.7186
▁stated	-10.7189
▁throat	-10.7197
▁moral	-10.7198
▁confirmed	-10.7199
▁request	-10.7199
▁sight	-10.7207
▁serving	-10.7209
▁Fire	-10.7217
▁peak	-10.7217
▁clay	-10.7218
▁autism	-10.7219
▁pupils	-10.7222
▁ongoing	-10.723
▁sharp	-10.7239
▁score	-10.7248
▁repair	-10.7253
▁authorities	-10.7254
end	-10.7258
▁gone	-10.7263
▁inch	-10.7266
▁opinion	-10.7272
▁cooling	-10.7274
▁IN	-10.7282
▁mixture	-10.7284
▁partners	-10.729
▁pairs	-10.7292
▁excessive	-10.7295
▁solving	-10.7305
▁prove	-10.7305
▁beauty	-10.7307
▁holding	-10.731
go	-10.7312
▁ecosystems	-10.7314
▁consumer	-10.7314
▁sensor	-10.7322
▁tons	-10.7324
▁administration	-10.7325
▁carrying	-10.7329
▁Understanding	-10.7331
▁removal	-10.7332
▁flying	-10.7333
▁predict	-10.7338
▁Modern	-10.7339
▁Microsoft	-10.7339
▁comment	-10.7341
▁grades	-10.7345
▁soils	-10.7352
▁Revolution	-10.7353
long	-10.7354
▁cattle	-10.7356
▁effectiveness	-10.7357
▁classified	-10.7362
with	-10.7369
▁mountains	-10.7381
▁Hill	-10.7381
▁Teachers	-10.7389
▁cup	-10.7396
▁firm	-10.7398
▁decay	-10.74
▁Historical	-10.7407
▁Inc	-10.7408
▁assigned	-10.7408
▁shot	-10.741
▁holiday	-10.7411
he	-10.7419
▁wheat	-10.7425
▁Dutch	-10.7428
▁Teaching	-10.7429
▁Pennsylvania	-10.743
▁employed	-10.743
▁antibiotics	-10.7433
her	-10.7436
▁meal	-10.7439
▁implications	-10.7442
▁weak	-10.7443
▁Division	-10.7443
▁HTML	-10.7445
▁Alzheimer	-10.7445
▁metals	-10.7445
▁Standards	-10.7446
▁roads	-10.7446
▁container	-10.7453
▁prominent	-10.7454
▁roof	-10.7456
▁smart	-10.7461
▁sizes	-10.7461
▁married	-10.7462
ite	-10.7464
▁Islands	-10.7475
)|	-10.7478
▁AD	-10.7479
▁Light	-10.748
▁interact	-10.7482
▁usual	-10.7482
▁separated	-10.7488
▁variation	-10.7497
▁treating	-10.7501
API	-10.7501
▁mouse	-10.7512
▁linear	-10.7512
▁agree	-10.7513
▁tumor	-10.7519
▁observe	-10.7529
▁complications	-10.7531
▁destruction	-10.7531
▁heritage	-10.7532
▁burn	-10.7533
▁Unlike	-10.7536
▁passage	-10.7544
▁gum	-10.7545
▁characteristic	-10.7552
▁Battle	-10.7554
▁Unit	-10.7555
▁2005	-10.7555
▁stations	-10.7557
▁bigger	-10.7563
▁prey	-10.7566
▁Below	-10.7573
▁circumstances	-10.7576
we	-10.7578
▁transition	-10.7581
▁recommendations	-10.7584
▁Music	-10.7585
▁symbols	-10.7586
▁indicated	-10.7587
▁reveal	-10.7588
▁horses	-10.7592
▁receiving	-10.7595
▁investigate	-10.76
▁spots	-10.7604
▁exhibit	-10.7604
▁Without	-10.7609
▁engines	-10.7612
▁truly	-10.7614
▁Committee	-10.7615
▁400	-10.7616
▁earthquake	-10.7618
▁Ph	-10.762
▁Mac	-10.7623
▁fishing	-10.7628
▁Facebook	-10.7628
▁listening	-10.7629
▁deliver	-10.7632
▁Try	-10.7634
▁IP	-10.7635
▁wait	-10.7637
▁streams	-10.7639
▁association	-10.7639
▁Creek	-10.7644
▁6.	-10.7646
▁Description	-10.766
▁lights	-10.7661
▁representation	-10.7669
field	-10.7671
▁celebrated	-10.7673
▁troops	-10.7675
▁somewhat	-10.7676
▁Figure	-10.7677
▁implemented	-10.7679
▁escape	-10.7683
▁legislation	-10.7685
ize	-10.7686
▁Gulf	-10.7686
▁dependent	-10.7686
▁en	-10.7695
il	-10.7697
▁expand	-10.7699
▁serves	-10.7705
▁creatures	-10.7706
▁innovative	-10.7708
▁trials	-10.7709
▁Massachusetts	-10.7709
▁maintained	-10.771
▁settlement	-10.771
▁sick	-10.7719
▁listen	-10.772
▁ended	-10.7722
▁Lesson	-10.7723
▁posted	-10.7726
▁agreement	-10.773
▁disk	-10.7732
▁abilities	-10.7737
▁Systems	-10.7738
▁adequate	-10.7742
▁anywhere	-10.7743
wood	-10.7748
▁failed	-10.7748
▁extend	-10.7748
▁lists	-10.7749
▁Books	-10.7751
▁victims	-10.7754
▁Hospital	-10.7755
▁decreased	-10.7757
▁enables	-10.776
▁fascinating	-10.7761
▁mammals	-10.7764
▁parameters	-10.7765
▁strain	-10.7768
▁channel	-10.7779
▁engaging	-10.7783
▁calculate	-10.7791
▁(2)	-10.78
▁criteria	-10.7804
▁stones	-10.7807
Q	-10.7808
▁roles	-10.7813
▁bleeding	-10.7818
▁investigation	-10.7821
▁Additionally	-10.7822
▁ecological	-10.7823
▁participation	-10.7824
▁Alaska	-10.7827
▁sit	-10.7829
▁Men	-10.7832
▁breed	-10.7842
▁Century	-10.7843
▁Physical	-10.7849
▁gradually	-10.7857
▁protective	-10.7861
▁Sir	-10.7863
▁specified	-10.7864
▁endangered	-10.7867
▁joints	-10.7869
▁Bank	-10.7877
▁wheel	-10.7877
▁ill	-10.7882
▁planted	-10.7882
▁intense	-10.7896
▁rely	-10.7902
▁styles	-10.7904
▁delivered	-10.7917
▁declared	-10.792
▁biodiversity	-10.7921
▁camp	-10.7921
▁exciting	-10.7932
▁difficulties	-10.7937
▁elementary	-10.7941
▁tobacco	-10.7943
▁street	-10.7952
▁discrimination	-10.7952
▁Field	-10.7957
▁traditions	-10.796
▁agents	-10.7963
▁abnormal	-10.7967
▁optical	-10.7972
▁Director	-10.7972
▁strongly	-10.7973
▁Vitamin	-10.7974
▁corner	-10.7974
▁definitions	-10.7975
▁brother	-10.7981
▁versions	-10.7985
▁Map	-10.7987
▁inspired	-10.7992
▁psychology	-10.7992
▁trend	-10.7993
▁banks	-10.7993
▁aimed	-10.7997
▁slavery	-10.7997
▁positions	-10.8004
▁Boston	-10.8004
▁Coast	-10.8006
▁desert	-10.8007
▁contents	-10.8007
▁kilometers	-10.801
▁necessarily	-10.8019
from	-10.802
▁gsm	-10.8023
▁infants	-10.8023
▁TO	-10.8031
▁observation	-10.8031
▁Ancient	-10.8035
▁seat	-10.8038
▁log	-10.8038
▁pro	-10.8043
▁pH	-10.8044
▁plenty	-10.805
▁origins	-10.8056
▁Often	-10.8058
▁pipe	-10.8058
▁spiritual	-10.8061
▁addresses	-10.8063
▁drivers	-10.8063
▁emphasis	-10.8064
▁relief	-10.8065
all	-10.8066
▁hidden	-10.8066
▁tables	-10.8069
▁employment	-10.8069
io	-10.8069
▁Will	-10.8071
▁encouraged	-10.8074
▁physician	-10.8081
▁32	-10.8082
▁Lincoln	-10.8082
▁develops	-10.8084
▁thanks	-10.8085
▁laid	-10.8095
▁dictionary	-10.8102
▁Building	-10.8104
▁worksheet	-10.8106
▁th	-10.8108
▁programme	-10.8113
▁recycling	-10.8121
▁electrons	-10.8121
▁sodium	-10.8122
red	-10.8125
▁deficiency	-10.8126
▁trauma	-10.8128
▁Mount	-10.8131
▁Biology	-10.8133
▁accept	-10.8141
▁acquired	-10.8143
▁31	-10.8145
▁flexible	-10.815
▁consume	-10.8152
▁politics	-10.8154
▁Star	-10.8174
▁push	-10.8183
▁isolated	-10.8184
▁viewed	-10.8185
▁Small	-10.8185
century	-10.8195
▁combat	-10.8197
▁gained	-10.8198
▁nutrient	-10.8199
▁dietary	-10.8204
▁signed	-10.8206
▁pull	-10.8209
im	-10.8209
▁ingredients	-10.8214
▁2019	-10.8216
▁directions	-10.8221
▁ethnic	-10.8224
▁2020	-10.8225
▁asking	-10.8225
▁teams	-10.8228
▁constantly	-10.8229
▁dramatic	-10.8231
▁honor	-10.8232
▁membrane	-10.8233
▁disability	-10.8233
▁caught	-10.8235
▁vegetable	-10.8236
▁stick	-10.8239
▁processed	-10.8245
ier	-10.8249
▁literary	-10.8254
ler	-10.8255
▁fires	-10.8261
▁Bill	-10.8262
ter	-10.8264
▁Queen	-10.8271
▁panels	-10.8273
▁attempts	-10.8283
▁wine	-10.8285
▁moderate	-10.8287
▁boy	-10.8288
▁cardiovascular	-10.8288
▁4,	-10.829
▁phrase	-10.8304
▁cotton	-10.8306
▁Posted	-10.8307
▁essentially	-10.8309
▁adapted	-10.8312
▁finds	-10.8315
▁preserve	-10.8316
▁windows	-10.8318
▁initially	-10.8319
▁gardens	-10.8319
▁Whether	-10.8324
▁sport	-10.8328
▁Station	-10.8329
so	-10.8331
▁1930	-10.8331
▁Times	-10.8333
▁displayed	-10.8335
▁nest	-10.8338
▁planned	-10.834
▁lakes	-10.8351
ri	-10.8351
▁painful	-10.8351
▁concentrations	-10.8355
▁websites	-10.8355
▁wings	-10.8361
▁pure	-10.8363
▁diagram	-10.8365
There	-10.8372
▁65	-10.8376
▁quantity	-10.8386
▁respectively	-10.8387
▁eliminate	-10.8388
▁pump	-10.8393
▁flood	-10.8396
▁converted	-10.8398
▁errors	-10.84
ah	-10.8403
▁tumors	-10.8408
▁Oregon	-10.8411
TOOLFORMER	-10.8413
-2	-10.8414
▁achievement	-10.8418
▁approved	-10.8423
ability	-10.8424
▁steam	-10.8425
▁split	-10.8426
ac	-10.8427
▁craft	-10.843
▁spelling	-10.8444
q	-10.8451
▁semi	-10.8453
▁exploring	-10.8455
▁Code	-10.846
▁bringing	-10.8466
being	-10.8487
▁grammar	-10.8489
▁lighting	-10.8489
▁provider	-10.8492
▁stronger	-10.8496
▁variations	-10.8496
▁trends	-10.8498
▁functioning	-10.8502
▁celebrate	-10.8509
ol	-10.8515
▁spoken	-10.8522
▁intensity	-10.8525
▁EU	-10.8527
▁swelling	-10.8529
▁deeper	-10.8529
▁(2	-10.8532
▁falling	-10.8533
▁vessel	-10.8534
▁plot	-10.8538
ish	-10.8538
▁rose	-10.854
▁harvest	-10.8543
▁fuels	-10.8553
▁valve	-10.8561
20	-10.8563
▁dollars	-10.8572
▁false	-10.8573
▁1,000	-10.8574
▁indeed	-10.8579
▁consumed	-10.858
▁globe	-10.858
▁resistant	-10.8586
▁invasive	-10.8586
▁dealing	-10.8588
▁interior	-10.8588
▁lowest	-10.8589
▁hunting	-10.8599
▁invented	-10.8605
▁knows	-10.8607
▁Teacher	-10.8611
▁fatty	-10.8612
▁conversation	-10.8616
ted	-10.8616
▁wasn	-10.8619
▁Watch	-10.8621
▁Full	-10.8623
▁Paper	-10.8636
▁references	-10.8637
▁prefer	-10.8637
▁cure	-10.8644
▁Standard	-10.8645
▁Bio	-10.8646
▁dance	-10.8647
▁Know	-10.8648
▁translation	-10.8657
▁reaching	-10.8658
▁proven	-10.8663
▁engaged	-10.8667
▁dating	-10.867
▁poetry	-10.8672
▁driven	-10.8673
▁Louis	-10.8683
▁extension	-10.8695
▁heads	-10.8697
▁protecting	-10.8702
▁probability	-10.8705
▁Linux	-10.8715
▁reaches	-10.8717
▁outbreak	-10.8723
▁realize	-10.8727
▁sheets	-10.8729
▁AI	-10.8731
▁threatened	-10.8736
▁2004	-10.8738
▁Minnesota	-10.8738
▁weapons	-10.874
▁colonies	-10.8741
▁Fish	-10.8742
ul	-10.875
▁Look	-10.875
▁migration	-10.8753
▁ft	-10.8754
▁Blood	-10.8759
▁Publication	-10.8764
▁wonder	-10.8764
▁tribes	-10.8765
▁clouds	-10.8765
▁wooden	-10.8765
▁varies	-10.8766
▁communications	-10.8767
▁owner	-10.8767
▁considerable	-10.8768
au	-10.8773
ED	-10.8774
▁Assessment	-10.8775
▁conclusion	-10.8776
▁differ	-10.8778
▁dense	-10.878
▁specialized	-10.8783
▁Mississippi	-10.8786
▁stores	-10.8786
▁grains	-10.8787
▁stability	-10.8787
▁Illinois	-10.8788
▁careful	-10.8788
▁subsequent	-10.8788
▁equations	-10.8791
▁technological	-10.8796
▁crew	-10.8799
▁knee	-10.88
▁targets	-10.8813
▁agent	-10.8819
▁assignment	-10.8825
▁rays	-10.8844
▁tongue	-10.8845
▁offering	-10.8845
▁canal	-10.8848
▁Furthermore	-10.8849
▁recording	-10.8859
▁2:	-10.886
▁Saint	-10.8866
▁heavily	-10.8868
▁reverse	-10.8869
▁elected	-10.8876
▁senior	-10.888
▁vitamins	-10.8884
▁clock	-10.8887
ated	-10.8888
bit	-10.8895
▁driver	-10.8897
▁faces	-10.8907
▁browser	-10.8911
▁threats	-10.892
▁Basic	-10.892
▁whatever	-10.8923
▁towns	-10.8926
▁Na	-10.8927
▁2003	-10.8928
▁bag	-10.8932
▁spine	-10.8935
▁coverage	-10.8939
lin	-10.8943
▁erosion	-10.8945
▁remarkable	-10.8945
▁Model	-10.8947
-3	-10.8947
▁accident	-10.8948
▁counter	-10.8951
▁3,	-10.8954
▁happening	-10.8957
▁cast	-10.8964
also	-10.8967
▁considering	-10.8967
▁intellectual	-10.8971
15	-10.8986
ha	-10.8993
▁summary	-10.8994
▁underground	-10.8994
▁livestock	-10.9004
▁dose	-10.9012
▁client	-10.9015
▁fought	-10.9015
▁Force	-10.9019
▁incidence	-10.9027
▁defense	-10.9029
▁Moreover	-10.9031
▁conference	-10.9032
▁debris	-10.9034
▁stems	-10.9037
▁movie	-10.9038
▁worst	-10.9038
ir	-10.9041
▁contract	-10.9044
▁classic	-10.905
▁contribution	-10.9055
▁determining	-10.9061
▁availability	-10.9061
▁farms	-10.9064
▁analyzed	-10.9065
▁sitting	-10.9065
▁default	-10.9067
▁Harvard	-10.9077
▁particle	-10.9081
▁Answer	-10.9084
▁?	-10.9087
▁wonderful	-10.9091
▁illnesses	-10.9092
▁corresponding	-10.9094
▁Having	-10.9096
▁width	-10.9097
ro	-10.91
▁writers	-10.9101
▁Set	-10.9101
▁Brain	-10.9106
▁assume	-10.9108
▁relations	-10.9119
▁mood	-10.9122
▁Index	-10.9137
▁classical	-10.9141
▁shade	-10.9151
▁boundaries	-10.9157
▁Point	-10.9158
ti	-10.9164
ful	-10.9166
▁teens	-10.9167
▁beneath	-10.9168
▁2001	-10.9169
▁customers	-10.9173
▁viral	-10.9174
▁genome	-10.9175
▁Core	-10.9177
▁empty	-10.9179
▁ears	-10.918
▁experiencing	-10.918
▁Being	-10.9181
▁finger	-10.9187
▁quarter	-10.9187
▁healing	-10.9188
den	-10.919
▁absence	-10.9192
▁Mountain	-10.9193
▁indigenous	-10.9193
▁Physics	-10.9197
ium	-10.9202
▁precise	-10.9204
▁calculated	-10.9204
▁imagine	-10.9204
▁scales	-10.9206
▁collections	-10.9207
▁Holy	-10.9207
▁colored	-10.9209
▁seeking	-10.9213
▁boat	-10.9213
▁spending	-10.9214
▁colony	-10.9216
▁rainfall	-10.9218
▁gray	-10.9229
▁buried	-10.923
▁desire	-10.9233
▁Oxford	-10.9236
▁magnitude	-10.9236
▁expanded	-10.9238
▁horizontal	-10.9239
▁sum	-10.9241
rich	-10.9243
▁Bureau	-10.9248
▁themes	-10.9248
▁Practice	-10.9254
▁Marine	-10.9254
▁watching	-10.9255
gov	-10.9258
▁Species	-10.9259
▁dairy	-10.9259
ka	-10.9261
▁perception	-10.9265
▁repeated	-10.9267
▁Current	-10.9268
▁settled	-10.9274
▁emerging	-10.928
▁protocol	-10.928
▁smell	-10.9285
▁fashion	-10.9285
▁proportion	-10.9286
▁Mediterranean	-10.9287
▁funds	-10.9288
▁Within	-10.929
▁varied	-10.9294
▁mine	-10.9294
▁hazards	-10.9295
▁Week	-10.9297
▁trust	-10.9297
▁Arizona	-10.9299
▁bread	-10.93
▁Commons	-10.9303
▁fatigue	-10.9305
▁fabric	-10.9305
▁pilot	-10.9307
▁Remember	-10.9308
▁outcome	-10.9311
▁secret	-10.9311
▁focusing	-10.9315
▁Top	-10.9323
▁Spring	-10.9324
▁trace	-10.9332
▁contributed	-10.9333
▁spirit	-10.9335
▁la	-10.9337
▁Section	-10.9341
▁faced	-10.9342
▁contaminated	-10.9344
▁loved	-10.9348
▁Wales	-10.9363
▁schedule	-10.9365
▁knowing	-10.9366
▁shorter	-10.9368
▁Thanks	-10.9369
but	-10.9369
▁reveals	-10.9372
▁Select	-10.9379
▁molecule	-10.9384
tic	-10.9385
▁75	-10.939
”.	-10.939
▁Korea	-10.9393
▁pink	-10.9394
▁racial	-10.9398
▁associate	-10.9399
▁deer	-10.94
You	-10.9401
▁Sub	-10.9405
▁managing	-10.9405
▁workshop	-10.9406
▁Me	-10.941
▁Video	-10.9412
▁tutorial	-10.9416
▁conversion	-10.9418
▁debt	-10.9419
side	-10.942
▁prevalence	-10.9422
▁Further	-10.9422
▁cash	-10.9426
▁explores	-10.9426
▁hormones	-10.9436
▁DC	-10.9436
▁committed	-10.9436
▁CD	-10.9441
▁consist	-10.9443
▁scholars	-10.9447
▁label	-10.9453
▁zones	-10.9456
▁criminal	-10.9456
ised	-10.9457
▁songs	-10.9461
▁doubt	-10.9462
▁copyright	-10.9464
▁visited	-10.9464
▁edges	-10.947
▁medicines	-10.9473
▁proved	-10.9473
▁substantial	-10.9473
▁pets	-10.9478
▁hence	-10.9482
more	-10.9482
▁insight	-10.9487
▁returns	-10.9487
▁sought	-10.9494
▁Way	-10.9499
▁universal	-10.9501
ating	-10.9506
ey	-10.9506
▁mature	-10.9511
▁advances	-10.9511
▁equally	-10.9512
▁powers	-10.9515
▁plain	-10.9516
▁Johnson	-10.9518
▁Later	-10.9519
▁velocity	-10.9524
▁suffered	-10.953
▁election	-10.9534
▁mothers	-10.9541
▁spatial	-10.9545
▁budget	-10.9549
▁performing	-10.955
ham	-10.9553
▁nodes	-10.9556
▁Scientific	-10.9556
▁Greece	-10.9557
mail	-10.9559
▁2018	-10.956
▁assembly	-10.956
▁Lab	-10.9582
▁nutritional	-10.9584
▁insurance	-10.9585
▁phones	-10.9588
▁annually	-10.9588
▁bladder	-10.9589
▁safely	-10.9594
▁Road	-10.9594
▁slave	-10.9595
▁vaccines	-10.9597
▁Los	-10.9604
▁Primary	-10.9604
▁informed	-10.9605
▁charged	-10.9605
▁losses	-10.9615
▁removing	-10.9624
▁ourselves	-10.9627
▁honey	-10.9629
▁markets	-10.963
▁sensitivity	-10.9635
▁Four	-10.9636
▁Edward	-10.964
▁fail	-10.9641
▁aging	-10.9647
▁behavioral	-10.9647
▁physically	-10.9658
▁Brazil	-10.966
▁atmospheric	-10.9664
▁Statistics	-10.9664
back	-10.9669
▁Major	-10.967
▁discusses	-10.9671
▁Working	-10.9683
▁alive	-10.9693
▁productivity	-10.9699
▁galaxy	-10.9711
▁digestive	-10.9711
▁slaves	-10.9715
▁mold	-10.9721
▁Francisco	-10.9727
▁fats	-10.9729
▁traits	-10.973
▁overcome	-10.9731
▁1000	-10.9732
▁Lee	-10.9736
ad	-10.9739
▁restoration	-10.9739
▁sudden	-10.9741
▁scope	-10.9741
▁Per	-10.9741
▁beam	-10.9746
ville	-10.9746
▁opposed	-10.9747
▁%	-10.9747
▁passes	-10.9759
▁peer	-10.9763
▁concerning	-10.9764
▁Between	-10.9768
▁oceans	-10.9782
▁Navy	-10.9799
▁applying	-10.9799
▁36	-10.98
▁districts	-10.98
▁newspaper	-10.9802
▁accompanied	-10.9803
▁handling	-10.9803
▁Thorough	-10.9804
▁temporary	-10.9808
ge	-10.9809
▁province	-10.981
con	-10.9811
▁plates	-10.9814
▁PM	-10.9823
▁quantities	-10.9827
▁outdoor	-10.983
work	-10.983
▁permission	-10.9833
▁meals	-10.9834
▁dominant	-10.9834
▁winds	-10.9838
▁controlling	-10.9839
▁regarded	-10.984
▁trigger	-10.984
▁Related	-10.9842
▁comfortable	-10.9843
▁nerves	-10.9845
▁cable	-10.9845
▁fifth	-10.9847
▁illustrations	-10.9847
over	-10.9852
▁1920	-10.9856
ana	-10.9861
▁curve	-10.9864
▁Edition	-10.9864
▁entering	-10.9868
▁circulation	-10.9868
▁meter	-10.9869
▁varying	-10.987
em	-10.9872
ex	-10.9872
▁duration	-10.9878
▁sciences	-10.9879
▁telescope	-10.9879
▁bus	-10.9888
▁harder	-10.9888
▁interpretation	-10.9891
▁facilitate	-10.9891
▁chances	-10.9893
▁sheep	-10.9893
ities	-10.9894
▁directed	-10.9895
▁none	-10.9895
▁organism	-10.9896
▁innovation	-10.9898
▁prime	-10.9899
▁lie	-10.9907
▁Origin	-10.9908
▁sustainability	-10.9921
▁package	-10.9925
▁shallow	-10.9926
▁infant	-10.9928
▁exhibition	-10.9932
▁Missouri	-10.9933
mo	-10.9934
my	-10.9935
▁Tree	-10.9935
▁societies	-10.9936
▁recover	-10.9936
▁arthritis	-10.9938
▁forget	-10.9942
▁medieval	-10.9945
▁rocket	-10.9947
ns	-10.9948
▁win	-10.9959
▁spreading	-10.996
▁maybe	-10.9964
▁Schools	-10.9969
▁sell	-10.9972
▁bark	-10.9973
▁painted	-10.9982
▁divide	-10.9984
▁initiative	-10.9985
▁granted	-10.9985
▁contamination	-10.9988
▁reporting	-10.9991
▁Much	-10.9992
▁algorithm	-10.9993
To	-10.9994
▁accurately	-11.0004
▁paintings	-11.0011
▁regard	-11.0013
▁continent	-11.0015
▁pot	-11.0018
▁electron	-11.0019
▁contributions	-11.0019
se	-11.0019
▁Think	-11.0026
▁preparing	-11.0026
ii	-11.0027
▁infectious	-11.0033
▁representing	-11.0037
▁designated	-11.004
▁allergies	-11.0042
▁abstract	-11.0047
▁owned	-11.0053
▁thyroid	-11.0055
▁trans	-11.006
▁quantum	-11.006
▁boost	-11.0064
▁ex	-11.0068
▁lifetime	-11.0071
▁regulation	-11.0074
▁girl	-11.0077
ya	-11.008
▁supposed	-11.0083
▁ordinary	-11.0086
▁Dec	-11.0086
▁CDC	-11.0088
▁killing	-11.0091
hand	-11.0098
▁susceptible	-11.0109
▁Maryland	-11.0109
▁Site	-11.011
▁install	-11.0114
▁manufacturers	-11.0116
▁keeps	-11.0118
2)	-11.0119
▁Elizabeth	-11.0121
that	-11.0121
▁calendar	-11.0123
▁Plants	-11.0126
▁surgical	-11.0126
di	-11.0128
uk	-11.0129
▁scores	-11.0131
▁deposits	-11.0136
▁Head	-11.0142
▁pool	-11.0145
▁COVID	-11.0153
▁kg	-11.0155
▁friendly	-11.0158
▁ranges	-11.016
▁relating	-11.0171
▁agreed	-11.0172
dimensional	-11.0177
▁proof	-11.0179
▁vector	-11.0179
▁bears	-11.018
▁theoretical	-11.0182
down	-11.0186
▁wing	-11.0202
▁wireless	-11.0202
▁regardless	-11.0202
▁Le	-11.0205
▁Policy	-11.021
▁3)	-11.021
▁7.	-11.0211
▁influenza	-11.0218
▁saving	-11.0221
-18	-11.0223
▁sales	-11.0223
▁Story	-11.0224
▁Play	-11.0225
▁fertilizer	-11.0227
▁enormous	-11.0231
▁relate	-11.0232
ata	-11.0234
▁expanding	-11.0237
▁Large	-11.0238
▁Materials	-11.025
▁saved	-11.0267
▁integration	-11.0278
▁Example	-11.028
▁claimed	-11.0287
▁Di	-11.0287
▁discharge	-11.0289
11	-11.0289
▁volunteers	-11.0291
world	-11.0292
▁Join	-11.0294
▁addressed	-11.0298
▁revolution	-11.0299
▁fed	-11.0307
▁originated	-11.0307
▁Out	-11.0308
▁Facts	-11.0309
▁engineer	-11.0312
▁surrounded	-11.0315
1,	-11.0315
▁illustrated	-11.0318
▁custom	-11.0325
▁coral	-11.0334
▁dimensions	-11.0337
▁absorb	-11.0345
▁wider	-11.0345
▁restore	-11.0349
cm	-11.0352
▁pointed	-11.0354
▁workplace	-11.0357
▁Anti	-11.036
▁nuts	-11.0369
ance	-11.0369
▁Words	-11.037
▁tape	-11.0373
▁ease	-11.0373
▁interventions	-11.0375
▁Yes	-11.0375
▁basically	-11.0377
▁developmental	-11.0378
▁algae	-11.0379
▁reproductive	-11.0381
▁cellular	-11.0382
▁ran	-11.0388
▁48	-11.0388
▁creativity	-11.039
▁worry	-11.039
▁consisting	-11.0395
▁homework	-11.04
▁preserved	-11.0401
▁eaten	-11.0403
head	-11.0404
▁Alexander	-11.0404
▁mapping	-11.0406
▁examines	-11.0409
▁god	-11.041
▁adds	-11.0412
50	-11.0414
▁Action	-11.0414
▁neither	-11.042
▁Party	-11.0422
▁noticed	-11.0423
▁manual	-11.0423
▁drinks	-11.0426
▁accidents	-11.0427
▁profile	-11.0429
▁displays	-11.043
▁cluster	-11.0432
▁balanced	-11.0435
▁Animal	-11.0437
▁drainage	-11.0442
▁loose	-11.0442
ni	-11.0443
▁nice	-11.0453
▁graduate	-11.0453
▁matters	-11.0454
ina	-11.0456
▁2002	-11.0458
▁emerged	-11.0458
▁wearing	-11.0459
▁combine	-11.0463
▁identical	-11.0464
▁purchased	-11.0465
▁calling	-11.047
▁axis	-11.0472
▁gathered	-11.0476
▁victim	-11.0476
▁capabilities	-11.048
▁ensuring	-11.0497
made	-11.0497
▁insights	-11.0503
▁invention	-11.0503
▁tower	-11.0511
▁1.5	-11.0511
▁Islam	-11.0513
▁hypothesis	-11.0514
▁thereby	-11.0519
▁Santa	-11.0519
▁polar	-11.0523
▁neurons	-11.0524
▁apparent	-11.0524
▁Usually	-11.0529
▁arguments	-11.0533
▁Mountains	-11.0536
▁aggressive	-11.0543
▁improvements	-11.0545
▁replacement	-11.0547
▁classification	-11.0548
▁gather	-11.0552
▁IT	-11.0552
▁universities	-11.0553
▁enemy	-11.0554
▁Excel	-11.0557
▁Rock	-11.056
▁fatal	-11.056
▁narrative	-11.0564
▁containers	-11.0566
▁construct	-11.0568
▁Centers	-11.0575
▁EPA	-11.0576
▁chocolate	-11.0576
▁incorporated	-11.0579
▁Egyptian	-11.0583
▁atomic	-11.0584
▁bite	-11.0586
life	-11.0594
▁MS	-11.0603
▁50%	-11.0603
▁raising	-11.0607
▁abundant	-11.0607
▁ancestors	-11.0608
▁consideration	-11.0609
▁password	-11.0609
▁gun	-11.0611
▁copies	-11.0617
▁irrigation	-11.062
▁amino	-11.0621
type	-11.0621
▁seemed	-11.0623
▁describing	-11.0627
▁loop	-11.0628
▁Hebrew	-11.0628
▁Wood	-11.063
For	-11.0634
▁graphic	-11.065
▁accounting	-11.0652
▁stopped	-11.0654
▁partial	-11.0657
▁exception	-11.0659
▁Shakespeare	-11.0662
▁fibers	-11.0662
▁distinctive	-11.0664
▁pesticides	-11.0665
▁Economic	-11.0666
ae	-11.0667
▁breaking	-11.0669
▁pp	-11.0673
▁fingers	-11.0673
▁disc	-11.0674
▁readily	-11.0676
▁rough	-11.0685
▁destroy	-11.0685
▁Different	-11.0686
▁ordered	-11.0692
▁mention	-11.0692
▁33	-11.0692
Re	-11.0694
▁Clinical	-11.0697
▁aquatic	-11.0699
▁circular	-11.0699
▁beach	-11.0702
▁chamber	-11.0715
▁diarrhea	-11.0717
▁surveys	-11.0719
▁adjacent	-11.072
▁Resource	-11.0722
▁tone	-11.0724
▁Parents	-11.0725
▁10,000	-11.0726
▁colonial	-11.0729
▁Question	-11.0735
▁mg	-11.0737
▁potassium	-11.0738
▁allergic	-11.074
sh	-11.0745
▁severity	-11.0746
▁electronics	-11.0746
2,	-11.0748
▁households	-11.0748
US	-11.075
▁Training	-11.0754
▁swimming	-11.0756
▁streets	-11.0758
▁beings	-11.0758
▁powder	-11.076
▁settlers	-11.0763
▁Risk	-11.0763
▁robots	-11.0767
▁Business	-11.0769
▁efficiently	-11.0771
▁begun	-11.0777
▁Saturday	-11.0778
▁boundary	-11.0781
▁tubes	-11.0782
▁virtually	-11.0782
▁fellow	-11.0782
▁Short	-11.0783
▁Convention	-11.0786
▁valley	-11.0786
isation	-11.0786
specific	-11.0786
html	-11.0787
▁Mo	-11.0791
▁Mexican	-11.0795
▁Text	-11.0799
▁existed	-11.08
ard	-11.08
▁Diabetes	-11.0804
▁5,	-11.081
▁Mathematics	-11.0818
100	-11.0821
▁counties	-11.0821
▁distant	-11.0823
▁influences	-11.0825
▁Temple	-11.083
▁Conference	-11.0831
▁statistical	-11.0832
▁Garden	-11.0833
▁Supreme	-11.0835
▁landing	-11.0836
▁galaxies	-11.0839
▁Wisconsin	-11.084
▁shock	-11.0844
▁brush	-11.0846
▁shoulder	-11.0847
▁continuing	-11.0848
▁PC	-11.085
▁complexity	-11.0851
▁diagnostic	-11.0853
▁evolutionary	-11.0855
▁inform	-11.0855
▁metabolism	-11.0856
▁chose	-11.0859
▁basics	-11.0859
▁dentist	-11.0864
▁taxes	-11.0865
ative	-11.0868
▁highlight	-11.0873
▁beans	-11.0876
▁hazardous	-11.0877
▁Five	-11.0877
▁dried	-11.0878
▁preferred	-11.0879
▁Advanced	-11.0887
▁(19	-11.0893
▁clothes	-11.0894
▁Perhaps	-11.0899
▁moist	-11.09
▁assumed	-11.0901
▁Census	-11.0902
▁unlike	-11.0905
▁dis	-11.0907
▁demands	-11.0913
▁funded	-11.0916
▁abundance	-11.0917
▁personality	-11.092
▁boxes	-11.0925
▁compost	-11.0925
▁larvae	-11.0925
▁logical	-11.0929
▁Creative	-11.0929
▁civilization	-11.0938
▁concluded	-11.0944
▁extract	-11.0947
mer	-11.095
▁Ontario	-11.0961
▁bottle	-11.0962
▁Educational	-11.0969
▁("	-11.0976
▁Activity	-11.098
ce	-11.0981
▁scheme	-11.0983
foot	-11.0989
ning	-11.0993
▁discussions	-11.0994
▁wisdom	-11.0997
▁promoting	-11.0999
▁reflected	-11.1001
▁bullying	-11.1003
▁crown	-11.1009
▁STEM	-11.1016
▁distinguish	-11.1023
▁Li	-11.1024
▁thread	-11.1026
▁adapt	-11.1029
▁Follow	-11.1033
▁predators	-11.1037
▁Pro	-11.1039
▁stuff	-11.1041
▁Reference	-11.1044
▁providers	-11.1047
▁columns	-11.1053
▁1940	-11.1055
▁attend	-11.1057
▁cap	-11.1062
▁violent	-11.1065
▁fraction	-11.1066
▁plasma	-11.1072
▁grams	-11.1073
▁evening	-11.1074
▁extinction	-11.1076
▁deadly	-11.1077
▁AIDS	-11.1082
step	-11.1082
▁attractive	-11.1082
▁literally	-11.1084
▁roll	-11.1084
▁grant	-11.1085
▁pose	-11.1089
▁dramatically	-11.1092
▁deeply	-11.1092
▁illegal	-11.1093
▁occasionally	-11.1093
▁Cambridge	-11.1098
▁Call	-11.11
▁satellites	-11.1105
▁Choose	-11.1107
der	-11.1108
▁discipline	-11.1109
▁breaks	-11.1109
▁slide	-11.1111
▁requirement	-11.1113
▁Best	-11.1113
well	-11.1114
▁ending	-11.1116
▁malaria	-11.1117
▁adolescents	-11.1117
%	-11.1117
▁algorithms	-11.1119
▁Explain	-11.112
How	-11.1122
▁operated	-11.1122
▁finish	-11.1124
▁Avoid	-11.1126
▁drawings	-11.113
▁cough	-11.1131
▁Recent	-11.1132
▁tension	-11.1136
▁telling	-11.1136
▁barriers	-11.114
▁reviews	-11.114
▁barrier	-11.1145
▁Grand	-11.1149
▁defects	-11.1149
sized	-11.1155
▁elsewhere	-11.1156
▁Scott	-11.1165
▁con	-11.1166
▁purple	-11.117
▁pest	-11.1172
▁libraries	-11.1178
▁writes	-11.1183
▁Curriculum	-11.1184
▁appointed	-11.1186
art	-11.1188
▁specialist	-11.1192
▁everywhere	-11.1193
ial	-11.1198
▁dropped	-11.1206
▁Testament	-11.1211
▁ID	-11.1211
▁wash	-11.1214
▁cameras	-11.1217
▁adverse	-11.1217
▁partnership	-11.1218
▁tends	-11.1219
▁cloth	-11.1219
▁choosing	-11.122
▁absolute	-11.1223
ise	-11.1223
▁chapters	-11.1226
▁Wall	-11.1226
▁occupied	-11.1228
▁Pakistan	-11.1229
▁evil	-11.123
▁AM	-11.1235
▁attitudes	-11.1235
▁jump	-11.1236
▁husband	-11.1238
▁fur	-11.1238
▁bond	-11.1243
▁1800	-11.1252
▁metres	-11.1257
▁Given	-11.1259
▁3-	-11.126
▁lecture	-11.1263
▁IV	-11.1264
▁Collection	-11.1264
▁sessions	-11.1268
▁predicted	-11.1269
▁defines	-11.1274
▁diagnose	-11.1276
▁priority	-11.1279
▁storms	-11.1279
▁Tom	-11.1279
▁targeted	-11.128
class	-11.1285
▁flash	-11.1287
▁prescribed	-11.1291
▁designing	-11.1291
▁Van	-11.1299
▁requiring	-11.13
▁NOT	-11.1301
▁injured	-11.1304
▁bits	-11.1305
▁inhabitants	-11.131
▁gums	-11.1312
▁valid	-11.1313
▁volcanic	-11.1314
▁overweight	-11.1315
▁Currently	-11.1318
▁Christianity	-11.1324
▁arise	-11.133
▁officially	-11.133
See	-11.1331
▁vomiting	-11.1333
▁Quality	-11.1335
▁Summer	-11.1335
▁Ma	-11.1336
▁carries	-11.1337
▁embedded	-11.1338
▁sensory	-11.134
▁situated	-11.1341
▁merely	-11.1343
▁arteries	-11.1346
▁matrix	-11.1348
▁arranged	-11.1349
▁reviewed	-11.135
ent	-11.1353
▁Line	-11.1354
▁haven	-11.1357
▁differently	-11.1357
▁Amazon	-11.136
▁Title	-11.1363
▁pests	-11.1367
▁utility	-11.1374
▁cave	-11.1377
▁regulate	-11.1377
16	-11.1379
▁Bar	-11.1381
TM	-11.1381
▁Main	-11.1383
▁Fair	-11.1384
▁Feb	-11.1389
▁Volume	-11.1397
▁metabolic	-11.1399
▁channels	-11.1406
▁Order	-11.1408
▁Daniel	-11.1411
▁11,	-11.1419
▁colon	-11.1429
▁PhD	-11.1429
▁personnel	-11.1431
25	-11.1435
▁rubber	-11.1439
▁sending	-11.1442
▁enzyme	-11.1444
▁qualities	-11.1445
▁flooding	-11.1446
▁RNA	-11.1446
▁meaningful	-11.1447
▁Give	-11.1448
▁speaker	-11.1448
▁Justice	-11.1451
lo	-11.1452
▁highlights	-11.1455
▁distances	-11.1457
▁paragraph	-11.1457
▁Still	-11.1458
▁establishment	-11.1462
▁Drug	-11.1464
▁cavity	-11.1464
▁Philadelphia	-11.1465
▁featured	-11.1467
▁acting	-11.1471
▁indoor	-11.1477
▁Ages	-11.1484
les	-11.1485
▁ca	-11.1486
▁modeling	-11.1491
▁fluids	-11.1494
▁Car	-11.1494
▁registered	-11.1495
▁Oct	-11.1498
▁smallest	-11.1502
▁installation	-11.1503
▁blind	-11.1503
▁speeds	-11.1504
▁bound	-11.1505
▁coat	-11.151
▁stretch	-11.151
▁teaches	-11.1513
▁actively	-11.1514
▁Mass	-11.1514
▁jaw	-11.1516
▁pine	-11.1517
▁Self	-11.1517
▁explored	-11.1519
▁Culture	-11.1519
▁Jupiter	-11.1522
▁Skills	-11.1522
▁cycles	-11.1528
▁separation	-11.1531
▁suggestions	-11.1536
▁parks	-11.154
▁confused	-11.1541
▁sediment	-11.1542
▁illustrate	-11.1547
▁Visual	-11.1549
▁angles	-11.155
▁Vietnam	-11.1551
▁ethical	-11.1553
ga	-11.1556
▁Show	-11.1557
▁fiction	-11.1561
▁Need	-11.1562
▁enjoyed	-11.1563
As	-11.1563
▁strike	-11.1563
▁editor	-11.157
▁10%	-11.1572
▁Nov	-11.1574
▁simulation	-11.1576
▁Daily	-11.1577
▁losing	-11.1579
can	-11.1587
▁comprehension	-11.1588
▁celebration	-11.1589
▁wound	-11.1596
▁contributing	-11.1597
▁humidity	-11.1598
▁transferred	-11.1598
▁(3	-11.16
▁seasonal	-11.1602
▁equipped	-11.1607
▁visits	-11.1608
▁Cape	-11.1612
▁attributes	-11.1619
ft	-11.1626
fish	-11.1626
school	-11.1627
▁Muslim	-11.1628
▁optimal	-11.163
▁Print	-11.1633
▁hospitals	-11.1633
▁Jerusalem	-11.1637
▁juice	-11.1638
▁weakness	-11.164
▁menu	-11.1642
▁currency	-11.1644
▁Industrial	-11.1645
▁rotation	-11.1653
▁specimens	-11.1658
▁directory	-11.166
▁1/2	-11.1661
▁register	-11.1661
▁democracy	-11.1662
▁dementia	-11.1665
▁assistant	-11.1668
▁assets	-11.1674
▁configuration	-11.1674
▁obese	-11.1675
▁scan	-11.1679
▁sperm	-11.1681
horoughly	-11.1681
▁humanity	-11.1681
▁7,	-11.1682
▁commitment	-11.1682
▁habit	-11.1682
board	-11.1685
▁bonds	-11.1686
▁mile	-11.1687
▁UV	-11.1687
▁magazine	-11.1689
▁absorbed	-11.169
▁allergy	-11.169
▁alphabet	-11.1692
▁searching	-11.1693
▁Kansas	-11.1694
▁Nutrition	-11.1697
▁ISBN	-11.17
▁incorporate	-11.17
▁powered	-11.1705
▁elevated	-11.1705
▁evaluated	-11.1707
▁expectations	-11.171
▁groundwater	-11.172
▁120	-11.1725
▁photograph	-11.1727
▁geometry	-11.173
▁collecting	-11.1734
▁worn	-11.1735
▁Andrew	-11.1737
▁Real	-11.1739
▁worship	-11.1744
▁applies	-11.1748
▁Cut	-11.1749
▁supplements	-11.1752
▁clusters	-11.1753
▁residential	-11.1755
▁immigrants	-11.1762
▁span	-11.1765
▁enzymes	-11.1767
▁absorption	-11.1769
▁atom	-11.1775
▁occurrence	-11.1778
▁pin	-11.1779
▁limitations	-11.1787
▁engagement	-11.1789
▁artistic	-11.1794
▁reflection	-11.1794
▁bi	-11.1795
▁geographic	-11.1796
▁Cell	-11.1797
▁cooperation	-11.1801
ology	-11.1802
▁ha	-11.1802
ring	-11.1804
ng	-11.1806
▁6,	-11.181
▁officers	-11.1813
▁8,	-11.1813
▁restricted	-11.1815
▁union	-11.1818
▁expressions	-11.1819
▁distinguished	-11.1826
▁belong	-11.1831
▁Future	-11.1834
▁Scottish	-11.1838
▁fungi	-11.1839
▁surprised	-11.1839
▁cheese	-11.185
▁executive	-11.1851
green	-11.1858
▁Gold	-11.1863
▁elderly	-11.1866
▁Caribbean	-11.1867
▁strange	-11.187
▁sacred	-11.1872
▁Color	-11.1873
▁poet	-11.1877
▁segment	-11.1878
▁guides	-11.188
▁File	-11.1881
▁Chemistry	-11.1882
▁apparently	-11.1883
ius	-11.1884
▁suddenly	-11.1889
▁argue	-11.189
▁reproduction	-11.1895
▁integral	-11.1896
▁Summary	-11.1898
▁3:	-11.1899
book	-11.1899
▁encounter	-11.1902
op	-11.1902
wide	-11.1903
min	-11.1906
house	-11.1906
▁Utah	-11.1906
▁tracking	-11.1909
▁Activities	-11.1912
▁burned	-11.1912
!"	-11.1916
▁Visit	-11.1918
inch	-11.1927
▁officer	-11.1928
▁shelter	-11.1928
▁counting	-11.193
30	-11.1931
▁Chemical	-11.1932
▁palm	-11.1932
▁missions	-11.1936
▁triangle	-11.1936
ula	-11.1937
▁grounds	-11.194
▁radioactive	-11.1941
▁rows	-11.1944
▁essays	-11.1944
sa	-11.1946
▁representative	-11.1948
▁Pi	-11.1949
▁chip	-11.1952
▁Carbon	-11.1954
▁pandemic	-11.1956
▁uniform	-11.1961
▁quiz	-11.1962
▁institution	-11.1965
▁ash	-11.1966
▁Du	-11.1967
▁graphics	-11.1968
▁ruled	-11.197
va	-11.1975
▁Secretary	-11.1975
CO	-11.1975
▁Should	-11.1976
▁circles	-11.1977
▁Theory	-11.1978
▁Saturn	-11.1981
▁lining	-11.1982
pe	-11.1987
▁Frank	-11.1987
▁villages	-11.1991
▁simultaneously	-11.1995
▁manager	-11.1995
▁Tips	-11.1995
▁transformation	-11.2001
yl	-11.2002
▁nano	-11.2002
▁Game	-11.2006
▁utilized	-11.2008
▁mi	-11.2012
▁precipitation	-11.2015
▁Parliament	-11.202
▁believes	-11.2023
▁update	-11.203
▁needle	-11.2031
▁phenomena	-11.2036
▁addressing	-11.204
▁Generally	-11.2043
▁gut	-11.2048
▁posts	-11.2049
ot	-11.2053
▁Support	-11.2054
▁react	-11.2061
▁lift	-11.2064
▁circuits	-11.2068
They	-11.207
▁sale	-11.2072
▁Hence	-11.2077
▁pollutants	-11.2077
▁assessments	-11.2078
▁Series	-11.2078
▁tribe	-11.2079
▁managers	-11.208
▁analyses	-11.2081
▁plaque	-11.2081
▁55	-11.2084
▁hip	-11.2086
▁sampling	-11.2086
▁welfare	-11.209
▁edit	-11.2094
▁poisoning	-11.2095
▁survived	-11.2095
▁onset	-11.2095
quality	-11.2098
▁Apple	-11.2098
▁peers	-11.2099
▁Credit	-11.2101
▁LED	-11.2102
▁glands	-11.2103
▁Bird	-11.211
▁neutral	-11.2115
▁Pa	-11.2116
▁competitive	-11.2118
▁productive	-11.2118
▁Te	-11.2119
▁Jr	-11.2119
▁dying	-11.2125
▁diets	-11.2126
▁Jackson	-11.2127
▁geography	-11.2128
▁Tennessee	-11.2131
▁archaeological	-11.2132
▁Down	-11.2132
▁recycled	-11.2132
▁strengthen	-11.2134
▁sister	-11.2143
bar	-11.2146
▁welcome	-11.2147
▁Archives	-11.2149
▁waiting	-11.2153
No	-11.2154
▁carbohydrates	-11.2154
18	-11.2158
▁classrooms	-11.216
▁popularity	-11.216
ke	-11.2166
nt	-11.2168
▁weekly	-11.217
▁perceived	-11.2178
▁neural	-11.2181
▁Sound	-11.2187
▁participating	-11.2191
▁reflects	-11.2193
▁kingdom	-11.2196
▁possibilities	-11.2197
▁dynamics	-11.2201
▁bags	-11.2205
▁architectural	-11.2207
▁colours	-11.221
▁viewing	-11.2213
▁earn	-11.2213
▁Minister	-11.2213
▁Kentucky	-11.2213
▁therapeutic	-11.2215
▁minimize	-11.2216
▁Iowa	-11.2217
When	-11.2217
▁Radio	-11.2219
▁keys	-11.2219
▁Cold	-11.2222
ger	-11.2226
▁mosquito	-11.2226
▁;	-11.2227
▁definitely	-11.2229
edu	-11.2229
▁flexibility	-11.2232
▁En	-11.2233
▁Abraham	-11.2235
14	-11.2238
▁prevents	-11.2242
▁Vol	-11.2242
dis	-11.2243
▁Franklin	-11.2244
▁strains	-11.2247
▁duty	-11.2249
▁films	-11.2249
▁auto	-11.225
▁twelve	-11.2253
▁reform	-11.2254
▁Mental	-11.2258
ten	-11.2258
istic	-11.226
▁developers	-11.2262
▁generating	-11.2264
▁Images	-11.2265
▁Knowledge	-11.2266
▁enhanced	-11.2266
▁symptom	-11.2268
17	-11.2269
▁translated	-11.2273
▁Chief	-11.2274
▁independently	-11.2278
▁rings	-11.2278
▁IS	-11.2282
▁(3)	-11.2285
▁minds	-11.2285
▁scenario	-11.2287
pi	-11.2289
▁comparing	-11.2289
▁faculty	-11.229
▁systematic	-11.229
40	-11.229
▁borders	-11.2292
▁bugs	-11.2294
▁hill	-11.2299
▁addiction	-11.2303
▁speakers	-11.2309
▁whales	-11.231
▁Explore	-11.231
▁tough	-11.2313
▁8.	-11.2314
▁Dis	-11.2314
▁Pan	-11.2316
▁calculations	-11.2324
▁Depending	-11.2325
▁Very	-11.2326
▁genetics	-11.2328
▁Pope	-11.2328
▁grey	-11.2331
▁Ten	-11.2333
▁stood	-11.2334
▁Micro	-11.2336
▁lunar	-11.2337
▁demonstrates	-11.2339
▁Historic	-11.234
▁struck	-11.234
▁Sign	-11.2343
▁royal	-11.2348
▁worker	-11.2349
▁minimal	-11.236
▁bearing	-11.236
don	-11.2361
▁250	-11.2362
▁attract	-11.2362
▁abdominal	-11.2363
▁connecting	-11.2364
▁slope	-11.2366
▁strategic	-11.2367
▁attitude	-11.2368
▁traditionally	-11.2371
▁artery	-11.2377
▁tracks	-11.2384
http	-11.2392
itis	-11.2394
▁Ha	-11.2395
▁interpret	-11.2396
▁Ka	-11.2396
▁shoes	-11.2397
▁suicide	-11.2398
▁census	-11.2398
▁visiting	-11.2398
▁Mrs	-11.2401
▁manufacture	-11.2402
▁aluminum	-11.2404
▁abandoned	-11.2405
▁promise	-11.2405
▁fungus	-11.2408
▁pace	-11.2409
▁600	-11.2411
▁receives	-11.2413
▁interview	-11.2416
▁cow	-11.2416
▁methane	-11.2418
▁Depression	-11.242
▁confirm	-11.242
▁washing	-11.2421
▁Port	-11.2424
▁synthesis	-11.2427
▁Things	-11.2428
▁developments	-11.2428
▁mirror	-11.2429
▁Additional	-11.2431
▁Years	-11.2432
▁34	-11.2437
▁2012,	-11.2438
▁realized	-11.2438
▁prostate	-11.2439
▁chips	-11.244
▁chicken	-11.2442
▁attributed	-11.2442
▁involvement	-11.2445
▁acquire	-11.2446
▁anniversary	-11.245
▁USDA	-11.2452
▁partially	-11.2453
▁Angeles	-11.2461
▁toxins	-11.2462
▁Bell	-11.2462
▁investigated	-11.2467
▁labels	-11.2468
▁texture	-11.2468
▁Ni	-11.2468
▁Netherlands	-11.247
▁ed	-11.2471
▁guess	-11.2472
▁seriously	-11.2472
▁Ho	-11.2473
▁inherited	-11.2474
▁Month	-11.2476
▁traveling	-11.2476
▁superior	-11.2476
▁Soil	-11.2482
▁flowering	-11.2484
▁equality	-11.2485
▁Samuel	-11.2488
▁surprise	-11.2489
▁savings	-11.249
▁couldn	-11.2491
▁completion	-11.2492
▁brains	-11.2492
war	-11.2493
▁Indonesia	-11.2496
▁node	-11.2497
▁Reserve	-11.2499
▁collapse	-11.2499
▁Victoria	-11.25
▁epidemic	-11.2504
▁brand	-11.2509
▁Syndrome	-11.2513
▁pollen	-11.2513
▁Share	-11.2523
▁locate	-11.2523
▁Identify	-11.2524
ins	-11.2524
eg	-11.2526
▁Senate	-11.2534
▁veins	-11.2535
▁discoveries	-11.254
▁expedition	-11.254
▁mercury	-11.2541
▁headaches	-11.2543
▁confusion	-11.2544
▁37	-11.2545
▁freshwater	-11.255
▁astronomers	-11.2556
▁Jefferson	-11.2556
▁snake	-11.2559
▁bowel	-11.2561
▁versus	-11.2563
▁Describe	-11.2564
▁imagination	-11.2566
▁Ministry	-11.2572
▁athletes	-11.2572
▁customer	-11.2575
▁campus	-11.2575
ang	-11.2576
▁Patients	-11.2576
▁glue	-11.258
▁Master	-11.2582
▁factory	-11.2586
ell	-11.2591
▁prone	-11.2591
era	-11.2594
▁kitchen	-11.2594
▁Winter	-11.2596
▁impressive	-11.2603
▁Communication	-11.2606
▁rid	-11.2607
▁mystery	-11.2609
▁flies	-11.2609
▁sophisticated	-11.2613
set	-11.2619
▁commands	-11.2619
ung	-11.2621
▁preservation	-11.2621
▁orientation	-11.2621
▁2022	-11.2623
▁genetically	-11.2626
chi	-11.2628
▁Assembly	-11.2629
▁encouraging	-11.2629
▁reign	-11.263
▁coins	-11.2635
▁Islamic	-11.2641
▁sleeping	-11.2641
▁headache	-11.2642
▁pipes	-11.2648
▁Louisiana	-11.2651
▁entrance	-11.2652
▁rooms	-11.2653
▁establishing	-11.2654
▁terminal	-11.2657
▁1999	-11.2664
▁physicians	-11.2666
▁compression	-11.267
▁skull	-11.2679
▁mill	-11.268
stone	-11.2684
▁wetlands	-11.2684
▁phrases	-11.2685
▁shares	-11.2686
▁altered	-11.2687
▁Abstract	-11.2688
▁surprising	-11.2689
▁producers	-11.2689
▁bloom	-11.2692
▁golden	-11.2695
▁puts	-11.2695
▁doors	-11.2696
ford	-11.2697
▁pale	-11.2698
▁adjust	-11.2703
An	-11.2705
▁Classroom	-11.2706
▁conflicts	-11.2708
▁Emperor	-11.2711
▁gland	-11.2713
▁Memorial	-11.2716
▁Put	-11.2716
▁Super	-11.2716
▁Talk	-11.2718
▁relatives	-11.2719
▁bought	-11.2723
▁Hawaii	-11.2723
▁Twitter	-11.2726
▁placing	-11.2726
▁Alabama	-11.2727
▁disasters	-11.2731
▁thrive	-11.2732
▁salmon	-11.2732
▁arrival	-11.2734
▁indicators	-11.274
▁telephone	-11.2745
▁destination	-11.2746
▁emission	-11.2749
▁outdoors	-11.2751
▁pen	-11.2755
▁pack	-11.2755
▁neighborhood	-11.2755
▁facial	-11.2755
▁kidneys	-11.2757
▁encourages	-11.2763
▁tunnel	-11.2765
▁conducting	-11.2767
▁Ar	-11.2768
▁100,000	-11.2768
▁examining	-11.277
▁Throughout	-11.2771
▁churches	-11.2775
friendly	-11.2776
▁fitness	-11.2776
air	-11.2776
▁Causes	-11.2778
▁End	-11.2787
▁navigation	-11.2788
▁BBC	-11.2789
▁drives	-11.2792
▁Aug	-11.2793
dy	-11.2797
▁Essay	-11.2801
▁Jersey	-11.2801
ans	-11.2802
▁dream	-11.2803
ura	-11.2807
▁1900	-11.2808
▁Camp	-11.281
▁inspiration	-11.2811
▁z	-11.2814
▁warmer	-11.2814
▁oxide	-11.2815
▁Turkey	-11.2818
▁Stephen	-11.2819
▁static	-11.2824
▁Christians	-11.2826
ries	-11.283
▁invasion	-11.2833
▁Originally	-11.2836
▁vaccination	-11.2839
▁Con	-11.2839
▁beat	-11.2839
▁cardiac	-11.2841
ster	-11.2842
▁tour	-11.2844
▁conjunction	-11.2845
▁bands	-11.2847
▁14,	-11.2848
▁improves	-11.2851
▁9,	-11.2853
▁mud	-11.2853
▁comfort	-11.2855
▁gift	-11.2857
▁Lower	-11.2859
▁colorful	-11.2865
▁perfectly	-11.2866
▁oils	-11.287
▁Ben	-11.2871
▁assessed	-11.2878
02	-11.2883
▁expertise	-11.2883
▁judge	-11.2893
▁reasonable	-11.2894
▁seasons	-11.2896
▁Third	-11.29
▁economics	-11.2902
▁persistent	-11.2903
▁Oil	-11.2903
▁Games	-11.2904
▁1998	-11.2906
▁gear	-11.2909
▁filling	-11.2911
▁extinct	-11.2912
▁timber	-11.2912
▁profit	-11.2912
▁Trade	-11.2917
▁rhythm	-11.2918
ship	-11.2918
▁anger	-11.2919
▁spoke	-11.2919
ba	-11.292
light	-11.2921
▁volcano	-11.2922
key	-11.2923
▁healthier	-11.2927
▁textbook	-11.2927
▁Bridge	-11.2929
▁awarded	-11.2931
▁throw	-11.2932
▁Pages	-11.2937
▁marketing	-11.2942
ee	-11.2945
▁alongside	-11.2946
▁castle	-11.2947
▁trail	-11.2948
state	-11.2949
▁incident	-11.2949
▁achieving	-11.2953
▁freely	-11.2956
▁ownership	-11.2957
▁mis	-11.2957
▁licensed	-11.2959
▁submitted	-11.296
He	-11.2962
pa	-11.2964
ID	-11.2967
▁amongst	-11.2967
▁thirty	-11.2971
▁descriptions	-11.2971
▁adaptation	-11.2971
ak	-11.2973
▁hybrid	-11.2973
▁floating	-11.2974
▁extends	-11.2976
▁info	-11.2978
▁poems	-11.298
▁decreases	-11.2982
▁Agricultural	-11.2983
sen	-11.2984
▁bulbs	-11.2984
▁Pain	-11.2986
are	-11.2987
▁Simple	-11.2989
▁sin	-11.299
white	-11.2996
▁breathe	-11.2997
▁radar	-11.2999
▁cuts	-11.3001
▁discomfort	-11.3004
▁photography	-11.3004
▁adoption	-11.3005
▁gods	-11.301
▁consuming	-11.3011
▁Tech	-11.3012
▁Romans	-11.3017
▁Death	-11.3019
▁feels	-11.3019
▁Until	-11.3019
▁doses	-11.3021
▁Size	-11.3024
AL	-11.3027
▁dig	-11.3029
▁apple	-11.3033
ron	-11.3033
▁feathers	-11.3034
▁Prize	-11.3034
▁committee	-11.3037
▁cream	-11.304
▁silicon	-11.3043
▁opinions	-11.3044
▁nucleus	-11.305
▁Lewis	-11.305
▁hyper	-11.3055
▁WHO	-11.3064
▁appreciate	-11.3067
▁concentrated	-11.3068
▁labour	-11.307
▁pathogens	-11.308
▁progression	-11.308
▁totally	-11.3086
▁alter	-11.3087
▁packaging	-11.3087
▁thickness	-11.3089
▁puzzle	-11.3089
▁trading	-11.3093
▁historians	-11.3093
▁hopes	-11.3098
▁supplement	-11.3103
ov	-11.3103
▁candidate	-11.311
▁toys	-11.3111
rays	-11.3113
▁sequences	-11.3115
▁estate	-11.3117
▁basin	-11.3118
▁excited	-11.3123
▁instructional	-11.3123
▁crystal	-11.3128
▁hide	-11.3132
▁Typically	-11.3133
▁lasting	-11.3135
▁Indeed	-11.3139
▁ions	-11.314
▁charts	-11.3151
▁animation	-11.3153
▁navigate	-11.3154
▁soul	-11.3155
▁indicating	-11.3156
let	-11.3156
▁42	-11.3163
▁binary	-11.3169
▁2,000	-11.3171
▁routes	-11.3171
▁recommends	-11.3173
▁transform	-11.3174
▁se	-11.3175
▁hepatitis	-11.3184
▁empire	-11.3184
▁precision	-11.3188
Our	-11.3189
▁Problem	-11.3198
▁fix	-11.3199
▁tag	-11.32
▁prevented	-11.3201
▁Ice	-11.3202
▁armed	-11.3203
IP	-11.3203
▁abdomen	-11.3212
▁orders	-11.3212
▁submit	-11.3212
▁patent	-11.3215
▁elevation	-11.3216
▁controversial	-11.3216
ER	-11.3218
born	-11.322
▁Movement	-11.3223
▁9.	-11.3223
▁drops	-11.3225
ors	-11.3226
▁buying	-11.3228
▁ADHD	-11.3237
▁poorly	-11.324
▁monthly	-11.3258
point	-11.3261
▁Arabic	-11.3264
▁instances	-11.3265
▁victory	-11.3268
▁FOR	-11.3269
▁neuro	-11.3271
▁Independence	-11.328
▁cope	-11.328
▁filters	-11.3286
km	-11.3286
▁acceptable	-11.3286
▁documentation	-11.3287
▁tri	-11.3288
▁isolation	-11.3296
▁Sweden	-11.3297
▁Se	-11.3301
▁Poland	-11.3302
▁conclusions	-11.3308
low	-11.3308
▁wars	-11.3313
▁Jack	-11.3315
▁Team	-11.3317
responsibilities	-11.3319
▁Living	-11.3323
▁38	-11.3327
mi	-11.3328
▁somewhere	-11.3329
▁belt	-11.3332
▁oak	-11.3333
▁Indiana	-11.3333
▁Range	-11.3334
▁combustion	-11.3338
▁intelligent	-11.3342
▁promotes	-11.3346
▁progressive	-11.3347
▁educate	-11.3348
▁10,	-11.3349
▁Fall	-11.3351
▁Literature	-11.3354
iv	-11.3368
▁boards	-11.3369
▁mounted	-11.3372
▁retain	-11.3372
▁kit	-11.3376
▁antibodies	-11.3377
▁bulb	-11.3378
▁minority	-11.3379
▁Indigenous	-11.3379
▁cheap	-11.3383
▁Cultural	-11.3384
▁Methods	-11.3392
▁Korean	-11.3393
▁deals	-11.3394
▁asteroid	-11.3398
!)	-11.3399
▁delay	-11.34
▁till	-11.3401
▁hypertension	-11.3402
ification	-11.341
▁analyzing	-11.341
▁poly	-11.3412
▁yard	-11.3412
▁publications	-11.3413
▁Was	-11.3413
▁Francis	-11.3413
▁protects	-11.3415
▁keyboard	-11.3416
▁extraordinary	-11.3416
▁wires	-11.3418
▁Updated	-11.3421
▁wouldn	-11.3432
▁perspectives	-11.3433
▁Works	-11.3433
.1	-11.3434
▁prison	-11.3436
right	-11.3439
▁fan	-11.344
bo	-11.3445
oc	-11.3445
▁manufactured	-11.3446
▁explanations	-11.3447
lan	-11.3447
▁injection	-11.3451
▁possess	-11.3455
▁GPS	-11.3456
▁biomass	-11.3457
▁prescription	-11.3458
▁willing	-11.3464
▁clients	-11.3466
▁thoroughly	-11.3466
▁nineteenth	-11.3468
▁rats	-11.3468
▁entitled	-11.3468
▁15,	-11.3471
▁partly	-11.3474
▁yeast	-11.3474
▁probe	-11.3481
▁whenever	-11.3485
▁prevalent	-11.3486
berg	-11.3487
▁Sam	-11.3491
▁12,	-11.3491
▁CT	-11.3492
▁Peace	-11.3495
▁repeat	-11.3497
▁opens	-11.3498
▁executed	-11.35
▁damaging	-11.35
▁20%	-11.3501
▁introduces	-11.3502
▁intensive	-11.3502
▁Arab	-11.3505
▁tanks	-11.3506
▁earthquakes	-11.351
▁broke	-11.3511
▁Prince	-11.3513
45	-11.3514
▁ozone	-11.3515
▁continuously	-11.3515
▁busy	-11.3518
▁unlikely	-11.3519
▁dam	-11.3519
pro	-11.3521
▁gathering	-11.3522
▁favor	-11.3523
▁founder	-11.3525
▁clicking	-11.3527
▁alternatives	-11.3527
▁devoted	-11.3528
▁devastating	-11.3532
▁kindergarten	-11.3536
▁determines	-11.3538
▁utilize	-11.3539
▁Around	-11.354
▁Inter	-11.3546
▁markers	-11.3549
ella	-11.3549
▁safer	-11.3549
▁tab	-11.3551
▁mutations	-11.3552
▁coloring	-11.3553
▁OS	-11.3554
▁FDA	-11.3556
▁collective	-11.356
▁phases	-11.3562
▁spin	-11.3565
▁tap	-11.3567
▁educated	-11.3568
▁travels	-11.3569
▁earned	-11.3569
▁sectors	-11.3569
▁zinc	-11.3573
▁defining	-11.3576
▁shut	-11.3576
▁Hi	-11.3577
▁(17	-11.3578
▁rises	-11.3578
▁opposition	-11.3579
▁insulation	-11.3579
▁memories	-11.3585
▁suggesting	-11.3588
▁Literacy	-11.3588
▁fossils	-11.3589
▁transformed	-11.359
▁steady	-11.3591
▁Ed	-11.3591
▁locally	-11.3592
▁burden	-11.3597
▁Overview	-11.3599
▁tolerance	-11.3601
▁tendency	-11.3603
▁potatoes	-11.3604
▁vacuum	-11.3604
▁shore	-11.3607
23	-11.3608
▁Besides	-11.3608
▁autumn	-11.3609
▁seal	-11.361
▁portions	-11.361
▁arch	-11.3611
▁pitch	-11.3611
ens	-11.3613
▁transmit	-11.3613
▁gaps	-11.3619
▁execution	-11.362
▁fertility	-11.3621
▁bee	-11.3622
▁Governor	-11.3622
▁Bush	-11.3626
▁2.5	-11.3627
▁rail	-11.3627
13	-11.3627
▁800	-11.3633
▁supplied	-11.3634
▁frozen	-11.3635
▁consciousness	-11.3636
aime	-11.3636
▁alert	-11.3638
▁administered	-11.3642
▁scenes	-11.3647
idae	-11.3651
▁Bo	-11.3651
▁beta	-11.3654
▁Berlin	-11.3658
▁striking	-11.3658
ola	-11.3662
▁likelihood	-11.3667
▁shadow	-11.3672
Read	-11.3674
▁notion	-11.3676
▁candidates	-11.3679
▁shed	-11.3681
▁flavor	-11.3686
▁dirt	-11.3686
▁forth	-11.3686
▁Duke	-11.3687
▁Renaissance	-11.3687
▁arrive	-11.3687
▁shrubs	-11.3692
▁encountered	-11.3697
▁integrity	-11.3698
▁nursing	-11.3699
▁heal	-11.3705
▁Psychology	-11.371
non	-11.3713
▁hunt	-11.3721
▁attended	-11.3721
▁u	-11.3724
▁44	-11.3724
▁operational	-11.3724
▁calm	-11.3725
▁par	-11.3728
19	-11.3728
ney	-11.3735
▁Apollo	-11.3736
▁vice	-11.3739
▁offices	-11.3742
▁strings	-11.3744
▁Elementary	-11.3747
▁vapor	-11.3747
▁operator	-11.3748
▁AC	-11.3751
▁transparent	-11.3754
▁restrictions	-11.3758
▁ecology	-11.3761
▁furniture	-11.3762
▁mini	-11.3765
▁traveled	-11.3766
▁geographical	-11.3767
hi	-11.377
▁meanings	-11.3773
▁motivation	-11.3773
▁disposal	-11.3774
▁Aboriginal	-11.3776
▁avoiding	-11.3776
▁Along	-11.3781
▁foliage	-11.3786
▁inclusion	-11.3788
▁festival	-11.3793
▁enters	-11.3795
▁attracted	-11.3798
▁suit	-11.3798
▁17,	-11.3804
▁strip	-11.3806
▁melting	-11.3807
▁compiled	-11.3808
▁ultimate	-11.3809
▁Moses	-11.3811
▁draft	-11.3811
▁platforms	-11.3814
▁attempted	-11.3814
▁notable	-11.3819
▁worms	-11.3821
▁assignments	-11.3822
▁therapies	-11.3822
▁Am	-11.3824
▁Iron	-11.3827
▁beds	-11.3827
▁Jones	-11.3828
some	-11.383
▁matching	-11.3834
▁implementing	-11.3836
▁Multiple	-11.3838
▁landscapes	-11.3841
▁paying	-11.3842
kin	-11.3842
▁accomplished	-11.3845
▁enabling	-11.3846
▁Diseases	-11.3849
▁Upper	-11.385
▁quote	-11.3856
▁disciplines	-11.3856
po	-11.3859
▁Born	-11.3859
▁frequencies	-11.3859
▁Fund	-11.3862
▁Case	-11.3865
▁invited	-11.3872
▁Population	-11.3872
▁servers	-11.3872
▁collaborative	-11.3873
▁thorough	-11.3873
▁Nazi	-11.3876
▁bias	-11.3878
▁thesis	-11.3878
▁Venus	-11.3878
about	-11.388
▁Wild	-11.3882
▁Contents	-11.3882
▁payment	-11.3883
▁extraction	-11.3884
▁Gas	-11.3885
▁stimulate	-11.3887
▁indicator	-11.3887
▁rear	-11.3888
▁completing	-11.3888
▁spray	-11.3891
▁Yellow	-11.3893
▁heated	-11.3897
▁Confederate	-11.3898
▁Oklahoma	-11.3902
▁binding	-11.391
▁asbestos	-11.3913
▁yields	-11.3913
▁Electronic	-11.3915
▁Nile	-11.3915
▁dominated	-11.3916
▁1993	-11.3917
▁Previous	-11.3917
▁initiatives	-11.3919
▁fund	-11.3921
▁arrangement	-11.3921
▁severely	-11.3926
▁coating	-11.3926
▁belongs	-11.3927
▁layout	-11.3928
▁generator	-11.393
24	-11.3933
▁Used	-11.3934
▁odd	-11.3937
▁coding	-11.3941
▁Easter	-11.3942
▁timing	-11.3943
▁citizen	-11.3944
wa	-11.3944
-10	-11.3946
▁closest	-11.3947
port	-11.3947
▁editing	-11.395
▁intestine	-11.3952
▁Hindu	-11.3952
▁altitude	-11.3953
▁distinction	-11.3953
▁segments	-11.3957
▁4:	-11.3957
▁compact	-11.3959
▁Golden	-11.396
▁39	-11.3966
▁Lo	-11.3966
za	-11.3968
▁drain	-11.3968
▁contributes	-11.3973
▁coordination	-11.398
▁Sustainable	-11.3981
▁Almost	-11.3982
▁Town	-11.3982
▁da	-11.3983
▁Country	-11.399
ping	-11.399
▁occupation	-11.3991
▁cubic	-11.3991
▁extracted	-11.3992
▁Mother	-11.3993
ward	-11.3994
▁stops	-11.3995
▁discussing	-11.3995
And	-11.3998
▁Mission	-11.3998
▁adopt	-11.3999
▁Geographic	-11.3999
▁broader	-11.4
▁dangers	-11.4003
▁hazard	-11.4005
▁promising	-11.4005
▁pathways	-11.4007
2.	-11.4007
▁Corps	-11.4008
▁21,	-11.4011
▁Iran	-11.4012
▁Gen	-11.4012
▁Davis	-11.4013
▁pop	-11.4015
▁cooked	-11.4018
▁bats	-11.4018
▁cervical	-11.4019
▁antibiotic	-11.4021
▁mistakes	-11.4024
▁lateral	-11.4026
ians	-11.4032
▁100%	-11.4033
▁shop	-11.4035
page	-11.4035
▁electromagnetic	-11.4036
▁cultivated	-11.4039
ap	-11.404
▁paths	-11.4041
▁subsequently	-11.4046
▁Rather	-11.4047
▁fault	-11.4049
▁Creating	-11.4049
▁organize	-11.4052
▁degradation	-11.4053
▁friction	-11.4054
27	-11.4056
▁talks	-11.4056
▁Lakes	-11.4061
▁mobility	-11.4062
▁mail	-11.4062
▁coin	-11.4063
▁artifacts	-11.4071
▁Stone	-11.4072
she	-11.4076
▁ants	-11.4078
▁Club	-11.4079
▁mosquitoes	-11.408
Learn	-11.4085
▁explosion	-11.4095
▁appetite	-11.4096
▁bat	-11.4097
▁hurt	-11.4099
▁wastewater	-11.4104
▁turtles	-11.4107
ab	-11.4108
▁Sleep	-11.4109
▁lawn	-11.4109
▁tick	-11.4109
▁magnesium	-11.411
▁Written	-11.4112
▁prayer	-11.4114
▁masses	-11.4114
▁employers	-11.4115
▁Arthur	-11.4117
▁guided	-11.4117
▁intermediate	-11.4118
▁passive	-11.4122
▁Multi	-11.4124
▁rank	-11.4124
▁TB	-11.4125
▁tourism	-11.4131
▁lunch	-11.4131
▁suspected	-11.4132
▁lighter	-11.4137
▁comprises	-11.4139
▁cement	-11.4139
▁Wilson	-11.4141
this	-11.4142
▁creature	-11.4144
▁wake	-11.4145
▁fallen	-11.4151
▁documented	-11.4155
1.	-11.4156
▁incredible	-11.4164
sis	-11.4164
▁Castle	-11.4165
▁Looking	-11.4168
ny	-11.4172
▁prolonged	-11.4172
▁Draw	-11.4172
▁designers	-11.4174
▁fractions	-11.4175
▁interval	-11.4178
▁frost	-11.4179
▁Notes	-11.4184
▁Maine	-11.4191
▁ride	-11.4202
▁Telescope	-11.4202
si	-11.4202
▁snakes	-11.4203
▁emerge	-11.4203
ci	-11.4203
▁strict	-11.4203
▁Nation	-11.4203
▁lymph	-11.4209
01	-11.4214
▁physiological	-11.4217
▁Observatory	-11.422
▁capability	-11.4221
▁profession	-11.4224
▁MIT	-11.4225
▁Love	-11.4226
▁soap	-11.4228
▁award	-11.423
▁radical	-11.4232
▁(4	-11.4232
▁Stage	-11.4234
▁28,	-11.4235
▁twentieth	-11.4236
▁Labor	-11.4238
▁namely	-11.4242
▁Therapy	-11.4245
▁18,	-11.4246
▁balls	-11.4249
▁recall	-11.4251
▁infrared	-11.4253
▁evident	-11.4254
▁trunk	-11.4258
▁Antarctica	-11.4259
▁arc	-11.426
▁protocols	-11.4263
▁Weight	-11.4264
▁presentations	-11.4267
MS	-11.4271
▁relieve	-11.4276
ini	-11.4277
▁Articles	-11.428
▁alike	-11.428
▁whale	-11.4282
▁Testing	-11.4284
▁proposal	-11.4289
▁lenses	-11.4293
▁rescue	-11.4294
▁afternoon	-11.4297
▁pencil	-11.4298
▁slight	-11.4299
▁machinery	-11.4304
▁Subject	-11.4309
▁weigh	-11.4311
ino	-11.4312
▁Buddha	-11.4316
▁comprised	-11.4317
New	-11.4318
▁profound	-11.4318
▁dollar	-11.4318
▁inflammatory	-11.4318
▁enabled	-11.432
▁nausea	-11.4321
▁tear	-11.4322
▁Thank	-11.4322
▁Obama	-11.4327
▁Heat	-11.4328
▁specialists	-11.4333
▁Antarctic	-11.4334
▁exclusively	-11.4335
▁Total	-11.4339
▁legacy	-11.434
▁enforcement	-11.4341
▁employee	-11.4343
▁volumes	-11.4343
▁Va	-11.435
▁happiness	-11.4352
▁reputation	-11.4352
▁rational	-11.4353
date	-11.4355
▁Buddhist	-11.4356
▁traces	-11.4356
▁patch	-11.4357
▁(5	-11.4357
▁succeed	-11.4359
▁Nobel	-11.4359
▁consistently	-11.4365
▁Enter	-11.4367
▁Diego	-11.4371
ble	-11.4372
▁blow	-11.4375
▁singing	-11.4379
But	-11.438
▁tight	-11.4381
▁builds	-11.4383
▁Dakota	-11.439
▁Ca	-11.4394
▁multiplication	-11.4397
▁cited	-11.4399
▁pursue	-11.4399
▁irregular	-11.4399
▁courts	-11.4401
▁16,	-11.4404
▁terrain	-11.4404
site	-11.4404
▁returning	-11.4405
▁sensation	-11.4406
▁selling	-11.4408
▁OR	-11.4409
risk	-11.4411
▁legend	-11.4411
▁Software	-11.4418
▁Jim	-11.4419
▁Extension	-11.4422
▁administrative	-11.4423
▁spiral	-11.4424
▁longest	-11.4424
ber	-11.4424
▁accessed	-11.4428
▁diesel	-11.4432
▁retina	-11.4434
▁Sa	-11.4434
▁afford	-11.4434
▁Kennedy	-11.4435
care	-11.4435
income	-11.4441
ja	-11.4442
▁te	-11.4443
▁dinosaurs	-11.4448
▁foster	-11.4449
▁Ko	-11.4452
▁camps	-11.4452
▁substitute	-11.4453
▁monument	-11.4456
▁newspapers	-11.4458
▁duties	-11.4461
▁formats	-11.4462
";	-11.4463
▁combining	-11.4468
ig	-11.4473
▁quiet	-11.4474
▁loan	-11.4475
▁practiced	-11.448
▁automatic	-11.4484
ari	-11.4487
▁consequence	-11.4488
▁Planet	-11.4489
▁Zoo	-11.4491
▁crossing	-11.4493
▁Deep	-11.4494
▁Muslims	-11.4497
▁template	-11.4497
▁Clark	-11.4497
▁Basin	-11.4502
mon	-11.4502
▁Method	-11.4506
▁Emergency	-11.4507
▁bridges	-11.451
▁litter	-11.4512
▁defend	-11.4513
▁lying	-11.4515
▁sustained	-11.4516
mann	-11.4522
▁License	-11.4523
▁provision	-11.4523
new	-11.4526
▁demonstration	-11.4527
▁microscope	-11.4527
▁suspect	-11.4529
▁Farm	-11.4539
▁Similarly	-11.454
▁imagery	-11.4542
ze	-11.4543
▁Bi	-11.4543
▁1997	-11.4544
▁Chi	-11.4547
▁harsh	-11.455
▁influential	-11.4551
▁Disorder	-11.4554
▁balloon	-11.4559
▁Salt	-11.456
▁shells	-11.4561
tal	-11.4562
▁rash	-11.4564
▁Period	-11.4564
▁ban	-11.4564
▁2010,	-11.4567
▁precisely	-11.4569
▁Everyone	-11.4569
▁poultry	-11.457
▁episode	-11.4574
part	-11.4577
▁tied	-11.4578
▁primitive	-11.4579
▁90%	-11.4582
fat	-11.4585
▁constitution	-11.4585
▁operators	-11.4588
how	-11.459
▁resolve	-11.459
▁extending	-11.4592
▁jet	-11.4593
▁Server	-11.4598
▁makers	-11.4601
▁railroad	-11.4605
These	-11.4606
▁environmentally	-11.4608
▁Protocol	-11.461
▁lesions	-11.4611
▁bottles	-11.4615
▁belonging	-11.4616
▁van	-11.4616
▁bills	-11.4621
▁butterflies	-11.4622
▁archive	-11.4622
▁Universe	-11.4628
▁Available	-11.4632
now	-11.4632
▁ingredient	-11.4632
▁meets	-11.4639
▁Darwin	-11.4642
▁identifies	-11.4648
▁neurological	-11.4652
▁herself	-11.4652
▁declined	-11.4653
▁bulk	-11.4656
▁absolutely	-11.4659
▁accomplish	-11.4659
▁entries	-11.4661
▁chemotherapy	-11.4667
▁referring	-11.4676
▁Adam	-11.468
▁chair	-11.4682
▁shipping	-11.4688
▁patches	-11.4689
▁drag	-11.4693
source	-11.4693
▁peripheral	-11.4695
▁Youth	-11.4695
▁movies	-11.4696
▁scheduled	-11.4697
▁pulse	-11.4699
▁privacy	-11.4701
▁sons	-11.4702
ure	-11.4707
▁Technical	-11.4707
▁participated	-11.471
vo	-11.4712
04	-11.4717
32	-11.4718
▁guarantee	-11.472
▁license	-11.472
▁hosts	-11.4726
▁Location	-11.473
▁breeds	-11.4731
▁precious	-11.4736
▁mutation	-11.4737
tion	-11.4739
▁integrate	-11.4741
▁Region	-11.4742
▁accumulation	-11.4742
king	-11.4744
ko	-11.4747
ong	-11.4754
▁seeks	-11.4755
▁globally	-11.4759
aw	-11.476
▁Par	-11.476
▁pond	-11.4766
▁spider	-11.4766
depth	-11.4767
▁Albert	-11.4768
▁perennial	-11.4771
pre	-11.4774
ging	-11.4776
▁numerical	-11.4777
▁potato	-11.478
▁regulatory	-11.4789
▁brick	-11.479
▁Da	-11.479
ker	-11.4791
▁curious	-11.4793
▁parasites	-11.4795
▁relates	-11.4796
▁geological	-11.4797
▁specify	-11.4798
▁updates	-11.4798
▁80%	-11.4799
▁Animals	-11.48
▁programmes	-11.48
▁inflation	-11.4802
▁alternate	-11.4803
▁preschool	-11.4803
▁crash	-11.4805
▁Holocaust	-11.4807
▁Want	-11.4811
▁crystals	-11.4811
▁nurse	-11.4817
▁untreated	-11.4819
▁methodology	-11.4821
▁pushed	-11.4822
▁Tell	-11.4822
▁mixing	-11.4825
▁urinary	-11.4826
▁cylinder	-11.483
▁Process	-11.483
▁Lead	-11.483
?”	-11.483
▁verbal	-11.4832
▁CA	-11.4833
▁pulled	-11.4835
▁modify	-11.4837
▁grand	-11.4844
▁attacked	-11.4846
▁crimes	-11.4847
▁burns	-11.485
▁realistic	-11.485
▁robust	-11.4851
que	-11.4852
▁1995	-11.4853
hour	-11.4856
▁exams	-11.4856
▁convenient	-11.4857
resistant	-11.486
▁Discuss	-11.486
▁picked	-11.486
you	-11.4861
▁impaired	-11.4864
▁football	-11.4866
▁historically	-11.4866
▁receptors	-11.4872
read	-11.4873
▁multiply	-11.4877
▁Tools	-11.4882
▁Far	-11.4883
▁Urban	-11.4885
▁acquisition	-11.4885
▁consult	-11.489
▁reef	-11.4892
▁inequality	-11.4892
▁Cat	-11.4896
▁Manual	-11.4897
▁territories	-11.4899
▁gallons	-11.4899
ach	-11.4899
▁hunger	-11.49
▁qualified	-11.491
▁22,	-11.4911
▁radius	-11.4914
▁cows	-11.4915
▁Complete	-11.4918
▁struggling	-11.4919
▁blade	-11.4924
▁macro	-11.4924
▁historian	-11.4925
▁prototype	-11.4925
▁League	-11.4926
▁Getting	-11.493
▁selecting	-11.4935
▁functionality	-11.4937
▁applicable	-11.4939
▁Southeast	-11.494
▁Geography	-11.4941
▁checked	-11.4949
▁2011,	-11.4949
▁spotted	-11.4951
▁reserves	-11.4957
▁currents	-11.4957
▁64	-11.4958
▁practitioners	-11.4959
▁restored	-11.4959
▁Northwest	-11.496
▁governor	-11.4961
ho	-11.4964
▁advertising	-11.4966
▁ultrasound	-11.4966
▁myth	-11.4968
len	-11.4969
▁inserted	-11.497
”,	-11.4972
▁portable	-11.4974
▁finance	-11.4979
gen	-11.498
▁wise	-11.4981
▁Always	-11.4982
▁composite	-11.4982
▁miss	-11.4982
▁passengers	-11.4984
▁herbs	-11.4987
▁underwater	-11.4987
▁senses	-11.4988
▁Link	-11.4994
▁plastics	-11.4997
▁Similar	-11.5
▁hills	-11.5001
▁inquiry	-11.5006
▁Together	-11.5008
▁Kenya	-11.5008
▁emotion	-11.5017
▁nasal	-11.5017
oid	-11.502
▁sat	-11.502
▁Victorian	-11.5021
▁bowl	-11.5021
▁Has	-11.5022
▁meetings	-11.5023
▁surviving	-11.5027
▁determination	-11.5028
pm	-11.5034
▁Roosevelt	-11.5034
▁pigs	-11.5036
▁reproduce	-11.5037
▁Never	-11.504
name	-11.5044
▁argued	-11.5046
▁blocked	-11.5046
▁Ku	-11.5046
▁19,	-11.5046
ut	-11.5047
▁Regional	-11.5048
▁13,	-11.505
▁2-	-11.5053
▁weeds	-11.5054
▁drill	-11.5055
▁courtesy	-11.5056
▁Six	-11.5056
▁immunity	-11.5061
▁crust	-11.5063
tu	-11.5068
▁Col	-11.5068
▁Hubble	-11.5069
▁lets	-11.5071
▁weapon	-11.5071
▁occasion	-11.5071
▁clues	-11.5073
▁combines	-11.5074
▁interviews	-11.5074
▁indoors	-11.5081
▁flour	-11.5083
▁asks	-11.5085
▁entity	-11.5088
▁Chronic	-11.5089
▁Nearly	-11.509
ene	-11.5092
▁Meaning	-11.5094
▁Democratic	-11.5095
▁pumps	-11.5095
▁4)	-11.5096
▁loud	-11.5098
▁Smart	-11.5099
▁astronomy	-11.5099
▁gaining	-11.5102
▁Stress	-11.5102
▁aside	-11.5104
▁Anne	-11.5106
▁folk	-11.5106
▁teen	-11.5109
▁argues	-11.5109
▁ion	-11.5113
▁gasoline	-11.5115
▁combinations	-11.5117
▁Mercury	-11.5117
rin	-11.5121
▁highlighted	-11.5122
▁sixth	-11.5124
▁astronauts	-11.5124
▁Imagine	-11.5126
▁Fact	-11.5127
▁Biological	-11.513
▁Po	-11.5134
▁Tri	-11.5134
▁Prior	-11.5136
▁constitutional	-11.5139
▁shark	-11.5139
-17	-11.5141
our	-11.5141
▁shortly	-11.5143
▁Signs	-11.5144
▁Dan	-11.5145
ow	-11.5149
▁floods	-11.515
▁Impact	-11.515
▁wage	-11.5153
▁introducing	-11.5156
▁calculation	-11.5158
▁dialogue	-11.5158
▁aids	-11.516
▁manufacturer	-11.516
▁careers	-11.5162
▁digestion	-11.5163
ice	-11.5164
aka	-11.5164
vi	-11.5169
▁trips	-11.517
▁networking	-11.5171
▁mechanics	-11.5172
▁brothers	-11.5172
▁Lawrence	-11.5172
▁medicinal	-11.5174
▁loads	-11.5175
▁revenue	-11.518
IC	-11.518
▁journals	-11.5182
▁Buddhism	-11.5184
▁implies	-11.5184
▁apps	-11.5184
tes	-11.5185
▁revised	-11.5185
▁intervals	-11.5192
▁pleasure	-11.5192
▁appeal	-11.5194
▁23,	-11.5195
All	-11.5196
▁coordinate	-11.5201
ped	-11.5204
▁stuck	-11.5204
▁Sri	-11.5205
▁pulp	-11.5206
▁bike	-11.5206
AP	-11.5207
▁workshops	-11.5208
▁dress	-11.5208
▁placement	-11.5209
▁considerably	-11.5212
▁affordable	-11.5212
▁dissolved	-11.5214
▁lightning	-11.5215
▁connects	-11.5219
▁dishes	-11.522
▁Ford	-11.5223
▁Save	-11.5224
▁XML	-11.5225
▁generates	-11.5225
▁citation	-11.5227
▁Father	-11.5228
dia	-11.5233
▁Taking	-11.5236
ara	-11.5237
▁railway	-11.5237
▁evaluating	-11.524
▁Welcome	-11.5242
▁Ad	-11.5243
▁consisted	-11.5247
▁specimen	-11.5249
ide	-11.5249
▁reserve	-11.5255
▁sustain	-11.5255
▁briefly	-11.5256
gar	-11.5257
▁labeled	-11.5259
▁Declaration	-11.5261
▁readings	-11.5264
35	-11.5266
▁Ex	-11.5267
▁appliances	-11.5268
▁Matthew	-11.5269
bi	-11.5269
▁AP	-11.527
▁anemia	-11.5272
▁Electric	-11.5274
▁Freedom	-11.5276
▁pronunciation	-11.5287
law	-11.5288
lastname	-11.5289
▁Geological	-11.529
pp	-11.5291
▁rounded	-11.5293
▁peoples	-11.5294
▁myself	-11.5296
▁printer	-11.5298
▁fragments	-11.5301
▁pole	-11.5302
PDF	-11.5304
▁critically	-11.5304
▁volunteer	-11.5307
▁Net	-11.5311
▁Olympic	-11.5313
▁minister	-11.5314
▁yes	-11.5314
top	-11.5315
▁uterus	-11.5315
▁recovered	-11.5317
cell	-11.5317
▁gravitational	-11.5321
▁kid	-11.5324
▁trap	-11.533
▁tens	-11.5334
▁architect	-11.5334
tin	-11.5335
▁Prof	-11.5337
▁tomatoes	-11.5337
▁forever	-11.5338
▁attribute	-11.5339
▁assessing	-11.534
▁answered	-11.5343
▁integer	-11.5343
▁sing	-11.5343
▁Stanford	-11.5345
▁similarities	-11.5346
▁tribal	-11.5346
▁Recently	-11.5348
▁winning	-11.535
▁sugars	-11.5356
▁predictions	-11.5358
ano	-11.5359
▁Overall	-11.536
▁punishment	-11.5362
▁Jo	-11.5367
▁sphere	-11.5371
▁boats	-11.538
▁Keywords	-11.538
▁Us	-11.5381
▁Active	-11.5383
style	-11.5383
▁Fe	-11.5384
ile	-11.5385
▁standardized	-11.5389
▁philosophical	-11.5389
▁offspring	-11.5393
▁monitored	-11.5394
▁01	-11.5397
▁26,	-11.5398
▁teenagers	-11.5399
▁Late	-11.5401
▁GDP	-11.5401
▁pan	-11.5401
▁corrosion	-11.5408
▁Luther	-11.541
▁avoided	-11.5413
▁treaty	-11.5415
▁defeat	-11.5416
ria	-11.5417
▁meta	-11.5418
▁stakeholders	-11.542
▁grasses	-11.5426
▁eruption	-11.5426
▁processor	-11.5427
▁Initiative	-11.5427
▁resident	-11.5428
▁broadcast	-11.5429
▁departments	-11.543
high	-11.5431
▁bases	-11.5432
▁checking	-11.5433
▁holy	-11.5434
▁dimension	-11.5437
▁impairment	-11.5439
▁berries	-11.5439
▁tags	-11.544
▁1996	-11.544
▁voting	-11.5442
▁reefs	-11.5443
▁chromosome	-11.5443
▁wheels	-11.5447
▁scattered	-11.545
▁blooms	-11.5451
▁terrestrial	-11.5451
▁Peninsula	-11.5452
▁carved	-11.5453
▁Traditional	-11.5456
▁printable	-11.5459
▁mask	-11.5459
▁Trans	-11.5459
▁contexts	-11.5461
▁swim	-11.5462
▁trapped	-11.5463
▁chains	-11.5464
▁du	-11.5466
▁organisations	-11.5466
▁Taylor	-11.5466
▁ethics	-11.5468
▁Birds	-11.5469
ned	-11.5473
▁analytical	-11.5476
▁marker	-11.5479
▁HPV	-11.548
▁democratic	-11.548
▁blank	-11.5488
▁43	-11.549
▁releases	-11.5493
▁observing	-11.5493
mar	-11.5495
▁rolling	-11.55
LE	-11.5501
▁buffer	-11.5506
▁limiting	-11.5506
▁foam	-11.5509
26	-11.551
▁vein	-11.5511
▁investigating	-11.5512
▁85	-11.5513
▁assumptions	-11.5515
▁tremendous	-11.5517
▁cartilage	-11.5519
▁elections	-11.5521
▁titles	-11.5523
▁plug	-11.553
oma	-11.5532
▁import	-11.5535
cha	-11.5535
ane	-11.5538
▁wax	-11.5543
▁dozen	-11.5544
▁vocal	-11.5544
third	-11.5544
▁diamond	-11.5548
▁sharks	-11.5549
▁glasses	-11.5549
▁Dam	-11.5549
▁Nuclear	-11.555
▁weed	-11.555
▁Present	-11.5555
▁dots	-11.5556
size	-11.5557
▁thrown	-11.5566
▁Programme	-11.5568
▁talked	-11.5569
▁Jane	-11.5569
▁Captain	-11.5572
▁mistake	-11.5572
▁Sand	-11.5572
rum	-11.5573
▁Ann	-11.5573
▁anatomy	-11.5573
▁comet	-11.5577
▁importantly	-11.5582
▁dinner	-11.5584
▁sp	-11.5588
▁2009,	-11.5591
▁forecast	-11.5597
▁Corporation	-11.5598
ris	-11.5598
▁24,	-11.56
▁gardening	-11.5604
▁Hitler	-11.5605
▁automated	-11.5608
▁inspire	-11.5608
▁extensively	-11.5608
▁Iraq	-11.5609
▁unexpected	-11.5609
21	-11.561
▁Williams	-11.5611
fold	-11.5612
▁whilst	-11.5612
▁Norway	-11.5613
▁Peru	-11.5613
▁beer	-11.5614
▁Effects	-11.5618
▁limestone	-11.562
▁pronounced	-11.562
▁tale	-11.5625
▁butter	-11.5626
NET	-11.5631
ons	-11.5632
▁contaminants	-11.5633
▁statue	-11.5633
▁consent	-11.5634
▁1850	-11.5634
space	-11.5635
iz	-11.5636
▁cooler	-11.5637
▁bug	-11.564
▁decreasing	-11.5641
▁stack	-11.5644
▁sorts	-11.5646
▁chord	-11.5647
De	-11.5648
▁Military	-11.565
grade	-11.565
▁eco	-11.5656
▁illustration	-11.5657
="	-11.5664
▁projected	-11.5669
▁representatives	-11.567
▁saturated	-11.5671
▁breakfast	-11.5677
▁abnormalities	-11.5678
▁Discovery	-11.5682
22	-11.5685
▁temples	-11.5686
▁survivors	-11.5687
▁Leave	-11.5689
▁stretching	-11.5689
▁mo	-11.5691
▁viable	-11.5693
▁microscopic	-11.5694
▁Version	-11.5702
▁affairs	-11.5702
▁Upon	-11.5703
▁antenna	-11.571
▁transported	-11.571
▁illustrates	-11.5712
▁solely	-11.5716
28	-11.5721
▁MA	-11.5723
▁bomb	-11.5726
▁Prime	-11.5726
▁interpreted	-11.5727
lar	-11.5728
▁compete	-11.5728
▁writings	-11.573
▁colleges	-11.5731
▁Lu	-11.5732
▁frames	-11.5735
▁Sydney	-11.5737
▁Beach	-11.5738
▁2021	-11.5739
▁delicate	-11.574
▁presenting	-11.5742
▁29,	-11.5748
▁icon	-11.5751
▁watershed	-11.5752
▁intestinal	-11.5753
▁dish	-11.5754
▁counts	-11.5755
▁rover	-11.5758
▁Clinic	-11.576
▁nests	-11.5762
▁Links	-11.5763
ji	-11.5764
▁practicing	-11.5765
tis	-11.5765
▁depicted	-11.5767
▁46	-11.5771
▁95	-11.5777
▁billions	-11.5777
▁charges	-11.5779
OR	-11.5781
▁Various	-11.5781
▁lectures	-11.5785
▁ceremony	-11.5786
▁emergence	-11.579
▁replacing	-11.5794
▁Nevada	-11.5794
▁butterfly	-11.5794
▁quantitative	-11.58
▁Columbus	-11.5802
00	-11.5803
▁Mon	-11.5809
▁''	-11.5816
ud	-11.5818
60	-11.5821
▁Philip	-11.5821
▁undergo	-11.5827
▁Philippines	-11.5828
▁microbes	-11.5832
▁tackle	-11.5834
▁initiated	-11.5836
▁mines	-11.5837
▁Guinea	-11.5838
▁Format	-11.5838
▁toilet	-11.5839
powered	-11.5843
▁Treaty	-11.5846
▁Understand	-11.5846
▁triggered	-11.5846
borne	-11.5846
▁Hard	-11.5847
▁margin	-11.5847
ph	-11.5849
▁cultivation	-11.5852
▁essence	-11.5852
▁council	-11.5854
▁welding	-11.5855
▁Includes	-11.5856
▁birthday	-11.5857
▁Connecticut	-11.586
▁northeast	-11.5861
▁uncommon	-11.5862
▁tries	-11.5863
▁hero	-11.5867
▁drama	-11.5869
▁Ge	-11.587
▁mere	-11.5874
▁aerial	-11.5875
▁corporate	-11.5876
▁olive	-11.5876
▁flesh	-11.5883
▁outbreaks	-11.5883
▁undertaken	-11.5883
▁differential	-11.5886
▁turbine	-11.5886
town	-11.5887
▁Behavior	-11.5888
fer	-11.589
▁ruler	-11.589
▁traumatic	-11.5891
▁costly	-11.5891
▁correlation	-11.5895
▁Greeks	-11.5903
▁impacted	-11.5906
▁bay	-11.5907
▁repeatedly	-11.591
qui	-11.5911
▁Nevertheless	-11.5911
▁Grant	-11.5911
▁Object	-11.5914
▁chromosomes	-11.5914
▁graphs	-11.5917
▁crater	-11.5924
▁Maria	-11.5925
▁foundations	-11.5926
▁packed	-11.5926
▁loaded	-11.5927
▁beetles	-11.5928
▁Lady	-11.5929
▁solved	-11.593
▁mono	-11.5934
▁verse	-11.5938
▁sexually	-11.5939
▁2010.	-11.5941
▁incredibly	-11.5941
▁Price	-11.5942
END	-11.5942
▁outstanding	-11.5945
▁Category	-11.5947
ett	-11.5947
▁meditation	-11.595
▁Allen	-11.5953
▁slower	-11.5954
ball	-11.5954
▁apples	-11.5957
▁runoff	-11.5958
▁expenses	-11.5962
▁fifty	-11.5963
▁nurses	-11.5965
tan	-11.5966
▁syntax	-11.5971
▁fracture	-11.5971
▁flowing	-11.5974
▁imported	-11.5976
▁Cor	-11.5976
▁Run	-11.598
▁Database	-11.5983
aria	-11.5984
▁refused	-11.5988
room	-11.5988
▁triggers	-11.5989
▁Geo	-11.5991
▁Adult	-11.5993
▁diagrams	-11.5994
▁unprecedented	-11.5994
▁drilling	-11.5994
▁compressed	-11.5995
▁tech	-11.5996
▁valves	-11.5998
▁piano	-11.6001
Do	-11.6002
▁Mill	-11.6003
▁transactions	-11.6004
▁subtle	-11.6006
▁intact	-11.6008
▁Adams	-11.6008
▁regulated	-11.6008
▁IBM	-11.601
▁ritual	-11.601
▁passenger	-11.6013
▁moments	-11.6013
▁skilled	-11.6013
▁4-	-11.602
human	-11.6022
▁magic	-11.6023
▁silk	-11.6025
▁succeeded	-11.6029
▁immigration	-11.603
▁hall	-11.6034
▁Mal	-11.6035
▁Si	-11.6035
▁Patrick	-11.6038
▁Framework	-11.6038
▁soda	-11.6039
▁Simply	-11.6045
▁relies	-11.6046
▁sore	-11.6047
200	-11.6047
▁companion	-11.6048
▁hurricane	-11.605
▁Rose	-11.6051
▁exceed	-11.6052
▁Desert	-11.6054
▁neighbors	-11.6055
▁membranes	-11.6057
ki	-11.6057
▁Less	-11.6059
▁suited	-11.6061
▁Could	-11.6063
▁Benjamin	-11.6069
▁modes	-11.6071
▁hang	-11.6073
ence	-11.6073
▁acidic	-11.6074
▁weekend	-11.6074
▁impression	-11.6074
uri	-11.6075
▁Beginning	-11.6078
▁murder	-11.6079
▁Newton	-11.6079
▁unhealthy	-11.6083
ising	-11.6085
▁Har	-11.6085
▁harvested	-11.6086
▁verbs	-11.6086
▁Polish	-11.6086
▁instructor	-11.6088
two	-11.6091
▁Too	-11.6092
▁seizures	-11.6094
ological	-11.6095
▁Amendment	-11.6095
▁beef	-11.6097
▁joy	-11.6098
▁transit	-11.6099
▁pneumonia	-11.6101
▁paste	-11.6103
▁southwest	-11.6107
ua	-11.6108
▁Einstein	-11.6109
▁witness	-11.6109
▁Waste	-11.611
▁strengths	-11.6111
▁operates	-11.6117
▁Square	-11.6119
One	-11.6119
▁40%	-11.612
▁Berkeley	-11.6123
▁Persian	-11.6127
▁religions	-11.6128
▁Production	-11.6132
▁harvesting	-11.6133
▁appointment	-11.6133
▁prompt	-11.6134
-5	-11.6135
▁storing	-11.6136
▁Evaluation	-11.6137
▁(6	-11.6138
▁inputs	-11.6139
usually	-11.6139
▁editors	-11.6142
color	-11.6144
▁acceleration	-11.6145
My	-11.6145
▁carrier	-11.6145
▁Memory	-11.6146
▁Economics	-11.6148
▁organisation	-11.615
threatening	-11.6152
most	-11.6152
tech	-11.6153
▁attach	-11.6154
▁des	-11.6154
ver	-11.6156
Con	-11.6157
▁Register	-11.6157
oriented	-11.6159
▁freezing	-11.616
▁Political	-11.6161
▁conceptual	-11.6164
▁mysterious	-11.6164
▁substantially	-11.6164
▁comparable	-11.6174
▁achievements	-11.6174
▁Fortunately	-11.6175
▁raises	-11.6176
▁planes	-11.6176
▁pathway	-11.6179
▁cosmic	-11.6181
▁pride	-11.6182
▁Trail	-11.6183
▁Autism	-11.6191
ag	-11.6194
▁Machine	-11.6195
▁Certain	-11.6196
gastrointestinal	-11.6197
▁desktop	-11.6198
▁refugees	-11.6203
▁microorganisms	-11.6208
▁calculator	-11.6209
▁25,	-11.621
car	-11.6213
▁farmer	-11.6213
▁nesting	-11.6214
▁northwest	-11.6214
▁entities	-11.6219
▁Authority	-11.6221
▁Discover	-11.6222
▁squares	-11.6222
▁Annual	-11.6224
▁indirect	-11.6228
▁myths	-11.6228
▁sits	-11.6232
▁VI	-11.6233
▁sends	-11.6235
▁unclear	-11.6235
▁Walter	-11.6235
▁breakdown	-11.6243
▁dwarf	-11.6244
▁pushing	-11.6245
▁brilliant	-11.6247
▁proud	-11.6247
▁wounds	-11.6247
▁3,000	-11.6248
▁footprint	-11.6255
▁Meanwhile	-11.6265
▁digits	-11.6271
▁wealthy	-11.6272
▁27,	-11.6276
▁Staff	-11.6276
▁scans	-11.6278
▁collision	-11.628
▁electro	-11.628
tro	-11.628
▁southeast	-11.6282
▁gains	-11.6286
▁melt	-11.6286
▁horizon	-11.6287
▁guard	-11.6287
▁economies	-11.6288
▁cook	-11.6288
▁bars	-11.6289
tra	-11.6292
▁Switzerland	-11.6297
pdf	-11.6298
▁analog	-11.6301
ena	-11.6304
▁promotion	-11.6306
▁prisoners	-11.6313
ica	-11.6314
▁robotic	-11.6314
▁metric	-11.6319
▁30%	-11.6319
▁documentary	-11.6321
▁portrait	-11.6323
five	-11.6324
▁investigations	-11.6324
▁shuttle	-11.6327
▁edible	-11.6327
▁Ch	-11.6328
▁draws	-11.6331
▁packet	-11.6334
▁residence	-11.6334
▁Denmark	-11.6334
▁MRI	-11.6342
▁confident	-11.6343
▁parameter	-11.6343
▁poster	-11.6345
▁min	-11.6347
ase	-11.6352
▁fusion	-11.6358
▁ruling	-11.6358
▁reinforce	-11.6359
▁Intelligence	-11.6359
cal	-11.636
▁fractures	-11.6363
▁Comments	-11.6366
▁elephant	-11.6366
ric	-11.6368
▁2008,	-11.637
▁Important	-11.6373
▁maternal	-11.6373
▁Virtual	-11.6374
▁Parkinson	-11.6375
▁Evidence	-11.6375
▁needles	-11.6377
▁shopping	-11.6381
ding	-11.6382
▁regime	-11.6385
▁permit	-11.6389
-20	-11.639
▁individually	-11.6394
▁reservoir	-11.6395
▁1991	-11.6396
tz	-11.6398
▁algebra	-11.6398
▁invisible	-11.6398
▁trains	-11.6401
▁trick	-11.6402
▁Germans	-11.6402
▁Loss	-11.6405
▁cavities	-11.6405
▁Dogs	-11.6406
▁Would	-11.641
▁41	-11.6411
mus	-11.6411
▁Jean	-11.6414
▁Habitat	-11.6421
▁lesser	-11.6425
▁CCSS	-11.6425
▁pulmonary	-11.6425
get	-11.6426
▁divine	-11.6428
▁grasp	-11.643
▁watched	-11.6431
▁specially	-11.6432
▁GIS	-11.6434
▁stressed	-11.6436
▁incidents	-11.6437
▁YouTube	-11.6438
▁challenged	-11.644
▁UC	-11.6445
▁Individual	-11.6446
▁limbs	-11.6447
▁stimulation	-11.6447
▁bold	-11.6449
▁periodic	-11.645
▁sculpture	-11.645
▁planetary	-11.6453
▁fate	-11.6455
▁battles	-11.6457
▁30,	-11.6459
▁reward	-11.6462
▁touching	-11.6462
▁Live	-11.6463
▁cooperative	-11.6464
▁para	-11.6466
▁reliability	-11.6467
▁Jacob	-11.6467
▁panic	-11.6473
▁truck	-11.6477
▁Vision	-11.6478
500	-11.6479
▁mutual	-11.6479
▁beaches	-11.6485
▁founding	-11.6486
▁geo	-11.6492
▁101	-11.6495
▁query	-11.6495
▁crack	-11.6495
▁receptor	-11.6497
▁Fa	-11.6497
▁lasted	-11.6497
▁surgeon	-11.6498
▁cups	-11.6501
▁thumb	-11.6501
▁strikes	-11.6504
ants	-11.6504
▁Chile	-11.6505
what	-11.6506
▁irritation	-11.6506
▁entertainment	-11.6506
▁traced	-11.6506
home	-11.6507
▁pile	-11.6507
42	-11.6508
▁uncertainty	-11.6514
▁adulthood	-11.6514
▁destructive	-11.6516
▁sulfur	-11.6517
▁pm	-11.6518
▁surroundings	-11.6519
▁float	-11.652
▁confined	-11.6522
▁emperor	-11.6523
▁settle	-11.6524
So	-11.6525
▁Box	-11.6526
1)	-11.6527
▁Organic	-11.6528
▁petroleum	-11.6529
▁caring	-11.6529
▁enterprise	-11.6531
ita	-11.6534
▁True	-11.6535
▁ports	-11.6536
hu	-11.6541
▁formerly	-11.6542
▁unemployment	-11.6545
AIDS	-11.6545
▁Publisher	-11.6549
▁Cha	-11.6549
▁coordinates	-11.6551
▁yesterday	-11.6553
▁coronary	-11.6553
▁phosphorus	-11.6553
▁obviously	-11.6554
tus	-11.6554
▁separately	-11.6555
▁racism	-11.6556
Co	-11.6556
▁CE	-11.6557
▁edited	-11.6557
▁drying	-11.6558
▁tonnes	-11.6559
▁sole	-11.656
▁Lessons	-11.6561
▁gate	-11.6561
▁Miller	-11.6561
▁Plus	-11.6562
06	-11.6563
▁dinosaur	-11.6563
ay	-11.6564
▁tide	-11.6565
▁Specific	-11.6566
▁approval	-11.6569
aries	-11.6569
▁manure	-11.6569
▁2011.	-11.6571
power	-11.6572
▁antioxidants	-11.6575
▁Austria	-11.6575
▁Sources	-11.6579
ram	-11.658
▁hydro	-11.658
By	-11.6582
▁constitute	-11.6583
▁Imperial	-11.6585
▁alignment	-11.6589
▁700	-11.6592
▁constraints	-11.6593
▁municipal	-11.6593
▁1880	-11.6599
▁simplest	-11.66
inflammatory	-11.6604
ible	-11.6605
▁Numbers	-11.6605
▁commissioned	-11.6607
▁enemies	-11.6608
AD	-11.6609
▁bloodstream	-11.661
▁Fun	-11.6612
▁cheaper	-11.6612
▁Cloud	-11.6612
▁Send	-11.6612
▁Silver	-11.6613
hr	-11.6613
▁lean	-11.6617
▁Ground	-11.6617
3,	-11.6619
▁Max	-11.6624
▁acceptance	-11.6625
▁1994	-11.6625
▁ultraviolet	-11.6626
ada	-11.6626
▁soldier	-11.6628
▁sq	-11.6629
han	-11.663
▁dies	-11.6632
▁bell	-11.6634
▁instant	-11.6635
▁Douglas	-11.6641
▁resist	-11.6642
▁grazing	-11.6642
▁spiders	-11.6643
minute	-11.6643
▁recreational	-11.6643
▁convey	-11.6648
▁Awareness	-11.6648
▁hemisphere	-11.6649
▁rehabilitation	-11.665
▁customs	-11.6651
▁conscious	-11.6651
▁sticks	-11.6652
▁curved	-11.6653
▁Ross	-11.6654
▁sanitation	-11.6656
▁Financial	-11.6658
▁Defense	-11.6658
kg	-11.6666
▁attempting	-11.6667
▁transplant	-11.6668
▁symbolic	-11.6669
▁premature	-11.6669
▁resemble	-11.6669
▁tourist	-11.6671
▁Poor	-11.6672
▁surveillance	-11.6673
▁climates	-11.6675
▁folder	-11.668
▁liquids	-11.668
▁Base	-11.6682
▁Wright	-11.6689
▁Spirit	-11.6698
▁advised	-11.6699
form	-11.6704
▁graders	-11.6706
▁associations	-11.6706
▁flame	-11.6706
▁Trees	-11.6707
▁equilibrium	-11.6707
05	-11.6707
▁spectacular	-11.6709
▁72	-11.6711
▁Turn	-11.6711
▁cone	-11.6712
▁Challenge	-11.6712
▁angry	-11.6712
▁slopes	-11.6714
▁dye	-11.6714
▁Tower	-11.6714
▁cookies	-11.6716
▁defeated	-11.6717
80	-11.6718
▁respective	-11.6718
▁designer	-11.6718
▁steep	-11.6719
▁caves	-11.6721
▁turtle	-11.6722
▁shield	-11.6723
▁5:	-11.6724
▁Snow	-11.6725
▁lock	-11.6725
▁Continue	-11.6727
▁dated	-11.6727
▁0.5	-11.6727
▁firstname	-11.6728
▁fin	-11.6729
▁hollow	-11.6731
▁revolutionary	-11.6732
ik	-11.6732
▁Hong	-11.6733
▁informal	-11.6736
▁Issue	-11.6738
▁airplane	-11.6739
▁Remove	-11.6739
▁ultra	-11.674
▁inclusive	-11.674
▁shooting	-11.6743
▁gross	-11.6745
▁URL	-11.6746
▁Programs	-11.6746
▁closing	-11.6747
▁cables	-11.6748
▁headed	-11.675
▁geometric	-11.6751
▁inadequate	-11.6753
▁burial	-11.6754
cut	-11.6756
▁invest	-11.6758
▁grave	-11.676
▁Programming	-11.6763
▁180	-11.6764
64	-11.6767
osis	-11.6768
03	-11.6769
iness	-11.677
▁Parks	-11.6771
▁vascular	-11.6775
▁pointing	-11.6776
▁underneath	-11.6776
▁Philosophy	-11.6778
▁fungal	-11.6781
nes	-11.6781
res	-11.6781
▁hardly	-11.6782
tr	-11.6783
▁Territory	-11.6784
▁pots	-11.6785
▁Count	-11.6788
▁Sept	-11.6788
▁Ne	-11.6788
▁episodes	-11.6789
▁Disorders	-11.679
ck	-11.679
▁unnecessary	-11.6793
▁settlements	-11.6793
▁NO	-11.6794
▁glaciers	-11.6794
zo	-11.6795
▁shelf	-11.68
yn	-11.6801
▁employ	-11.6802
▁fastest	-11.6802
ran	-11.6805
▁pit	-11.6805
▁Picture	-11.6805
▁watering	-11.6806
mile	-11.6808
▁bronze	-11.6809
09	-11.681
▁conversations	-11.6813
▁tsunami	-11.6813
▁differentiate	-11.6816
▁liberal	-11.6817
▁ponds	-11.6817
▁shrub	-11.6823
75	-11.6823
▁digit	-11.6825
▁Construction	-11.6825
▁1860	-11.6827
▁Evolution	-11.6828
▁Night	-11.6828
▁kilometres	-11.6829
▁2012.	-11.683
▁Ke	-11.6832
▁caffeine	-11.6833
▁variability	-11.6833
▁gently	-11.6833
▁reactor	-11.6834
rate	-11.6835
▁Canal	-11.6838
▁decimal	-11.6838
▁inexpensive	-11.684
▁purchasing	-11.6841
▁Architecture	-11.6841
▁coil	-11.6843
▁behave	-11.6844
MA	-11.6846
▁Sierra	-11.6849
▁blame	-11.6853
▁intent	-11.6853
▁ON	-11.6854
▁Response	-11.6855
▁unwanted	-11.6857
▁poles	-11.6858
▁Houston	-11.6859
▁Rio	-11.686
▁inspection	-11.6861
▁socio	-11.6861
▁forty	-11.6862
▁interfere	-11.6865
▁asset	-11.6867
ski	-11.6868
▁smile	-11.6869
especially	-11.687
▁Railroad	-11.6874
▁Poly	-11.6874
▁seemingly	-11.6874
▁ventilation	-11.6876
▁Compare	-11.6876
lon	-11.6877
▁Anglo	-11.6877
▁NC	-11.6879
▁Maybe	-11.6879
▁considerations	-11.688
ps	-11.6882
▁crossed	-11.6883
▁47	-11.6887
▁Value	-11.6887
▁lava	-11.689
▁gentle	-11.6891
▁muscular	-11.6892
▁induced	-11.6893
▁variant	-11.6894
▁Flash	-11.6895
▁apnea	-11.6895
▁Eat	-11.6897
▁landed	-11.6897
▁rocky	-11.6898
esteem	-11.6903
▁bitter	-11.6903
▁conserve	-11.6904
▁1890	-11.6905
▁Eventually	-11.6906
▁25%	-11.6907
▁Ray	-11.6907
text	-11.6908
▁sad	-11.6908
▁geology	-11.6909
▁wool	-11.6913
▁Genetic	-11.6914
▁hydraulic	-11.6916
test	-11.6919
▁promoted	-11.6919
▁garbage	-11.6923
▁bare	-11.6923
▁Teach	-11.6924
▁abroad	-11.6926
▁Cook	-11.693
▁Hot	-11.6934
▁embryo	-11.6936
▁export	-11.6938
▁mainstream	-11.694
▁registration	-11.6941
▁visually	-11.6941
▁Portuguese	-11.6942
▁coupled	-11.6942
▁Gene	-11.6945
▁sees	-11.6945
▁Forum	-11.6945
▁kings	-11.6946
▁pressures	-11.6946
▁highway	-11.6947
▁arrest	-11.6947
month	-11.6947
▁reddish	-11.6947
▁nail	-11.6948
▁intention	-11.695
▁Wi	-11.695
▁darker	-11.695
▁blindness	-11.6952
first	-11.6952
▁Gallery	-11.6955
▁warned	-11.696
▁rod	-11.6963
▁median	-11.6963
▁consensus	-11.6964
▁Christopher	-11.6966
tor	-11.6967
▁Mind	-11.6971
▁Joint	-11.6972
▁trash	-11.6972
▁sink	-11.6974
▁textbooks	-11.6975
▁insert	-11.6975
▁spell	-11.698
▁appreciation	-11.698
ip	-11.6986
▁52	-11.6988
int	-11.6988
▁Executive	-11.6988
▁Baltimore	-11.699
▁manipulate	-11.6993
▁Kong	-11.6995
▁fleet	-11.7001
▁limb	-11.7002
▁recognised	-11.7002
▁hanging	-11.7005
▁Return	-11.7006
author	-11.701
Continue	-11.701
▁Users	-11.7011
▁Hopkins	-11.7013
▁dozens	-11.7015
▁omega	-11.7017
▁races	-11.7018
▁Bad	-11.7023
▁frogs	-11.7024
log	-11.7025
▁twin	-11.7027
▁Higher	-11.7027
▁lacking	-11.7028
▁strips	-11.7028
▁titled	-11.7029
▁interference	-11.703
▁Seven	-11.7032
ids	-11.7033
▁pound	-11.7034
▁Command	-11.7036
▁Afghanistan	-11.7038
▁spreads	-11.7041
▁threatening	-11.7043
range	-11.7043
▁PA	-11.7045
▁considers	-11.7045
▁rope	-11.7046
▁naval	-11.7047
▁riding	-11.7047
▁gauge	-11.7048
▁Swedish	-11.7048
▁Dark	-11.7053
08	-11.7053
illa	-11.7055
▁nationwide	-11.7056
▁temporal	-11.7061
ator	-11.7063
SC	-11.7066
▁beverages	-11.7066
▁ignored	-11.7067
▁Secondary	-11.7067
▁Growth	-11.7068
▁Healthwise	-11.7073
▁commercially	-11.7073
▁migrate	-11.7075
▁Reader	-11.7076
55	-11.708
▁mankind	-11.708
▁Form	-11.708
▁dual	-11.7083
▁fertile	-11.7083
▁microbial	-11.7084
▁2013.	-11.7086
▁PowerPoint	-11.7088
▁saliva	-11.7088
▁Channel	-11.7091
▁shouldn	-11.7093
▁Marshall	-11.7106
▁aboard	-11.7106
▁sensing	-11.7111
ES	-11.7113
zi	-11.7113
▁reads	-11.7113
▁Cassini	-11.7113
▁shower	-11.7114
▁deck	-11.7118
▁ma	-11.7119
▁bush	-11.7121
▁citizenship	-11.7121
▁momentum	-11.7123
▁climb	-11.7124
▁assumption	-11.7129
▁Android	-11.713
science	-11.7131
▁49	-11.7131
)||	-11.7132
▁nearest	-11.7133
▁Tests	-11.7136
▁sewage	-11.7138
▁modifications	-11.7139
▁bath	-11.7139
▁Critical	-11.7139
▁ignore	-11.714
▁guns	-11.714
▁shaft	-11.7141
▁Simon	-11.7143
▁differs	-11.7147
▁baseball	-11.7147
▁Dog	-11.7148
▁1870	-11.7148
EN	-11.715
▁pressing	-11.7151
code	-11.7151
▁Participants	-11.7155
▁hay	-11.7155
▁innovations	-11.7157
ou	-11.7159
▁20,	-11.7159
▁pediatric	-11.716
ib	-11.716
▁continental	-11.7162
▁necessity	-11.7163
▁certification	-11.7163
pur	-11.7163
▁inability	-11.7164
▁Application	-11.7165
▁assembled	-11.7169
-8	-11.7169
▁Award	-11.717
▁conclude	-11.7173
▁UNESCO	-11.7175
▁polymer	-11.7178
▁(16	-11.7179
ani	-11.7179
▁toxicity	-11.7179
even	-11.718
▁feeds	-11.7181
▁tomb	-11.7182
▁concentrate	-11.7183
▁Highway	-11.7184
▁learner	-11.7186
▁Mc	-11.7187
▁descent	-11.7188
▁exotic	-11.7188
▁joining	-11.7189
▁buttons	-11.719
view	-11.719
▁motors	-11.7192
ably	-11.7195
▁Editor	-11.7198
▁heading	-11.7198
▁gravel	-11.7198
▁inventory	-11.7199
▁lime	-11.7204
▁dot	-11.7205
▁preliminary	-11.7205
▁eliminated	-11.7206
▁AS	-11.7207
▁club	-11.7208
▁converting	-11.721
▁magnet	-11.7212
▁shifts	-11.7213
▁Thailand	-11.7213
▁throne	-11.7222
▁loans	-11.7223
▁desirable	-11.7224
▁rigid	-11.7225
▁Su	-11.7225
▁randomly	-11.723
person	-11.7231
▁ankle	-11.7232
▁FREE	-11.7233
▁54	-11.7235
▁admitted	-11.7239
▁Hurricane	-11.7239
▁translate	-11.7242
▁complement	-11.7243
▁Starting	-11.7244
▁dividing	-11.7247
▁artwork	-11.7248
▁elephants	-11.7249
▁forgotten	-11.7251
▁Near	-11.7252
▁linking	-11.7253
▁monuments	-11.7254
▁decorative	-11.7256
▁Publishing	-11.7257
good	-11.7259
▁Drawing	-11.726
▁variants	-11.7261
▁von	-11.7261
▁Individuals	-11.7265
▁autonomous	-11.7265
▁permanently	-11.7267
▁exhibits	-11.7267
▁judgment	-11.727
▁linguistic	-11.7272
▁Rule	-11.7272
▁kernel	-11.7274
▁legislative	-11.7281
IT	-11.7281
▁cargo	-11.7281
change	-11.7281
▁eligible	-11.7285
ST	-11.7286
▁timeline	-11.7286
▁fits	-11.7286
▁Ken	-11.7286
▁Views	-11.7287
▁1939	-11.7287
▁Approximately	-11.729
▁ornamental	-11.7291
▁Bob	-11.7294
▁Flag	-11.7294
▁introductory	-11.7298
▁permitted	-11.7299
▁Frederick	-11.7301
▁matches	-11.7303
▁tender	-11.7304
▁certificate	-11.7306
▁Tropical	-11.7309
▁detector	-11.7314
▁vulnerability	-11.7315
▁Montana	-11.7315
bed	-11.7316
▁woods	-11.7317
▁prints	-11.7317
ments	-11.7317
▁tense	-11.732
▁votes	-11.732
▁missed	-11.7321
▁priest	-11.7323
▁slides	-11.7324
▁poses	-11.7324
▁Applications	-11.7327
▁metallic	-11.7328
▁marking	-11.733
▁exit	-11.7331
▁aquarium	-11.7331
▁App	-11.7332
▁flora	-11.7336
▁Pass	-11.7337
▁inherent	-11.7338
▁rot	-11.7338
▁Flu	-11.7339
▁Surgery	-11.7341
list	-11.7341
▁sequencing	-11.7343
▁rotating	-11.7343
▁compliance	-11.7345
▁passages	-11.7345
▁fold	-11.7346
py	-11.7346
▁staying	-11.7348
▁indication	-11.7349
▁trillion	-11.7349
che	-11.735
▁voices	-11.7352
That	-11.7353
table	-11.7354
▁wages	-11.7356
English	-11.7357
▁databases	-11.7358
ATION	-11.7359
CC	-11.7363
▁attending	-11.7364
▁alpha	-11.7371
aceae	-11.7372
▁execute	-11.7372
▁firms	-11.7374
ground	-11.7374
▁prediction	-11.7376
▁queen	-11.7376
On	-11.738
▁Terms	-11.7381
▁tablets	-11.7381
▁controversy	-11.7383
▁marrow	-11.7384
ori	-11.7384
▁pig	-11.7392
▁fantastic	-11.7392
▁manipulation	-11.7392
▁histories	-11.7392
▁undergraduate	-11.7392
▁resting	-11.7394
▁requests	-11.7396
▁Cost	-11.74
▁drew	-11.7401
▁Canyon	-11.7401
▁Fox	-11.7402
▁posture	-11.7403
▁ABC	-11.7404
▁bites	-11.7405
▁delete	-11.7407
▁Ro	-11.7408
▁tired	-11.7408
des	-11.7409
▁absent	-11.7409
▁easiest	-11.7409
ery	-11.7413
▁endemic	-11.7413
▁sweat	-11.7414
▁suspended	-11.7419
▁MB	-11.7419
▁Harbor	-11.7421
▁Thinking	-11.7426
▁stopping	-11.7427
▁worm	-11.7427
▁tales	-11.7428
▁implant	-11.7433
▁accordance	-11.7435
▁behalf	-11.7435
du	-11.7442
▁fisheries	-11.7444
▁NOAA	-11.7445
meter	-11.7446
▁chloride	-11.7446
▁Record	-11.7447
▁generic	-11.7448
▁refuge	-11.7449
▁Adults	-11.7449
▁delayed	-11.7451
▁resilience	-11.7452
▁gay	-11.7454
▁activated	-11.7454
▁1-	-11.7456
▁Tar	-11.7457
▁peaceful	-11.7457
▁1975	-11.7457
▁darkness	-11.7458
▁simulations	-11.7458
▁tie	-11.746
▁upset	-11.7462
▁(15	-11.7468
▁incorrect	-11.7468
▁Chris	-11.7468
-6	-11.7469
▁poison	-11.7471
▁passion	-11.7472
▁accommodate	-11.7474
speed	-11.7476
▁Fahrenheit	-11.7478
▁repetitive	-11.7478
▁upward	-11.748
▁museums	-11.7484
▁loading	-11.7484
▁negatively	-11.7485
▁Republican	-11.7486
▁nectar	-11.7487
▁descendants	-11.7487
cho	-11.7487
▁emitted	-11.7487
▁Singapore	-11.7488
▁Province	-11.7489
Fi	-11.7492
▁10-	-11.7494
▁terminology	-11.7495
brown	-11.7497
▁1.2	-11.7498
▁overwhelming	-11.7503
▁puzzles	-11.7504
▁expense	-11.7505
su	-11.7505
▁climbing	-11.7506
▁j	-11.7509
▁disabled	-11.7509
▁bass	-11.7511
▁adjusted	-11.7512
▁yoga	-11.7513
▁Sky	-11.7513
▁sandy	-11.7516
▁remembered	-11.7516
▁Son	-11.7516
▁holidays	-11.752
▁fears	-11.7522
▁signature	-11.7525
▁Sports	-11.7529
▁confusing	-11.753
▁Mer	-11.7531
▁wilderness	-11.7532
▁Answers	-11.7533
▁Greenland	-11.7533
body	-11.7535
▁bow	-11.7536
▁Mid	-11.7543
▁sacrifice	-11.7548
▁Guard	-11.7552
▁MP	-11.7555
▁tourists	-11.7555
▁Log	-11.7556
▁antioxidant	-11.7558
▁notably	-11.756
▁Ti	-11.756
▁Harry	-11.7565
▁CH	-11.7566
▁Ba	-11.7566
▁Adobe	-11.7568
▁threshold	-11.7569
par	-11.7569
▁chewing	-11.7571
▁56	-11.7577
▁obstacles	-11.7578
▁afraid	-11.7582
▁zoo	-11.7587
▁payments	-11.7589
▁Finding	-11.7589
PS	-11.7589
▁Distribution	-11.759
▁Hamilton	-11.7593
▁Ecology	-11.7594
48	-11.7595
▁Mobile	-11.7595
"?	-11.7596
▁neighboring	-11.7597
▁pigment	-11.7602
▁provinces	-11.7604
▁laboratories	-11.7609
▁Delaware	-11.7609
▁informative	-11.7609
▁Susan	-11.7609
ites	-11.7609
▁silent	-11.7611
▁insufficient	-11.7612
▁substrate	-11.7612
act	-11.7613
ek	-11.7613
pan	-11.762
▁disappeared	-11.7622
▁tears	-11.7628
▁distress	-11.7631
sky	-11.7634
▁investments	-11.7634
▁Industry	-11.7636
▁herb	-11.7636
PC	-11.7637
▁revision	-11.7637
▁lamp	-11.7638
▁juvenile	-11.7639
▁pesticide	-11.764
▁Jordan	-11.7641
▁Kings	-11.7642
▁Document	-11.7642
▁emphasize	-11.7647
▁Citation	-11.7647
▁font	-11.7649
▁5,000	-11.7651
ob	-11.7651
▁Member	-11.7653
▁wolf	-11.7653
▁drum	-11.7656
▁aligned	-11.7656
▁Scientist	-11.7657
▁boom	-11.7659
▁descriptive	-11.7661
▁logging	-11.7662
pt	-11.7668
box	-11.7668
▁prehistoric	-11.7669
▁cyber	-11.7673
OS	-11.7674
▁CPU	-11.7675
eye	-11.7677
▁centered	-11.7678
▁ruins	-11.7678
▁Nebraska	-11.7682
▁ancestor	-11.7682
▁conservative	-11.7685
▁encryption	-11.7688
who	-11.7689
▁bend	-11.7691
▁defect	-11.7695
▁wavelength	-11.7696
induced	-11.7697
▁elaborate	-11.7699
▁Term	-11.7702
86	-11.7702
ming	-11.7704
▁fails	-11.7705
▁retention	-11.7706
▁sword	-11.7709
osa	-11.7709
▁oval	-11.7711
▁dynasty	-11.7715
▁appearing	-11.7715
▁Ridge	-11.7715
wing	-11.7716
▁rating	-11.7719
▁towers	-11.7724
▁tomato	-11.7725
▁seas	-11.7725
▁subjected	-11.7728
MP	-11.7731
▁hits	-11.7731
▁Sample	-11.7732
▁counterparts	-11.7735
▁Background	-11.7735
-11	-11.7735
("	-11.7735
▁systemic	-11.7738
aged	-11.7738
▁Hispanic	-11.7739
▁Handbook	-11.774
▁featuring	-11.7741
cat	-11.7744
▁voluntary	-11.7745
▁Room	-11.7745
▁provisions	-11.7747
▁lips	-11.7748
▁reptiles	-11.7748
▁cube	-11.775
▁harmony	-11.775
▁Arkansas	-11.7751
▁Speech	-11.7751
▁arrow	-11.7752
▁BY	-11.7752
▁mate	-11.7755
▁Past	-11.7756
▁equity	-11.7756
▁painter	-11.7757
▁(4)	-11.7758
▁communicating	-11.7759
▁Alcohol	-11.776
ei	-11.776
▁Carl	-11.7763
▁criticism	-11.7765
▁reuse	-11.7768
▁deposit	-11.7768
▁continually	-11.7769
▁Swiss	-11.777
▁Bishop	-11.777
used	-11.7771
ose	-11.7771
▁Ga	-11.7774
▁2007,	-11.7776
▁Federation	-11.7777
▁cracks	-11.7777
▁seats	-11.7779
▁Changes	-11.7779
▁telescopes	-11.778
▁conditioning	-11.7781
▁Baby	-11.7783
▁Doctors	-11.7784
▁campaigns	-11.7787
▁valued	-11.7787
▁evolve	-11.7788
▁delivering	-11.779
▁recipe	-11.7791
▁grants	-11.7792
▁Childhood	-11.7795
▁Sarah	-11.7796
▁notation	-11.7796
▁Store	-11.7799
▁maximize	-11.78
▁Side	-11.7804
rus	-11.7805
▁diabetic	-11.7806
fi	-11.7809
▁tin	-11.7812
▁odor	-11.7813
gate	-11.7813
▁contagious	-11.7814
▁Milky	-11.7814
▁guitar	-11.7815
▁pulling	-11.7816
▁Ta	-11.7817
▁prize	-11.7822
▁factories	-11.7824
gram	-11.7829
▁stimulus	-11.783
▁Magazine	-11.783
▁Structure	-11.7831
▁maturity	-11.7832
▁swollen	-11.7832
▁kills	-11.7832
▁bubbles	-11.7833
▁perceive	-11.7839
▁lip	-11.7844
▁Members	-11.7846
▁spark	-11.7846
▁preserving	-11.7849
90	-11.7849
▁Definitions	-11.7851
▁gifts	-11.7851
click	-11.7851
▁000	-11.7854
▁Indo	-11.7855
▁Syria	-11.7856
▁eliminating	-11.7857
ati	-11.7861
▁plains	-11.7862
Mo	-11.7862
▁turbines	-11.7865
▁retained	-11.7865
▁Style	-11.7866
▁Orange	-11.7867
▁Howard	-11.7872
▁Ki	-11.7872
lam	-11.7874
▁Known	-11.7875
400	-11.7875
▁Oak	-11.788
46	-11.7881
▁neglect	-11.7881
▁socially	-11.7882
▁Capital	-11.7882
▁cemetery	-11.7884
▁hat	-11.7887
▁doctrine	-11.7889
▁economically	-11.7891
▁convention	-11.7896
▁trucks	-11.7897
▁Ethiopia	-11.7899
▁Reports	-11.79
▁Principles	-11.7902
▁worried	-11.7902
▁Foreign	-11.7904
▁Zone	-11.7906
late	-11.7906
▁Include	-11.7908
than	-11.791
▁Growing	-11.7911
▁scanning	-11.7912
Source	-11.7913
SA	-11.7913
▁Kar	-11.7916
jo	-11.7917
▁crude	-11.792
▁fans	-11.7921
▁Margaret	-11.7922
▁withstand	-11.7923
▁Nepal	-11.7924
▁laptop	-11.7926
▁stresses	-11.7928
▁spill	-11.7929
▁Mi	-11.793
▁Hudson	-11.7931
▁ST	-11.7935
▁Inside	-11.7935
▁germs	-11.7935
▁Wiki	-11.7936
▁Norman	-11.7938
▁displacement	-11.794
▁surveyed	-11.7941
▁scratch	-11.7945
▁possession	-11.7945
ties	-11.7946
▁enamel	-11.7948
▁Para	-11.7948
▁Tim	-11.7948
▁parasite	-11.795
▁Cleveland	-11.7957
▁banned	-11.7957
▁Applied	-11.7958
ai	-11.7961
▁Celsius	-11.7966
▁curiosity	-11.7966
uh	-11.7967
▁ceiling	-11.7971
07	-11.7973
At	-11.7974
▁Letter	-11.7975
▁alarm	-11.7975
▁fitted	-11.7976
▁focal	-11.7976
▁Focus	-11.7976
▁lion	-11.7979
▁boiling	-11.7979
▁trails	-11.7984
▁skeleton	-11.7984
▁mythology	-11.7984
▁Sal	-11.7985
▁physiology	-11.7989
▁populated	-11.7991
▁Band	-11.7995
▁tuberculosis	-11.7996
La	-11.7998
▁positively	-11.7998
▁formally	-11.7998
▁Sep	-11.7999
▁Internal	-11.8
▁Names	-11.8
▁Maps	-11.8002
▁51	-11.8003
29	-11.8004
▁Breast	-11.8005
where	-11.8005
driven	-11.8005
▁strongest	-11.8005
▁hungry	-11.8006
▁vol	-11.8007
▁specifications	-11.8009
▁preventive	-11.801
▁pocket	-11.801
▁detecting	-11.8011
▁Fourth	-11.8012
▁osteoporosis	-11.8013
▁Vi	-11.8013
▁disappear	-11.8016
▁tiles	-11.8018
they	-11.8023
▁relax	-11.8024
ical	-11.8025
▁PHP	-11.8025
▁Atlas	-11.8026
▁mph	-11.8026
▁subscribe	-11.8027
▁frog	-11.8029
▁clip	-11.8034
▁interfaces	-11.8035
▁efficacy	-11.8036
▁Original	-11.8036
▁pools	-11.8037
▁brushing	-11.8037
▁Dynasty	-11.8039
▁pancreas	-11.8039
gy	-11.804
mes	-11.8041
▁dependence	-11.8044
▁receiver	-11.8044
▁110	-11.8046
profit	-11.8049
▁erected	-11.8051
▁refined	-11.8051
▁outlined	-11.8052
▁washed	-11.8054
▁motivated	-11.8055
▁implants	-11.8057
only	-11.8059
gan	-11.8061
lie	-11.8062
▁beetle	-11.8064
▁Religion	-11.8064
▁administrators	-11.8067
▁presidential	-11.8067
▁summit	-11.8068
sea	-11.8068
▁Bangladesh	-11.8071
▁Topic	-11.8073
▁occasions	-11.8074
▁blades	-11.8076
▁mating	-11.8081
▁courage	-11.8088
▁Conditions	-11.8089
▁plural	-11.8091
base	-11.8095
▁verify	-11.8095
▁weren	-11.8097
▁Anderson	-11.8097
ue	-11.8098
▁Horse	-11.8099
▁2023	-11.8101
▁exterior	-11.8103
▁poisonous	-11.8103
▁shoulders	-11.8104
▁sketch	-11.8106
▁Corn	-11.8108
▁visualization	-11.8112
▁authentic	-11.8114
▁1919	-11.8116
▁Rev	-11.8117
▁ulcers	-11.8117
▁bicycle	-11.8119
ff	-11.8123
▁deployed	-11.8124
▁predominantly	-11.8124
▁warfare	-11.8131
").	-11.8132
▁luck	-11.8132
▁Developing	-11.8133
▁Jun	-11.8134
▁offset	-11.8135
▁Again	-11.8135
▁recipes	-11.8136
START	-11.8139
▁wetland	-11.8139
▁tomorrow	-11.8139
▁lowering	-11.814
▁Notice	-11.8141
cy	-11.8145
▁landmark	-11.8146
▁(10	-11.8148
▁occupational	-11.8148
▁typing	-11.815
▁crowd	-11.8151
▁thinks	-11.8151
▁temperate	-11.8152
▁hairs	-11.8152
▁lithium	-11.8158
▁Princeton	-11.8159
▁attraction	-11.8161
▁overhead	-11.8162
▁Normal	-11.8164
mat	-11.8167
▁Penn	-11.8167
▁uranium	-11.8168
▁Consequently	-11.8168
AC	-11.817
▁Ja	-11.8171
▁charging	-11.8172
▁Alliance	-11.8177
▁Orleans	-11.8177
▁photosynthesis	-11.8177
▁Stories	-11.8177
▁computational	-11.8185
▁Toronto	-11.8186
▁Bre	-11.8186
▁Seattle	-11.8188
▁upcoming	-11.819
ea	-11.8191
▁publishing	-11.8193
▁divisions	-11.8195
▁apparatus	-11.8196
▁Arduino	-11.8197
▁Argentina	-11.8197
-16	-11.8203
▁Athens	-11.8205
▁commission	-11.8205
!!	-11.8206
▁workforce	-11.8207
▁Interactive	-11.8208
▁cite	-11.8209
▁Front	-11.8209
▁knife	-11.8209
▁NY	-11.8213
▁handful	-11.8215
ions	-11.8215
▁commit	-11.8217
▁strictly	-11.8219
▁Cuba	-11.8219
▁actors	-11.8223
ru	-11.8223
▁accompanying	-11.8223
▁bamboo	-11.8223
▁rectangular	-11.8223
▁140	-11.8226
▁obtaining	-11.8226
▁deposited	-11.8229
▁References	-11.8231
▁declining	-11.8233
▁dreams	-11.8237
▁Direct	-11.8237
bin	-11.8241
▁coli	-11.8243
▁tan	-11.8245
▁tolerate	-11.8248
economic	-11.8248
effective	-11.8248
▁Fruit	-11.8248
▁citations	-11.8249
▁[...	-11.8249
▁Left	-11.825
▁listing	-11.8252
▁scholarly	-11.8254
▁injected	-11.8255
▁Smithsonian	-11.8256
▁responding	-11.8257
▁modification	-11.826
▁Cycle	-11.8261
▁exceptional	-11.8262
▁Song	-11.8262
▁Nano	-11.8264
NC	-11.8266
43	-11.8268
▁remind	-11.8272
▁walked	-11.8274
▁uncovered	-11.8274
▁dawn	-11.8275
▁130	-11.8276
▁Fig	-11.8277
▁tragedy	-11.828
▁smokers	-11.828
SO	-11.828
▁degeneration	-11.8281
▁laying	-11.8281
▁capsule	-11.8281
▁Status	-11.8287
▁Tan	-11.8288
▁Idaho	-11.8289
▁Worksheets	-11.8291
band	-11.8291
▁rejected	-11.8291
▁stayed	-11.8294
od	-11.8294
▁Listen	-11.8297
van	-11.8297
▁cortex	-11.8298
▁biography	-11.8299
▁durable	-11.8299
ations	-11.8299
▁Torah	-11.8301
▁decorated	-11.8303
300	-11.8305
▁heel	-11.8305
▁pi	-11.8309
▁yards	-11.8312
ette	-11.8312
▁160	-11.8312
▁Mu	-11.8316
▁horn	-11.8317
terdisciplinary	-11.8318
-15	-11.832
bound	-11.8321
▁Turkish	-11.8321
ates	-11.8322
▁straw	-11.8325
RESPONSE	-11.8327
▁Tokyo	-11.8327
▁exclusive	-11.8328
lay	-11.8331
▁Ash	-11.8331
ix	-11.8333
▁Eric	-11.8333
east	-11.8334
▁depths	-11.8335
▁Allow	-11.8336
▁terrible	-11.8336
▁lit	-11.8336
▁Sheet	-11.8336
▁Bear	-11.8336
96	-11.8338
ware	-11.8341
▁rituals	-11.8342
▁Everything	-11.8342
▁dehydration	-11.8346
▁Thanksgiving	-11.8346
▁Specifically	-11.8346
▁snack	-11.8347
▁Pluto	-11.8347
▁Flowers	-11.8348
▁dysfunction	-11.835
▁Comment	-11.835
▁DO	-11.8352
thirds	-11.8352
▁Alberta	-11.8353
solving	-11.8354
▁proximity	-11.8364
▁Easy	-11.8367
path	-11.8367
▁Gender	-11.8369
95	-11.837
▁novels	-11.8372
▁20,000	-11.8375
▁Gray	-11.8376
▁inhabited	-11.8377
▁Kindergarten	-11.8379
-14	-11.8382
▁stunning	-11.8383
▁Nelson	-11.8383
ken	-11.8386
▁backgrounds	-11.8389
▁5%	-11.8389
▁1500	-11.8389
▁conception	-11.839
▁estrogen	-11.839
learning	-11.8391
tar	-11.8391
▁exhaust	-11.8394
▁thrust	-11.8394
▁Artificial	-11.8395
▁mites	-11.8395
round	-11.8398
▁70%	-11.8402
▁nursery	-11.8403
▁Moore	-11.8403
▁OK	-11.8405
▁monkeys	-11.8409
▁Made	-11.8409
open	-11.8409
(1)	-11.8413
▁Proceedings	-11.8413
▁certified	-11.8413
SS	-11.8419
MC	-11.842
▁Say	-11.842
▁compatible	-11.8421
▁uncertain	-11.8421
▁shrimp	-11.8421
▁palace	-11.8422
▁picking	-11.8423
▁Affairs	-11.8426
▁buds	-11.8429
▁utilizing	-11.8431
▁biologists	-11.8433
▁Delta	-11.8437
▁Virgin	-11.8437
▁corners	-11.844
▁hoped	-11.844
▁profiles	-11.8441
▁politicians	-11.8443
▁hoping	-11.8444
Ex	-11.8446
▁gradual	-11.8447
▁depressed	-11.8451
▁Universal	-11.8451
▁blend	-11.8452
▁1974	-11.8456
▁1943	-11.8457
▁Issues	-11.8457
May	-11.8457
▁Found	-11.8462
▁del	-11.8462
▁domains	-11.8464
▁rat	-11.8464
▁advocates	-11.8465
ren	-11.8466
▁Independent	-11.847
▁seedlings	-11.847
▁Knowing	-11.8471
▁shoot	-11.8472
▁Bull	-11.8473
▁Hope	-11.8475
▁plots	-11.8476
▁termed	-11.8476
ensis	-11.8478
▁potent	-11.848
▁seventh	-11.848
▁lasts	-11.8481
▁adjective	-11.8484
har	-11.8486
3.	-11.8486
▁ethanol	-11.8487
▁preference	-11.849
▁Medieval	-11.849
▁Molecular	-11.849
MB	-11.8493
▁forcing	-11.8495
▁adventure	-11.8496
▁31,	-11.8496
▁preferences	-11.8496
▁Ever	-11.8498
▁infect	-11.8498
▁southeastern	-11.8498
▁1.1	-11.8498
▁sail	-11.85
▁strokes	-11.85
▁countless	-11.8501
▁adaptive	-11.8503
▁inland	-11.8503
▁comprise	-11.8504
▁fired	-11.8504
▁alien	-11.8505
▁gel	-11.8507
▁ray	-11.8507
▁Fast	-11.8508
▁le	-11.8513
▁enhancing	-11.8513
36	-11.8515
▁tire	-11.8515
▁Motor	-11.8516
grass	-11.8516
▁trait	-11.8516
▁11.	-11.8517
▁spite	-11.8518
▁Europeans	-11.8519
▁seals	-11.8523
▁Solutions	-11.8523
makers	-11.8529
IR	-11.8529
▁AT	-11.8534
▁memorial	-11.8536
▁dams	-11.8538
lic	-11.8538
▁calorie	-11.8538
▁volcanoes	-11.8539
▁followers	-11.854
west	-11.8541
▁Explorer	-11.8541
▁pixel	-11.8542
▁candy	-11.8542
▁wavelengths	-11.8543
▁heaven	-11.8544
▁Seed	-11.8549
▁1989	-11.8549
▁Wars	-11.855
▁assault	-11.8552
▁pixels	-11.8554
cent	-11.8555
▁ch	-11.8555
▁esophagus	-11.8555
▁Anna	-11.8555
▁acne	-11.8556
▁Humans	-11.8558
▁Stay	-11.8563
▁maintains	-11.8563
▁monitors	-11.8564
▁Commonwealth	-11.8567
▁packages	-11.8568
▁Beyond	-11.8569
▁reflecting	-11.857
▁recreation	-11.8571
▁centres	-11.8572
▁heavier	-11.8575
▁scarce	-11.8575
▁witnessed	-11.8581
CA	-11.8582
▁RE	-11.8584
▁contrary	-11.8584
▁enlarged	-11.8587
▁2005,	-11.8588
▁Experiment	-11.8588
▁generators	-11.859
▁hate	-11.8591
▁urgent	-11.8591
▁Days	-11.8591
▁ambitious	-11.8594
▁prosperity	-11.8594
▁speaks	-11.8596
ala	-11.8601
▁temporarily	-11.8604
▁2.0	-11.8604
▁Steve	-11.8612
pin	-11.8612
▁publicly	-11.8612
▁Brief	-11.8613
▁remainder	-11.8615
▁aesthetic	-11.8615
▁congenital	-11.8616
▁formulas	-11.8618
▁tightly	-11.8618
▁tidal	-11.862
▁Plains	-11.862
fall	-11.862
▁pharmaceutical	-11.8621
▁Attribution	-11.8623
▁comparative	-11.8624
▁upright	-11.8625
▁leak	-11.8629
▁encompasses	-11.8633
ified	-11.8635
▁Miss	-11.8635
▁disturbance	-11.8635
energy	-11.8636
▁fluoride	-11.8637
▁recommendation	-11.8637
▁Classical	-11.8642
▁fragile	-11.8642
▁eclipse	-11.8642
▁Queensland	-11.8643
▁ties	-11.8643
eh	-11.8645
▁automobile	-11.8645
tri	-11.8647
▁setup	-11.8649
▁stocks	-11.8649
▁resin	-11.8651
▁Ball	-11.8655
▁barely	-11.8656
▁Connect	-11.8656
▁wherever	-11.8658
European	-11.8658
▁Lyme	-11.8664
▁Archive	-11.867
▁competing	-11.8672
▁jewelry	-11.8672
▁mulch	-11.8672
▁Soon	-11.8679
▁membership	-11.8683
br	-11.8685
▁fibre	-11.8688
▁bin	-11.8692
yo	-11.8693
▁legally	-11.8694
▁characterize	-11.8694
om	-11.8695
▁adolescent	-11.8697
▁sticky	-11.8698
ida	-11.8702
link	-11.8702
▁2000,	-11.8703
▁incomplete	-11.8703
▁microwave	-11.8704
▁Pin	-11.8705
▁ceramic	-11.8707
rt	-11.8708
▁Sp	-11.8713
▁imbalance	-11.8717
ole	-11.8722
▁Exposure	-11.8723
▁prairie	-11.8724
▁jurisdiction	-11.8724
▁tendon	-11.8725
GA	-11.8727
▁orbiting	-11.8727
▁lengths	-11.8727
ros	-11.8728
▁threads	-11.8728
▁maths	-11.873
CH	-11.8735
▁hatch	-11.8735
ora	-11.8739
▁baseline	-11.8739
▁Sar	-11.874
NA	-11.8744
▁Yale	-11.8745
building	-11.8747
▁Ottoman	-11.875
▁tablet	-11.8751
ches	-11.8751
Be	-11.8753
▁voyage	-11.8754
▁newborn	-11.8754
▁1992	-11.8755
▁renowned	-11.8758
▁advocate	-11.876
▁failing	-11.876
▁Sim	-11.8762
53	-11.8765
▁evergreen	-11.8765
▁prompted	-11.8766
▁Ms	-11.8766
▁BCE	-11.877
▁coloured	-11.877
▁Curiosity	-11.8771
▁Coastal	-11.8774
sub	-11.8776
▁(“	-11.8779
▁dispute	-11.8779
▁similarly	-11.878
▁Effective	-11.878
▁Portugal	-11.8781
Al	-11.8783
▁Mt	-11.8785
▁2006,	-11.8786
▁0.1	-11.8789
▁resonance	-11.8789
▁Radiation	-11.8789
▁sponsored	-11.879
▁flip	-11.879
▁sized	-11.8797
▁relevance	-11.8799
▁compelling	-11.8799
▁permits	-11.8801
▁grinding	-11.8803
▁Anyone	-11.8804
▁simpler	-11.8806
▁converts	-11.8809
▁Israeli	-11.8811
▁Senior	-11.8812
▁su	-11.8813
▁Nigeria	-11.8813
growing	-11.8814
sp	-11.8818
▁ranks	-11.8822
▁folks	-11.8825
▁incorporating	-11.8829
▁monastery	-11.8829
file	-11.8829
LY	-11.8831
▁Webster	-11.8833
▁rendering	-11.8835
▁expectancy	-11.8839
▁withdrawal	-11.884
▁counted	-11.884
▁Discussion	-11.8841
▁Rules	-11.8841
▁specification	-11.8845
ever	-11.8845
▁unity	-11.8848
▁Male	-11.8848
▁Module	-11.8849
70	-11.8851
▁3.0	-11.8852
▁Pat	-11.8854
▁Wa	-11.8855
▁schemes	-11.8858
▁continents	-11.8859
▁internationally	-11.8861
▁deaf	-11.8862
▁serial	-11.8863
▁honour	-11.8864
▁fence	-11.8864
▁Sha	-11.8865
▁Phase	-11.8867
▁(8	-11.8869
▁Quick	-11.8872
ez	-11.8872
31	-11.8873
▁transaction	-11.8874
▁Cornell	-11.8879
ms	-11.888
gon	-11.888
▁hosted	-11.8883
▁recycle	-11.8885
▁clinic	-11.8886
▁Glass	-11.8886
▁mucus	-11.8889
▁Falls	-11.8889
▁wondering	-11.8891
filled	-11.8892
▁Welsh	-11.8894
▁asleep	-11.8894
▁ALL	-11.8894
▁USB	-11.8896
▁fifteen	-11.8896
language	-11.8896
TH	-11.8897
▁investors	-11.8898
▁solids	-11.8899
▁Tax	-11.89
▁Buy	-11.8901
▁shortage	-11.8901
▁manuscript	-11.8904
▁praise	-11.8905
▁vectors	-11.8907
▁Era	-11.8909
▁deemed	-11.8909
ich	-11.891
▁Eagle	-11.8911
▁Alan	-11.8913
▁biopsy	-11.8913
▁pad	-11.8913
▁belly	-11.8914
▁wellbeing	-11.8916
sch	-11.8916
▁nutritious	-11.8918
▁ISO	-11.8919
52	-11.8919
▁occasional	-11.892
▁representations	-11.8921
▁Electrical	-11.8923
▁66	-11.8925
▁screens	-11.8926
week	-11.8926
▁Festival	-11.8928
▁Americas	-11.893
▁None	-11.893
▁gamma	-11.8932
amine	-11.8933
▁quest	-11.8933
▁semiconductor	-11.8934
▁genre	-11.8935
▁grab	-11.8937
▁liberty	-11.8938
▁naked	-11.8938
▁straightforward	-11.8939
▁curves	-11.8942
HS	-11.8943
▁Th	-11.8944
▁subtraction	-11.8949
▁cigarette	-11.895
▁farther	-11.895
▁1988	-11.895
▁banking	-11.8951
▁Apply	-11.8954
▁commerce	-11.8954
▁Wide	-11.8954
▁6:	-11.8956
▁priorities	-11.8959
▁Endangered	-11.896
▁march	-11.8961
ami	-11.8962
var	-11.8963
▁Info	-11.8964
▁rectangle	-11.8964
▁burst	-11.8967
▁2015,	-11.8968
▁ticks	-11.8969
▁deficit	-11.897
▁stays	-11.8971
▁gallery	-11.8972
CT	-11.8973
▁odds	-11.8974
▁fertilizers	-11.8975
▁housed	-11.8976
▁60%	-11.8977
▁united	-11.8982
▁releasing	-11.8982
▁daylight	-11.8983
▁fauna	-11.8983
Pro	-11.8986
▁harmless	-11.8986
black	-11.8988
▁Race	-11.8988
▁exercising	-11.8989
▁comprising	-11.8989
sia	-11.8989
▁orbits	-11.8991
▁menstrual	-11.8991
▁Tea	-11.8991
lock	-11.8994
▁aviation	-11.8999
▁monetary	-11.9001
▁Projects	-11.9001
▁contest	-11.9002
lands	-11.9002
▁YOU	-11.9003
▁weights	-11.9004
▁exploitation	-11.9004
▁imposed	-11.9006
▁infinite	-11.9008
▁approaching	-11.9009
▁Caesar	-11.901
▁surprisingly	-11.9014
▁ratios	-11.9017
▁bacterium	-11.9017
oo	-11.9019
▁2008.	-11.9019
▁Village	-11.9019
▁2009.	-11.902
NO	-11.9023
▁bubble	-11.9023
▁wolves	-11.9023
▁chambers	-11.9024
▁Ham	-11.9024
▁pioneer	-11.9024
▁lifting	-11.9025
▁inventor	-11.9027
▁margins	-11.9028
▁dirty	-11.9028
▁precautions	-11.9029
▁demonstrating	-11.9029
▁cleaned	-11.903
▁duck	-11.9031
▁marble	-11.9032
CE	-11.9033
▁Meeting	-11.9034
▁2015.	-11.904
▁Ly	-11.904
▁intersection	-11.904
▁hypo	-11.9042
▁weakened	-11.9042
▁advent	-11.9043
▁Lanka	-11.9045
▁autoimmune	-11.9049
▁attachment	-11.905
▁voters	-11.905
▁Luke	-11.9052
PM	-11.9055
▁Intel	-11.9056
▁Brian	-11.9059
▁stimuli	-11.9059
▁flew	-11.9059
▁Subscribe	-11.9062
▁seismic	-11.9064
▁peaks	-11.9067
▁assign	-11.9068
▁strengthening	-11.9068
SI	-11.9073
▁propose	-11.9073
▁nails	-11.9075
▁equals	-11.9079
▁Bu	-11.9082
▁na	-11.9084
▁57	-11.9084
Me	-11.9084
▁elbow	-11.9087
▁rigorous	-11.9087
colored	-11.9088
▁shots	-11.9089
▁investigators	-11.9089
▁dive	-11.9099
▁induce	-11.9099
▁Maths	-11.91
▁Neither	-11.91
▁Neuro	-11.9101
▁Ltd	-11.9102
▁disadvantages	-11.9103
▁profits	-11.9103
▁epic	-11.9103
▁Jet	-11.9106
▁disrupt	-11.9106
▁grapes	-11.9107
▁handy	-11.9108
AS	-11.911
▁Half	-11.9112
▁biblical	-11.9113
▁charter	-11.9116
▁organizational	-11.9116
▁immense	-11.9117
3)	-11.9118
▁Friends	-11.912
▁publisher	-11.912
▁grocery	-11.9121
▁vowel	-11.9121
▁hosting	-11.9121
▁Vocabulary	-11.9123
cost	-11.9126
▁bind	-11.9129
99	-11.9129
▁Strategies	-11.9131
▁Audio	-11.9133
▁Pressure	-11.9133
▁Dead	-11.9135
▁treasure	-11.9135
▁donated	-11.9137
▁ethnicity	-11.9138
▁PE	-11.9138
fe	-11.914
▁archaeologists	-11.9141
▁Goals	-11.9142
▁hunters	-11.9144
▁protest	-11.9146
▁Apr	-11.9147
▁mitigate	-11.9147
▁teachings	-11.9147
▁wounded	-11.9151
▁offshore	-11.9152
▁backyard	-11.9153
▁anterior	-11.9153
▁governance	-11.9153
▁Popular	-11.9154
▁appropriately	-11.9154
▁basket	-11.9155
▁Auto	-11.9157
▁String	-11.9157
▁depicts	-11.9158
▁resembles	-11.916
▁mainland	-11.916
▁demographic	-11.9161
▁Letters	-11.9163
▁Atmospheric	-11.9163
gas	-11.9163
▁goddess	-11.9172
▁newer	-11.9173
▁astronomer	-11.918
▁producer	-11.9181
▁Kim	-11.9185
group	-11.9189
▁qualitative	-11.9189
dale	-11.919
From	-11.9191
▁Surface	-11.9195
▁deposition	-11.9196
▁biologist	-11.9198
▁arithmetic	-11.9202
▁epilepsy	-11.9202
▁Cathedral	-11.9202
▁chlorine	-11.9202
▁BMI	-11.9202
▁Leaves	-11.9203
▁Factors	-11.9203
▁nouns	-11.9205
▁Tool	-11.9206
▁enclosed	-11.9207
▁aggression	-11.9207
burg	-11.921
▁Ver	-11.9213
nic	-11.9213
▁duct	-11.9213
Ma	-11.9215
stage	-11.9216
▁distribute	-11.9217
lets	-11.9218
▁sediments	-11.9221
▁breakthrough	-11.9221
ERS	-11.9222
▁uncomfortable	-11.9223
▁cleaner	-11.9223
▁kick	-11.9224
▁lifelong	-11.9226
AT	-11.9226
▁wondered	-11.9226
▁Card	-11.9227
▁broadly	-11.9229
IL	-11.9235
▁benign	-11.9236
▁Email	-11.9237
▁Double	-11.9238
▁architects	-11.9239
▁controller	-11.9241
▁rust	-11.9241
▁flux	-11.9242
▁persist	-11.9242
▁Mike	-11.9243
▁Cap	-11.9244
▁Grammar	-11.9246
control	-11.9246
af	-11.9246
when	-11.9248
▁rated	-11.925
order	-11.925
▁wrist	-11.9253
▁publish	-11.9253
▁blacks	-11.9253
tail	-11.9254
▁Avenue	-11.9254
▁eighth	-11.9255
▁Southwest	-11.9255
▁treats	-11.9257
▁veterans	-11.9261
▁soluble	-11.9262
▁rains	-11.9262
▁Adding	-11.9264
▁mitigation	-11.9264
▁inheritance	-11.9264
▁pleasant	-11.9266
RE	-11.9268
▁1916	-11.9273
yan	-11.9275
▁1912	-11.9277
▁Pediatrics	-11.9277
▁Tu	-11.9278
▁Classification	-11.9279
▁Gar	-11.9281
▁quotes	-11.9282
▁Agreement	-11.9285
under	-11.9289
▁requested	-11.9291
▁emphasizes	-11.9293
post	-11.9293
▁magnificent	-11.9295
▁Biodiversity	-11.9295
▁Assistant	-11.9295
▁removes	-11.9296
▁herpes	-11.9297
▁sunny	-11.9297
▁stretches	-11.9299
▁Bring	-11.9304
half	-11.9305
▁mandatory	-11.9306
▁Solomon	-11.9308
▁crashes	-11.9308
▁spinning	-11.931
▁digest	-11.9311
▁constellation	-11.9315
▁timely	-11.9315
▁Palace	-11.9316
▁mammal	-11.9316
▁responded	-11.9317
▁mat	-11.9321
▁climatic	-11.9321
TS	-11.9324
▁Morgan	-11.9327
watch	-11.933
▁corruption	-11.934
▁Pine	-11.9341
▁evolving	-11.9341
value	-11.9343
vin	-11.9345
▁veterinarian	-11.9347
▁visitor	-11.9347
▁practically	-11.9348
▁springs	-11.9348
St	-11.9351
39	-11.9352
▁blocking	-11.9352
▁recognise	-11.9353
▁router	-11.9353
▁Hearing	-11.9354
▁damages	-11.9354
years	-11.9356
▁Railway	-11.9357
▁emit	-11.9358
▁Apart	-11.9358
▁pruning	-11.9358
▁gram	-11.9359
▁cycling	-11.936
▁weighing	-11.9361
▁Ab	-11.9361
▁1915	-11.9362
▁sickness	-11.9363
▁institutional	-11.9363
▁selective	-11.9363
nia	-11.9363
using	-11.9364
▁Muhammad	-11.9368
▁imperative	-11.9368
▁Finland	-11.9368
▁subspecies	-11.9368
▁airborne	-11.9371
▁Normally	-11.9372
▁Associated	-11.9372
▁3.5	-11.9376
▁Communications	-11.9376
▁petals	-11.9377
▁discourse	-11.9379
▁Female	-11.9381
▁1840	-11.9382
▁downward	-11.9382
▁contracts	-11.9383
▁exceptions	-11.9385
▁deciding	-11.9389
▁radicals	-11.939
▁contraction	-11.939
▁Complex	-11.9391
▁pipeline	-11.9392
▁disturbed	-11.9393
▁ridge	-11.9393
▁musicians	-11.9395
▁growers	-11.9397
▁Role	-11.9398
▁Khan	-11.9399
fa	-11.9401
▁Ram	-11.9401
▁satisfy	-11.9402
▁fluorescent	-11.9402
▁Bur	-11.9403
▁2013,	-11.9405
▁02	-11.9406
▁vaginal	-11.9406
54	-11.9409
▁corporations	-11.941
flow	-11.9412
▁Website	-11.9415
ets	-11.9418
ika	-11.9418
▁installing	-11.942
▁cardboard	-11.9421
▁favourite	-11.9422
▁carriers	-11.9426
▁intestines	-11.9426
▁arrangements	-11.9427
▁pupil	-11.9428
▁proportions	-11.9429
▁casting	-11.9429
▁destroying	-11.9429
via	-11.943
▁clarity	-11.9431
▁hitting	-11.9435
▁drift	-11.9436
▁fulfill	-11.944
ama	-11.944
RI	-11.9441
▁rim	-11.9443
▁debates	-11.9443
▁5)	-11.9444
▁Legal	-11.9444
▁Material	-11.9449
▁researching	-11.9449
ese	-11.9449
▁Authors	-11.945
▁Hyper	-11.9451
▁fled	-11.9452
▁leukemia	-11.9452
▁pottery	-11.9453
▁accelerated	-11.9454
▁territorial	-11.9455
▁Plastic	-11.9456
▁Cu	-11.9458
▁noble	-11.946
▁1986	-11.9461
▁secular	-11.9463
▁Associate	-11.9463
▁Ebola	-11.9463
▁1938	-11.9467
▁Path	-11.9468
▁SI	-11.947
▁enrolled	-11.9475
▁valleys	-11.9477
▁feast	-11.9477
▁scholar	-11.9481
▁beams	-11.9481
▁Greater	-11.9483
▁deforestation	-11.9484
data	-11.9486
▁vi	-11.9488
▁5-	-11.9488
(2)	-11.949
▁2004,	-11.9493
▁stretched	-11.9494
▁unstable	-11.9495
▁multimedia	-11.9495
▁Mayo	-11.9495
▁satisfaction	-11.9496
▁tar	-11.9496
▁Hepatitis	-11.9497
▁Above	-11.9498
▁walks	-11.9498
RS	-11.9499
▁routinely	-11.95
▁sealed	-11.95
▁sufficiently	-11.9506
Go	-11.9508
▁organizing	-11.951
▁arises	-11.951
▁posters	-11.9515
▁dolphins	-11.9515
▁monoxide	-11.9516
▁governing	-11.9517
▁hiding	-11.9518
▁auditory	-11.9518
▁concludes	-11.9518
▁posterior	-11.9519
▁Med	-11.9519
▁traps	-11.9521
▁restaurants	-11.9523
▁processors	-11.9524
▁bibliography	-11.9526
▁ammonia	-11.9526
▁spores	-11.953
▁Ban	-11.9533
▁proceed	-11.9536
▁canvas	-11.9537
▁Britannica	-11.9537
▁dancing	-11.9537
ory	-11.9538
▁lifespan	-11.9539
EP	-11.954
▁whites	-11.9541
▁collectively	-11.9542
▁swallowing	-11.9542
▁imp	-11.9545
▁Encourage	-11.9547
▁Vermont	-11.9548
▁baking	-11.9548
▁Gi	-11.9548
▁350	-11.9548
General	-11.9548
▁reconstruction	-11.9549
▁#1	-11.9553
▁engineered	-11.9557
▁(7	-11.9558
▁measles	-11.9558
▁garlic	-11.9558
▁arrays	-11.9559
▁Reef	-11.9559
RO	-11.9562
its	-11.9566
▁landfill	-11.9567
▁purely	-11.9567
▁thank	-11.9568
▁slip	-11.9568
▁accounted	-11.9571
▁Cognitive	-11.9571
▁basal	-11.9572
lia	-11.9572
▁civilian	-11.9573
▁overlooked	-11.9573
▁agenda	-11.9581
800	-11.9587
▁st	-11.9591
▁markings	-11.9591
▁Kit	-11.9592
▁Joe	-11.9593
▁brightness	-11.9594
▁reflective	-11.9598
▁definitive	-11.9598
▁Single	-11.9599
▁Egyptians	-11.9599
▁elimination	-11.9601
▁displaced	-11.9602
▁helmet	-11.9603
IV	-11.9606
▁rulers	-11.9606
▁socket	-11.9607
▁Details	-11.9608
▁intra	-11.9608
▁API	-11.9611
▁53	-11.9612
▁//	-11.962
▁leap	-11.962
▁perceptions	-11.962
SE	-11.9621
▁supervision	-11.9622
▁deployment	-11.9623
second	-11.9623
▁proportional	-11.9623
▁downloaded	-11.9626
▁educator	-11.9628
▁Genetics	-11.9628
▁surge	-11.963
▁Effect	-11.9631
More	-11.9633
▁Fill	-11.9637
▁ta	-11.9642
▁arsenic	-11.9644
hood	-11.9645
▁desk	-11.9646
▁Plans	-11.9647
IM	-11.9648
▁commander	-11.9653
▁tornado	-11.9653
▁CC	-11.9654
▁celebrating	-11.9655
▁switches	-11.9656
four	-11.9656
▁beads	-11.9658
▁singular	-11.9659
▁Grades	-11.966
▁1%	-11.9662
▁attain	-11.9666
▁animated	-11.9666
▁1945	-11.9667
▁astronomical	-11.9667
▁convinced	-11.9668
ther	-11.9669
▁explicit	-11.9673
▁SS	-11.9675
▁shifting	-11.9678
▁vaccinated	-11.9679
▁harbor	-11.9679
▁flights	-11.9679
face	-11.968
▁struggles	-11.9681
▁physicist	-11.9684
▁wrap	-11.9684
▁agreements	-11.9686
▁glow	-11.969
▁Round	-11.969
▁visualize	-11.9691
▁woodland	-11.9694
▁celebrations	-11.9694
▁corresponds	-11.9695
▁Length	-11.9696
mit	-11.9697
▁Tip	-11.9697
79	-11.9697
▁Strategy	-11.9698
▁Dar	-11.9699
▁aerobic	-11.97
▁legislature	-11.97
▁Earl	-11.9701
ade	-11.9702
lived	-11.9702
tel	-11.9708
▁antibody	-11.9713
▁embryos	-11.9714
▁reminder	-11.9714
▁regulating	-11.9714
▁Jay	-11.9715
▁Express	-11.9718
▁altogether	-11.9719
▁Baptist	-11.9723
▁Rocky	-11.9726
▁ka	-11.9726
▁Reduce	-11.9726
▁civic	-11.973
▁Quiz	-11.9731
▁Belgium	-11.9732
▁dorsal	-11.9733
▁photographic	-11.9734
▁Flow	-11.9735
▁archives	-11.9736
▁norms	-11.9737
wan	-11.9739
▁moons	-11.974
▁expose	-11.974
books	-11.974
uff	-11.9741
bra	-11.9741
▁northeastern	-11.9741
▁killer	-11.9742
▁Events	-11.9742
▁compensation	-11.9742
▁Birth	-11.9745
▁Elements	-11.9745
▁58	-11.9746
▁Panel	-11.9749
▁mysteries	-11.9752
▁reflux	-11.9752
▁carbohydrate	-11.9753
ban	-11.9753
▁grouped	-11.9754
oh	-11.9757
▁Acid	-11.9762
▁simulate	-11.9762
▁Pick	-11.9762
sensitive	-11.9765
real	-11.9768
▁coordinated	-11.9769
▁succession	-11.977
▁jumping	-11.9771
aging	-11.9771
▁Judaism	-11.9774
▁shaping	-11.9774
▁WHAT	-11.9774
▁Matt	-11.9774
▁1.3	-11.9775
eo	-11.9776
▁travelling	-11.9776
▁approximate	-11.9777
▁hub	-11.9777
▁counseling	-11.9778
fire	-11.9778
▁Leaf	-11.9778
▁99	-11.9782
tive	-11.9784
▁Exploration	-11.9784
▁grace	-11.9786
▁hasn	-11.9786
▁philosopher	-11.9789
▁Alternative	-11.979
▁Malaysia	-11.9792
▁phosphate	-11.9792
▁pdf	-11.9794
oni	-11.9794
▁winner	-11.9796
▁herd	-11.9796
▁rodents	-11.9799
▁canopy	-11.9801
▁respected	-11.9802
lines	-11.9802
▁weighs	-11.9806
▁Puerto	-11.9806
▁blockchain	-11.9806
▁var	-11.9811
▁bull	-11.9812
▁outward	-11.9812
med	-11.9814
▁volatile	-11.9815
▁Er	-11.9815
▁Ideas	-11.9815
▁est	-11.9816
▁Designed	-11.9816
▁firmly	-11.9817
▁Diagnosis	-11.9817
▁Isaac	-11.9817
UN	-11.9819
▁Colonial	-11.982
▁caregivers	-11.9821
▁pathogen	-11.9822
▁crafts	-11.9824
ep	-11.9829
was	-11.983
▁noticeable	-11.9832
▁4,000	-11.9833
▁theatre	-11.9835
word	-11.984
▁IC	-11.984
▁Cal	-11.9842
TE	-11.9844
▁authorized	-11.9845
▁shoe	-11.9849
ado	-11.985
▁convenience	-11.985
▁Delhi	-11.985
IN	-11.9851
▁segregation	-11.9852
▁Few	-11.9855
▁parental	-11.9856
AM	-11.9858
▁anyway	-11.9859
▁textile	-11.9859
▁tires	-11.986
▁Operations	-11.9861
▁herbal	-11.9861
▁Sudan	-11.9862
▁62	-11.9862
51	-11.9862
▁accordingly	-11.9863
▁Obesity	-11.9863
▁downstream	-11.9863
▁somehow	-11.9863
▁letting	-11.9864
▁personally	-11.9865
▁amateur	-11.9865
▁bore	-11.9866
▁salts	-11.987
▁promised	-11.987
SP	-11.987
▁Han	-11.987
▁studio	-11.9871
▁Branch	-11.9874
▁instrumental	-11.9875
▁humid	-11.9876
▁Families	-11.9883
▁compromise	-11.9883
▁projection	-11.9885
GS	-11.9886
▁couples	-11.9887
▁gradient	-11.9888
TO	-11.9891
▁Pay	-11.9892
▁30,000	-11.9893
▁schizophrenia	-11.9894
▁societal	-11.9894
▁calculating	-11.9894
▁Police	-11.9894
▁quoted	-11.9894
▁Root	-11.9896
DR	-11.9897
▁acoustic	-11.9897
bio	-11.9898
▁Cities	-11.9899
▁Congo	-11.99
▁Revolutionary	-11.9906
▁posed	-11.9908
▁voted	-11.9908
▁Positive	-11.9909
▁360	-11.9909
▁soybean	-11.991
▁Alice	-11.9911
▁07	-11.9911
▁advancement	-11.9911
▁sa	-11.9912
▁parish	-11.9915
ky	-11.9915
▁ro	-11.9916
▁preview	-11.9917
▁heroes	-11.9919
▁Czech	-11.9919
▁Genesis	-11.992
▁Coal	-11.9922
▁scar	-11.9922
play	-11.9923
▁stamp	-11.9928
▁Rice	-11.9929
▁advise	-11.9933
▁births	-11.9934
▁Essential	-11.9934
▁spirits	-11.9934
▁encyclopedia	-11.9935
ious	-11.9938
▁tragic	-11.9938
▁Progress	-11.9938
▁digging	-11.9938
eth	-11.9942
▁pepper	-11.9943
▁imperial	-11.9944
▁hook	-11.9947
▁Pearl	-11.9951
▁Him	-11.9953
▁Cards	-11.9958
▁vibration	-11.9961
▁arose	-11.9961
▁authentication	-11.9961
▁po	-11.9961
▁accessibility	-11.9962
▁Virus	-11.9964
▁concise	-11.9969
▁barrel	-11.997
▁supportive	-11.9971
▁forum	-11.9974
“	-11.9975
onia	-11.9976
▁pursuit	-11.9977
val	-11.9978
▁Cells	-11.9981
▁coronavirus	-11.9981
tailed	-11.9982
▁steadily	-11.9983
▁mentally	-11.9984
▁Astronomy	-11.9984
▁Violence	-11.9985
Number	-11.9986
▁propagation	-11.9986
▁bean	-11.9989
▁Stop	-11.999
▁Minor	-11.9991
▁quit	-11.9991
▁2003,	-11.9991
▁recordings	-11.9993
▁im	-11.9995
▁guest	-11.9999
▁mimic	-11.9999
▁Monitor	-12
▁oxidation	-12
hole	-12.0003
mp	-12.0004
▁parking	-12.0005
▁Technologies	-12.0005
▁excitement	-12.0005
▁Occupational	-12.0006
▁exploit	-12.0009
▁semester	-12.0009
▁renal	-12.001
RA	-12.001
ila	-12.0013
▁2014,	-12.0016
▁afterwards	-12.0017
▁accumulate	-12.0018
▁clot	-12.0019
▁scientifically	-12.0021
wise	-12.0022
▁Protestant	-12.0023
str	-12.0023
och	-12.0024
▁disturbances	-12.0024
▁AB	-12.0024
▁Function	-12.0024
▁damp	-12.0027
▁coconut	-12.0027
▁consistency	-12.0027
▁complementary	-12.0028
▁PV	-12.0028
▁retired	-12.0029
▁dragon	-12.003
▁secured	-12.0033
▁neighborhoods	-12.0033
▁hurricanes	-12.0034
▁ne	-12.0034
▁reactors	-12.0035
▁projections	-12.0036
ture	-12.0036
▁explosive	-12.0037
▁hardy	-12.0038
▁frontier	-12.0038
▁bent	-12.0039
▁fo	-12.0041
▁Features	-12.0041
▁1946	-12.0045
▁credited	-12.0045
▁genera	-12.0047
▁Mad	-12.0049
▁triangles	-12.005
▁touched	-12.005
▁pr	-12.0051
▁discovering	-12.0053
▁stigma	-12.0054
▁cry	-12.0055
ug	-12.0056
▁mar	-12.0056
▁resolved	-12.0056
▁Atlanta	-12.0057
▁explorers	-12.0058
41	-12.0058
)?	-12.0059
ME	-12.0061
▁remedy	-12.0061
▁discrete	-12.0061
▁Barbara	-12.0061
▁dull	-12.0061
▁Palestine	-12.0063
cultural	-12.0064
positive	-12.0064
▁q	-12.0066
▁Hawaiian	-12.0066
▁failures	-12.0066
lu	-12.0068
▁friendship	-12.0068
▁positioned	-12.0069
Name	-12.007
▁Nicholas	-12.0072
▁Asthma	-12.0073
▁Institutes	-12.0073
▁freeze	-12.0073
▁escaped	-12.0075
▁plague	-12.0075
▁bricks	-12.0075
▁contacts	-12.0076
ub	-12.0076
44	-12.0077
speaking	-12.0077
▁Lack	-12.0078
OL	-12.0079
win	-12.0079
▁centimeters	-12.0081
▁electrodes	-12.0081
▁Ali	-12.0082
▁empathy	-12.0083
85	-12.0083
▁tune	-12.0085
▁gloves	-12.0086
▁rotate	-12.0086
▁exhibited	-12.0089
▁modelling	-12.009
▁waterways	-12.0094
▁utilities	-12.0094
▁consecutive	-12.0096
ular	-12.0097
▁Interest	-12.0099
▁cereal	-12.0101
▁alleviate	-12.0102
▁50,000	-12.0102
dar	-12.0104
▁rabbits	-12.0104
▁empirical	-12.0104
▁recognizing	-12.0106
▁denied	-12.0106
▁15%	-12.0108
▁Initially	-12.0108
▁bandwidth	-12.0109
▁Papers	-12.0109
▁Increased	-12.0109
▁iconic	-12.011
▁der	-12.0112
▁Hampshire	-12.0117
▁constipation	-12.0117
▁utilization	-12.0117
lis	-12.0117
matic	-12.0117
▁Located	-12.0118
ick	-12.012
▁mesh	-12.0121
▁Money	-12.0121
▁magazines	-12.0122
▁searches	-12.0126
▁coastline	-12.0127
▁knees	-12.0128
▁floors	-12.0129
▁besides	-12.0129
▁problematic	-12.013
▁Twenty	-12.0131
▁2-3	-12.0138
Ref	-12.0142
▁undergoing	-12.0143
▁Austin	-12.0143
37	-12.0145
▁derive	-12.0146
WA	-12.0151
▁recession	-12.0152
▁1830	-12.0152
▁governed	-12.0157
Photo	-12.0158
▁donor	-12.0158
▁Forces	-12.0159
▁Win	-12.016
self	-12.016
▁Florence	-12.0162
▁Robinson	-12.0162
▁Martian	-12.0163
▁Wyoming	-12.0164
▁migratory	-12.0165
▁fitting	-12.0168
▁Cover	-12.0169
▁relay	-12.017
▁1700	-12.0173
▁1.0	-12.0173
▁headquarters	-12.0174
▁63	-12.0175
▁lightweight	-12.0175
cap	-12.0176
▁Chart	-12.0178
▁08	-12.0179
57	-12.018
▁silence	-12.0181
600	-12.0181
place	-12.0181
▁inevitable	-12.0185
weed	-12.0185
there	-12.0185
▁boot	-12.0185
dic	-12.0186
▁Hills	-12.0188
”)	-12.019
▁pressed	-12.0192
▁latitude	-12.0193
RP	-12.0195
▁citrus	-12.0196
▁Titan	-12.0199
▁stressful	-12.0199
▁signaling	-12.0201
▁1949	-12.0203
....	-12.0203
▁activation	-12.0206
▁Orthodox	-12.0207
▁miniature	-12.0207
▁quarters	-12.0213
▁Nor	-12.0215
ash	-12.0218
▁Anxiety	-12.0219
mal	-12.022
ona	-12.022
▁Integrated	-12.0222
▁Fat	-12.0223
▁masks	-12.0223
View	-12.0223
▁Che	-12.0224
▁Workers	-12.0225
DC	-12.0226
EC	-12.0227
47	-12.0229
away	-12.023
▁outlet	-12.023
▁Catherine	-12.023
▁bipolar	-12.023
▁Allied	-12.0231
▁legitimate	-12.0232
▁68	-12.0233
▁Hal	-12.0235
wi	-12.0236
▁definite	-12.0239
▁analyse	-12.024
▁yearly	-12.0242
▁newsletter	-12.0242
▁jar	-12.0244
▁Abuse	-12.0244
CI	-12.0246
▁anesthesia	-12.0246
58	-12.0248
▁stripes	-12.025
ax	-12.0251
▁fetus	-12.0252
▁sores	-12.0253
▁remedies	-12.0253
▁delicious	-12.0253
▁stainless	-12.0253
▁connectivity	-12.0253
▁aloud	-12.0253
▁dealt	-12.0256
▁offensive	-12.0257
ero	-12.0261
▁dome	-12.0261
▁flags	-12.0263
▁labs	-12.0263
▁emergencies	-12.0264
▁900	-12.0265
▁commentary	-12.0265
▁encoding	-12.0268
▁Johns	-12.0268
food	-12.0268
▁Creation	-12.0269
▁assisted	-12.027
▁shifted	-12.0272
▁smartphone	-12.0273
▁capturing	-12.0276
▁catastrophic	-12.0277
▁advocacy	-12.028
CD	-12.0281
▁shops	-12.0281
FA	-12.0284
▁leather	-12.0284
▁1985	-12.0285
▁shores	-12.0286
▁Ukraine	-12.0287
▁regards	-12.0288
▁Computing	-12.0289
▁coping	-12.029
▁eagle	-12.0293
▁glacier	-12.0296
▁1937	-12.0298
▁glimpse	-12.0299
▁quizzes	-12.0299
▁Polar	-12.0299
SU	-12.03
▁alloy	-12.03
▁perpendicular	-12.03
cus	-12.0301
▁Bat	-12.0302
▁neighbor	-12.0303
ven	-12.0303
▁tactics	-12.0304
▁whereby	-12.0305
Today	-12.0305
▁wa	-12.0308
▁consultation	-12.0308
▁paragraphs	-12.031
▁lo	-12.031
▁progresses	-12.0312
▁robotics	-12.0314
▁Ap	-12.0314
just	-12.0314
▁Manager	-12.0316
▁ligaments	-12.032
▁elastic	-12.032
▁anxious	-12.0322
▁therapist	-12.0323
▁Byzantine	-12.0323
▁breastfeeding	-12.0324
▁republic	-12.0325
▁portraits	-12.0325
▁Ya	-12.0326
▁Bel	-12.0327
▁melanoma	-12.0327
▁incorporates	-12.0327
▁Pole	-12.0328
▁targeting	-12.0329
▁forage	-12.0329
▁1987	-12.033
▁Monument	-12.0331
online	-12.0331
▁nanoparticles	-12.0332
▁strive	-12.0334
56	-12.0335
▁firing	-12.0338
▁pasture	-12.0338
▁rendered	-12.0338
▁anchor	-12.0343
▁PTSD	-12.0344
▁pins	-12.0346
ili	-12.0347
acre	-12.0352
▁goats	-12.0356
▁risen	-12.0356
▁versatile	-12.0356
▁regression	-12.0357
▁judges	-12.0358
▁hereditary	-12.0358
▁schooling	-12.0358
▁GNU	-12.036
▁accumulated	-12.036
▁caution	-12.0361
▁demanding	-12.0362
▁el	-12.0362
lib	-12.0363
▁Crown	-12.0367
▁Ra	-12.0367
▁Rapid	-12.0367
▁defensive	-12.0368
mb	-12.0368
▁shades	-12.0369
▁overlap	-12.0369
edge	-12.0372
pl	-12.0372
▁compares	-12.0373
▁Eve	-12.0374
AI	-12.0375
▁Worksheet	-12.0378
▁lowered	-12.0378
▁learnt	-12.0379
▁realm	-12.0379
▁Bitcoin	-12.0379
▁moss	-12.0381
▁hormonal	-12.0381
▁Protein	-12.0382
▁endless	-12.0388
▁parliament	-12.0389
▁stool	-12.0389
▁Halloween	-12.0393
press	-12.0394
▁Consumer	-12.0394
▁canals	-12.0398
▁vibrant	-12.0403
▁paralysis	-12.0403
▁Diversity	-12.0403
▁finite	-12.0403
▁creator	-12.0405
▁lucky	-12.0406
▁LA	-12.0406
▁filed	-12.0407
▁cage	-12.0407
National	-12.0408
▁critics	-12.0408
▁integers	-12.0409
▁Move	-12.041
▁Experience	-12.0412
▁staple	-12.0412
ENT	-12.0413
▁cigarettes	-12.0414
▁Anthony	-12.0414
▁hierarchy	-12.0414
▁Bruce	-12.0414
▁captain	-12.0414
▁southwestern	-12.0415
▁twist	-12.0416
▁Fine	-12.0418
lum	-12.042
▁lined	-12.042
map	-12.042
▁interacting	-12.042
▁loses	-12.0421
▁Browse	-12.0424
▁ovarian	-12.0426
▁theater	-12.0426
▁defence	-12.0428
▁Algebra	-12.043
▁wishes	-12.0433
▁oven	-12.0434
▁passwords	-12.0434
▁cache	-12.0435
▁Boy	-12.0435
▁automotive	-12.0437
▁naming	-12.0438
▁gardeners	-12.0438
▁Publications	-12.044
▁cerebral	-12.0441
▁transcription	-12.0443
▁rolled	-12.0443
▁accelerate	-12.0444
left	-12.0447
▁bunch	-12.0449
row	-12.0449
▁overseas	-12.0449
▁cake	-12.0449
▁Naval	-12.045
PA	-12.0451
mic	-12.0451
▁04	-12.0455
CR	-12.0459
▁surname	-12.046
▁pseudo	-12.0461
▁snacks	-12.0461
▁dignity	-12.0463
ct	-12.0464
▁Yu	-12.0464
Net	-12.0466
▁airway	-12.0468
ret	-12.0469
▁genital	-12.0472
▁browse	-12.0472
▁optimum	-12.0472
▁rebellion	-12.0472
▁charity	-12.0473
▁psychiatric	-12.0474
▁translations	-12.0477
▁Come	-12.0477
inus	-12.0484
▁retreat	-12.0485
▁59	-12.0486
▁reactive	-12.0486
▁2014.	-12.0487
▁backward	-12.0488
▁Block	-12.0489
▁threaten	-12.0489
▁Scale	-12.0491
Why	-12.0491
▁heights	-12.0492
▁Blog	-12.0495
▁catalog	-12.0495
▁everybody	-12.0499
▁Severe	-12.0502
▁warn	-12.0504
uc	-12.0505
▁modest	-12.0507
▁unpleasant	-12.0508
▁Retrieved	-12.0508
▁retail	-12.0508
▁graphical	-12.0509
▁wiring	-12.0512
ON	-12.0512
▁Voice	-12.0512
BC	-12.0513
▁credits	-12.0513
▁posting	-12.0514
ima	-12.0521
▁compiler	-12.0523
▁ailments	-12.0523
▁stimulating	-12.0525
▁expressing	-12.0528
▁Val	-12.0529
▁venture	-12.0529
97	-12.053
▁nationally	-12.053
▁lid	-12.053
▁gluten	-12.0531
▁worlds	-12.0532
▁Sh	-12.0533
▁explicitly	-12.0534
TC	-12.0535
▁1983	-12.0535
▁pulses	-12.0536
▁Drinking	-12.0536
▁BP	-12.0537
▁lamps	-12.054
▁administrator	-12.0542
▁Galileo	-12.0543
▁inflamed	-12.0543
▁predator	-12.0543
▁monks	-12.0543
▁immigrant	-12.0545
▁Walker	-12.0545
burn	-12.0547
RT	-12.055
▁manually	-12.0551
▁Average	-12.0552
▁belonged	-12.0554
▁pyramid	-12.0556
▁matched	-12.0557
▁correlated	-12.0557
▁Giant	-12.0558
98	-12.0558
health	-12.0559
▁pointer	-12.0564
▁declaration	-12.0566
▁accessing	-12.0566
▁civilizations	-12.0566
▁marijuana	-12.0566
▁veterinary	-12.0566
▁ESA	-12.0567
▁Taiwan	-12.0569
Part	-12.0569
▁packets	-12.0569
▁2007.	-12.0569
▁arrested	-12.0573
tle	-12.0573
anti	-12.0573
▁Job	-12.0578
1,000	-12.0579
▁chickens	-12.0579
▁strands	-12.058
▁Earlier	-12.058
▁dug	-12.0581
iya	-12.0582
▁200,000	-12.0585
▁Pra	-12.0587
▁festivals	-12.0587
▁starch	-12.0587
▁cathedral	-12.059
▁Wash	-12.059
▁VA	-12.059
▁droplets	-12.0591
▁Storm	-12.0591
▁armies	-12.0591
34	-12.0595
▁Recommended	-12.0596
▁Fu	-12.0596
▁lethal	-12.0598
▁psychologist	-12.0602
▁logs	-12.0602
▁nut	-12.0604
▁fetal	-12.0604
▁Celtic	-12.0605
▁spherical	-12.0606
ye	-12.0607
▁Bed	-12.0608
▁blast	-12.0611
▁Morris	-12.0612
▁(9	-12.0613
▁bucket	-12.0614
▁throwing	-12.0619
▁cues	-12.0621
▁itching	-12.0624
both	-12.063
▁youngest	-12.0632
▁technically	-12.0633
▁warnings	-12.0635
▁Arabia	-12.0635
▁sap	-12.0637
CDC	-12.0638
▁Private	-12.0641
▁optimize	-12.0645
▁colonists	-12.0645
▁acre	-12.0646
▁comparisons	-12.065
yr	-12.065
ec	-12.0651
▁buildup	-12.0652
▁bred	-12.0654
DI	-12.0655
▁1/4	-12.0658
▁preventable	-12.0658
native	-12.0658
▁DNS	-12.0658
▁ought	-12.0661
▁vertically	-12.0661
▁Instruction	-12.0661
▁scholarship	-12.0662
▁char	-12.0662
▁Norwegian	-12.0663
▁repository	-12.0664
▁doubled	-12.0665
▁conventions	-12.0667
▁nickel	-12.0667
▁GI	-12.0668
77	-12.0668
▁CSS	-12.0669
gle	-12.0672
▁Hemisphere	-12.0673
▁Alfred	-12.0673
▁bytes	-12.0673
▁Madison	-12.0678
▁Learners	-12.0679
▁collaborate	-12.0681
▁DVD	-12.0681
▁tones	-12.0681
cu	-12.0682
▁vivid	-12.0682
▁culturally	-12.0683
▁Sen	-12.0684
sex	-12.0684
▁Zika	-12.0685
▁Steel	-12.0687
▁weaknesses	-12.0689
stra	-12.069
▁angular	-12.0691
84	-12.0692
▁Had	-12.0694
▁monarch	-12.0695
▁dataset	-12.0695
▁HERE	-12.0696
▁ceremonies	-12.0697
▁rainforest	-12.0698
▁disruption	-12.0698
▁nonprofit	-12.0699
94	-12.07
▁adjustments	-12.0702
▁answering	-12.0703
▁arrange	-12.0704
▁Laws	-12.0704
▁slender	-12.0709
▁Phil	-12.0709
▁oriented	-12.0709
▁inappropriate	-12.0709
▁tiger	-12.071
▁investigator	-12.0713
▁romantic	-12.0714
normal	-12.0714
▁Aid	-12.0714
▁2005.	-12.0714
tum	-12.0716
▁bonding	-12.0717
▁Antonio	-12.0721
▁Hor	-12.0723
▁brave	-12.0723
▁tutorials	-12.0726
▁Prevent	-12.0728
▁hectares	-12.0729
▁favour	-12.0729
▁Plato	-12.073
▁Exchange	-12.0733
▁Ger	-12.0734
▁grip	-12.0736
▁Religious	-12.0736
66	-12.0737
trans	-12.0738
▁employer	-12.0738
▁optic	-12.0739
▁sorting	-12.074
▁recognizes	-12.0741
▁2016.	-12.0741
will	-12.0741
▁Film	-12.0742
▁graduated	-12.0744
ev	-12.0745
kar	-12.0745
▁stiffness	-12.0745
▁Against	-12.0746
▁athlete	-12.0746
▁activists	-12.0747
▁ju	-12.0747
▁wore	-12.0747
▁vine	-12.0748
rid	-12.0749
ome	-12.075
▁correction	-12.0752
ibility	-12.0753
▁activate	-12.0754
▁Juan	-12.0755
▁Bloom	-12.0756
▁Campaign	-12.0757
▁iPhone	-12.0757
▁Sites	-12.0757
33	-12.0757
▁merchant	-12.0758
▁Drive	-12.0758
▁peninsula	-12.0759
▁honest	-12.0763
▁fee	-12.0764
▁Pet	-12.0765
looking	-12.0765
▁colder	-12.0766
▁Institution	-12.0767
▁soup	-12.0767
65	-12.0768
after	-12.0768
▁Historically	-12.0769
▁BE	-12.0771
▁Eco	-12.0772
▁liked	-12.0772
▁occupy	-12.0773
▁developer	-12.0773
▁foil	-12.0777
▁Organisation	-12.0781
▁originate	-12.0781
▁prohibited	-12.0783
▁pumping	-12.0784
▁Languages	-12.079
▁invertebrates	-12.0792
▁Jonathan	-12.0793
▁promises	-12.0794
▁Rain	-12.0796
▁clarify	-12.0797
often	-12.0798
▁badly	-12.0798
▁optional	-12.0798
▁enforce	-12.08
38	-12.0801
▁Strait	-12.0801
ock	-12.0804
ency	-12.0804
▁Pen	-12.0804
▁Quebec	-12.0805
doi	-12.0807
▁conquered	-12.0807
▁Steven	-12.0808
▁Edit	-12.0808
▁faint	-12.0817
▁surely	-12.0818
Date	-12.0824
▁orbital	-12.0824
▁Ana	-12.0825
social	-12.0825
▁chat	-12.0828
▁Readers	-12.0828
▁multitude	-12.0829
▁transparency	-12.0829
▁Aristotle	-12.0831
iss	-12.0832
▁Metal	-12.0833
▁malignant	-12.0834
▁chew	-12.0835
▁Ber	-12.084
▁correspond	-12.0842
▁poets	-12.0843
▁brass	-12.0843
▁Strong	-12.0843
▁collisions	-12.0845
▁Pop	-12.0845
▁reforms	-12.0847
hy	-12.0847
hen	-12.0848
▁stiff	-12.0849
▁suppose	-12.0849
▁1864	-12.0849
far	-12.085
▁constitutes	-12.0853
▁handled	-12.0855
▁symmetry	-12.0858
▁conceived	-12.0858
▁fishes	-12.0859
▁bile	-12.0861
▁geologic	-12.0864
▁Prepare	-12.0864
lit	-12.0864
▁celestial	-12.0865
▁Fisheries	-12.0866
▁1981	-12.0867
▁rub	-12.0867
▁coefficient	-12.0869
▁sooner	-12.0869
▁Truth	-12.087
▁organised	-12.0872
▁Grow	-12.0873
▁divorce	-12.0873
▁fog	-12.0875
sec	-12.0875
▁hind	-12.0876
GI	-12.0876
carbon	-12.0876
▁Jul	-12.0876
▁Gandhi	-12.0877
▁ambient	-12.0877
▁manifest	-12.088
ess	-12.0882
▁philosophers	-12.0886
▁Final	-12.0887
▁behaviours	-12.0889
cc	-12.089
▁Manhattan	-12.089
▁bodily	-12.089
▁evaporation	-12.089
▁instability	-12.089
MD	-12.089
▁marginal	-12.0893
▁bullet	-12.0894
▁Em	-12.0894
▁dermatitis	-12.0894
▁instantly	-12.0894
▁tended	-12.0895
▁Engine	-12.0895
▁USGS	-12.0895
leg	-12.0896
▁donation	-12.0898
▁appreciated	-12.0898
▁render	-12.0899
▁resort	-12.09
▁gifted	-12.09
▁penetrate	-12.0901
▁Psychological	-12.0902
▁replication	-12.0902
▁accused	-12.0903
▁accompany	-12.0906
▁SP	-12.0906
▁Sci	-12.0908
Ra	-12.091
World	-12.091
generation	-12.0911
▁Napoleon	-12.0913
▁fraud	-12.0914
▁endurance	-12.0914
▁validity	-12.0916
▁eighteenth	-12.0919
zer	-12.0922
▁photographer	-12.0924
mark	-12.0924
Based	-12.0925
▁Oh	-12.0926
ute	-12.0928
▁checks	-12.0928
▁tile	-12.0928
▁1958	-12.0931
▁skeletal	-12.0932
Bo	-12.0932
II	-12.0933
▁diving	-12.0934
▁evenly	-12.0935
▁Practices	-12.0937
▁skip	-12.0937
ela	-12.0938
system	-12.0938
▁dictionaries	-12.0938
▁syrup	-12.0938
▁Clinton	-12.0939
▁Lung	-12.0939
▁respondents	-12.0939
▁detectors	-12.0941
▁deciduous	-12.0941
▁shear	-12.0942
▁Circle	-12.0942
▁simulated	-12.0943
▁Ring	-12.0943
▁Random	-12.0944
chemical	-12.0949
▁legends	-12.0949
▁compass	-12.0949
▁ministry	-12.0951
▁relaxation	-12.0951
▁compassion	-12.0952
▁assumes	-12.0953
▁fundamentals	-12.0954
▁2001,	-12.0955
▁Mat	-12.0956
▁numbered	-12.0956
▁bending	-12.0957
je	-12.0961
▁scalp	-12.0961
▁Sch	-12.0962
▁alternating	-12.0963
maker	-12.0963
▁Beijing	-12.0965
▁Carter	-12.0967
▁cones	-12.0969
▁guaranteed	-12.097
▁wastes	-12.0971
-13	-12.0972
▁adequately	-12.0974
▁Edinburgh	-12.0975
▁maritime	-12.0975
▁verification	-12.0975
▁61	-12.0976
▁Rural	-12.0976
▁barley	-12.0977
has	-12.0977
▁Built	-12.0978
▁Gardens	-12.0978
▁brake	-12.0978
▁analysed	-12.098
▁Faculty	-12.0981
▁95%	-12.0982
rie	-12.0983
▁Account	-12.0985
ele	-12.0985
▁Hy	-12.0987
▁proposals	-12.0988
▁enacted	-12.0989
▁stationary	-12.0989
▁devised	-12.0989
▁recipient	-12.0992
▁revealing	-12.0993
Figure	-12.0997
▁ACT	-12.0997
▁inhabit	-12.0998
▁glory	-12.1
▁GM	-12.1
▁IQ	-12.1001
▁Bang	-12.1002
▁responds	-12.1002
▁2020.	-12.1003
▁Infection	-12.1004
▁Collections	-12.1004
▁backup	-12.1007
▁monkey	-12.1007
▁tendons	-12.1009
▁Address	-12.101
BA	-12.101
ef	-12.1012
▁narrator	-12.1012
▁Enjoy	-12.1012
▁favorable	-12.1014
▁3000	-12.1014
aki	-12.1016
▁External	-12.1017
▁wrapped	-12.1018
pet	-12.102
phase	-12.1021
▁constructing	-12.1023
▁Statement	-12.1023
▁thy	-12.1023
▁unlimited	-12.1025
del	-12.1026
▁incoming	-12.1027
▁acknowledged	-12.1028
▁restaurant	-12.103
▁compromised	-12.1032
hal	-12.1032
▁12-	-12.1035
▁Moscow	-12.1037
▁alkaline	-12.104
▁67	-12.1042
▁judicial	-12.1043
▁fabrics	-12.1046
ening	-12.1047
▁Approach	-12.1048
▁germ	-12.1048
▁Tamil	-12.105
▁virtue	-12.1054
▁Basically	-12.1054
▁mega	-12.1054
mu	-12.1055
cer	-12.1055
blue	-12.1056
natural	-12.1057
defined	-12.1057
▁triple	-12.1058
▁pelvic	-12.1062
▁vicinity	-12.1062
▁Miami	-12.1062
lab	-12.1064
▁Roger	-12.1064
▁Characteristics	-12.1065
nu	-12.1065
▁toes	-12.1065
▁Bengal	-12.1067
▁Close	-12.1067
AR	-12.1068
▁03	-12.107
First	-12.1071
▁Generation	-12.1071
worth	-12.1072
CS	-12.1073
▁Campbell	-12.1074
▁moth	-12.1075
▁forestry	-12.1078
▁Skip	-12.1078
▁hearts	-12.1078
▁nitrate	-12.1079
▁Tibetan	-12.1079
▁electrode	-12.1079
▁lawyer	-12.108
▁Yoga	-12.108
▁Presentation	-12.108
▁fluctuations	-12.1082
▁Sexual	-12.1083
bearing	-12.1083
▁woven	-12.1084
vis	-12.1085
▁observer	-12.1086
▁Created	-12.1086
▁Archaeology	-12.1086
▁piston	-12.1087
▁viewer	-12.1087
otic	-12.109
▁differentiation	-12.109
▁Sanskrit	-12.109
bad	-12.109
▁tunnels	-12.1092
▁stub	-12.1093
▁drains	-12.1094
▁warmth	-12.1097
▁Pollution	-12.1099
▁glaucoma	-12.1099
▁integrating	-12.1099
app	-12.1101
▁unfortunately	-12.1102
▁Improve	-12.1103
▁eruptions	-12.1104
ages	-12.1104
▁RAM	-12.1105
▁mosaic	-12.1107
▁Bor	-12.1111
▁locked	-12.1115
▁metaphor	-12.1116
▁Compared	-12.1117
▁comply	-12.1119
cul	-12.112
▁rabbit	-12.1121
degree	-12.1121
▁minus	-12.1122
▁relied	-12.1124
▁SE	-12.1124
▁NEW	-12.1124
▁embrace	-12.1125
▁dialog	-12.1125
▁backwards	-12.1126
▁excluded	-12.1126
▁spans	-12.1128
▁torn	-12.1129
▁toddlers	-12.113
▁infestation	-12.1131
▁Laser	-12.1132
▁Walk	-12.1133
▁arbitrary	-12.1136
▁authoritative	-12.1136
▁Danish	-12.1137
▁visibility	-12.1137
other	-12.1138
▁subscription	-12.1138
▁paints	-12.1139
▁participant	-12.1141
▁composer	-12.1143
▁login	-12.1146
▁allergens	-12.1146
▁iPad	-12.1146
▁ounces	-12.1146
▁keen	-12.1147
▁skies	-12.115
▁exposures	-12.115
▁hammer	-12.1157
▁undertake	-12.1158
▁1984	-12.1158
▁aspirin	-12.1159
▁deficiencies	-12.1161
▁dizziness	-12.1161
▁retrieve	-12.1161
▁humanitarian	-12.1162
▁fins	-12.1162
▁pill	-12.1164
cher	-12.1164
eb	-12.1164
▁blanket	-12.1167
▁neglected	-12.1168
▁dropping	-12.1171
▁Wolf	-12.1172
▁adolescence	-12.1174
▁opposing	-12.1174
▁125	-12.1175
▁1918	-12.1176
ters	-12.1176
▁detrimental	-12.1176
ION	-12.1177
▁fake	-12.1179
▁Satellite	-12.1181
ato	-12.1182
▁shoots	-12.1185
▁advancing	-12.1186
▁Ways	-12.1188
▁guilty	-12.1188
▁Russell	-12.1189
▁crest	-12.1189
▁Homo	-12.1189
▁yarn	-12.1192
▁deviation	-12.1192
▁handed	-12.1194
▁highlighting	-12.1197
▁AN	-12.1197
▁compensate	-12.1197
▁echo	-12.1198
▁intriguing	-12.1199
▁fiscal	-12.1199
▁preceding	-12.1199
▁Allah	-12.1199
▁Donald	-12.1199
uli	-12.12
▁meats	-12.1203
NS	-12.1203
▁feasible	-12.1203
▁mapped	-12.1205
▁coated	-12.1205
▁meteor	-12.121
▁displaying	-12.121
▁signing	-12.1211
taking	-12.1211
▁commodity	-12.1211
▁Shi	-12.1211
▁phonics	-12.1211
▁biochemical	-12.1212
▁Detroit	-12.1213
▁anticipated	-12.1214
dependent	-12.1216
▁SO	-12.1216
▁mushrooms	-12.1217
zy	-12.1219
IS	-12.122
▁aggregate	-12.122
▁carbonate	-12.1222
▁coarse	-12.1223
▁Kidney	-12.1224
▁Panama	-12.1224
▁renamed	-12.1225
▁Acute	-12.1226
▁Leadership	-12.1226
num	-12.123
▁toddler	-12.1233
▁suppliers	-12.1234
▁Tanzania	-12.1236
resolution	-12.1237
▁categorized	-12.1238
▁1901	-12.1238
cast	-12.1239
▁SAT	-12.1243
▁rush	-12.1246
"),	-12.1247
▁soy	-12.1248
▁Vienna	-12.1249
index	-12.1252
63	-12.1254
▁Min	-12.1255
▁clause	-12.1259
▁rhyme	-12.126
▁attacking	-12.126
Earth	-12.126
▁inventions	-12.1261
▁risky	-12.1261
▁meningitis	-12.1262
▁racing	-12.1262
bb	-12.1262
▁lottery	-12.1262
▁Portland	-12.1263
▁Del	-12.1265
▁Innovation	-12.1268
bus	-12.1268
▁mess	-12.1273
▁fox	-12.1273
▁Sorry	-12.1275
▁invaded	-12.1278
▁tricky	-12.1278
▁emphasized	-12.128
▁unsafe	-12.1282
▁enjoying	-12.1282
▁prescribe	-12.1283
▁athletic	-12.1284
oli	-12.1286
▁TCP	-12.1287
▁Ser	-12.1287
▁wonders	-12.1288
▁interpretations	-12.1291
leaf	-12.1292
▁Austrian	-12.1294
▁Gospel	-12.1294
▁eleven	-12.1296
▁pockets	-12.1296
▁observers	-12.1297
▁copied	-12.13
69	-12.1301
▁descended	-12.1302
▁soccer	-12.1302
▁talent	-12.1302
ators	-12.1303
▁Dragon	-12.1304
▁printers	-12.1304
▁Older	-12.1308
▁congestion	-12.1313
▁secretary	-12.1313
▁conductor	-12.1314
▁Watson	-12.1315
▁IoT	-12.1315
▁winters	-12.1316
tree	-12.1316
▁Studio	-12.1317
▁rent	-12.1317
▁Holland	-12.1317
▁Springs	-12.1319
gi	-12.132
▁sunscreen	-12.132
▁roofs	-12.1321
▁Des	-12.1323
▁Cool	-12.1323
media	-12.1324
▁equator	-12.1325
▁Perl	-12.1325
▁Regardless	-12.1325
▁1-2	-12.1325
axis	-12.1327
▁maple	-12.1328
▁Transport	-12.133
▁2000.	-12.133
▁miners	-12.1331
▁neighbour	-12.1332
have	-12.1335
▁erect	-12.1336
▁rainbow	-12.1338
▁beats	-12.1339
Na	-12.1339
▁audiences	-12.134
▁Alpha	-12.1342
pr	-12.1342
▁Rich	-12.1344
hard	-12.1344
▁excavation	-12.1345
▁prejudice	-12.1347
▁designation	-12.1347
76	-12.135
Start	-12.135
▁05	-12.1351
▁Kepler	-12.1352
▁Thompson	-12.1352
three	-12.1353
▁energetic	-12.1354
▁Mor	-12.1354
eus	-12.1354
▁Protect	-12.1355
▁#2	-12.1355
sy	-12.136
▁loops	-12.136
▁doi	-12.1362
700	-12.1367
▁Representatives	-12.1371
sey	-12.1372
anda	-12.1375
▁holistic	-12.1376
▁persecution	-12.1376
▁Denver	-12.1376
▁basketball	-12.1376
sha	-12.1376
▁1967	-12.1379
▁pills	-12.1383
▁paradigm	-12.1384
With	-12.1386
▁solvent	-12.1388
▁arid	-12.1389
▁reductions	-12.139
▁77	-12.1394
▁instructors	-12.1395
▁alarming	-12.1397
star	-12.1399
PE	-12.14
▁Kent	-12.14
▁adjustment	-12.1401
▁tennis	-12.1402
▁mirrors	-12.1403
▁assuming	-12.1412
▁declines	-12.1413
▁Maya	-12.1414
▁Imaging	-12.1415
▁HTTP	-12.1415
olds	-12.1415
▁translates	-12.1417
▁polluted	-12.1419
▁predicting	-12.1421
▁amendment	-12.1423
▁daughters	-12.1424
▁Measure	-12.1424
▁Potential	-12.1427
▁proficiency	-12.1427
▁hotel	-12.1427
▁granite	-12.1427
Year	-12.1427
6,	-12.1429
frame	-12.1429
ox	-12.1431
▁invaluable	-12.1431
▁moles	-12.1432
ged	-12.1434
▁parasitic	-12.1434
▁depicting	-12.1435
▁inspiring	-12.1435
▁98	-12.1436
▁beverage	-12.1436
las	-12.1436
▁golf	-12.1437
▁rooted	-12.1438
▁Mean	-12.144
▁cancerous	-12.1442
▁APA	-12.1444
▁marry	-12.1445
▁capita	-12.1446
▁guests	-12.1446
▁pads	-12.1447
▁Solid	-12.1447
controlled	-12.1452
▁Cave	-12.1452
▁investing	-12.1453
▁THIS	-12.1453
▁Countries	-12.1453
▁Geology	-12.1453
▁Gregory	-12.1453
▁calf	-12.1454
▁priests	-12.1454
▁connective	-12.1455
▁acknowledge	-12.1455
▁(0	-12.1456
▁admit	-12.1461
▁mills	-12.1462
▁Pe	-12.1463
Image	-12.1466
▁Cooperative	-12.1466
RF	-12.1468
▁formatting	-12.1468
els	-12.1468
[...]
