<|pad|>	0
<|unk|>	0
<s>	0
<|eos|>	0
<|im_start|>	0
<|im_end|>	0
<think>	0
</think>	0
<0x00>	0
<0x01>	0
<0x02>	0
<0x03>	0
<0x04>	0
<0x05>	0
<0x06>	0
<0x07>	0
<0x08>	0
<0x09>	0
<0x0A>	0
<0x0B>	0
<0x0C>	0
<0x0D>	0
<0x0E>	0
<0x0F>	0
<0x10>	0
<0x11>	0
<0x12>	0
<0x13>	0
<0x14>	0
<0x15>	0
<0x16>	0
<0x17>	0
<0x18>	0
<0x19>	0
<0x1A>	0
<0x1B>	0
<0x1C>	0
<0x1D>	0
<0x1E>	0
<0x1F>	0
<0x20>	0
<0x21>	0
<0x22>	0
<0x23>	0
<0x24>	0
<0x25>	0
<0x26>	0
<0x27>	0
<0x28>	0
<0x29>	0
<0x2A>	0
<0x2B>	0
<0x2C>	0
<0x2D>	0
<0x2E>	0
<0x2F>	0
<0x30>	0
<0x31>	0
<0x32>	0
<0x33>	0
<0x34>	0
<0x35>	0
<0x36>	0
<0x37>	0
<0x38>	0
<0x39>	0
<0x3A>	0
<0x3B>	0
<0x3C>	0
<0x3D>	0
<0x3E>	0
<0x3F>	0
<0x40>	0
<0x41>	0
<0x42>	0
<0x43>	0
<0x44>	0
<0x45>	0
<0x46>	0
<0x47>	0
<0x48>	0
<0x49>	0
<0x4A>	0
<0x4B>	0
<0x4C>	0
<0x4D>	0
<0x4E>	0
<0x4F>	0
<0x50>	0
<0x51>	0
<0x52>	0
<0x53>	0
<0x54>	0
<0x55>	0
<0x56>	0
<0x57>	0
<0x58>	0
<0x59>	0
<0x5A>	0
<0x5B>	0
<0x5C>	0
<0x5D>	0
<0x5E>	0
<0x5F>	0
<0x60>	0
<0x61>	0
<0x62>	0
<0x63>	0
<0x64>	0
<0x65>	0
<0x66>	0
<0x67>	0
<0x68>	0
<0x69>	0
<0x6A>	0
<0x6B>	0
<0x6C>	0
<0x6D>	0
<0x6E>	0
<0x6F>	0
<0x70>	0
<0x71>	0
<0x72>	0
<0x73>	0
<0x74>	0
<0x75>	0
<0x76>	0
<0x77>	0
<0x78>	0
<0x79>	0
<0x7A>	0
<0x7B>	0
<0x7C>	0
<0x7D>	0
<0x7E>	0
<0x7F>	0
<0x80>	0
<0x81>	0
<0x82>	0
<0x83>	0
<0x84>	0
<0x85>	0
<0x86>	0
<0x87>	0
<0x88>	0
<0x89>	0
<0x8A>	0
<0x8B>	0
<0x8C>	0
<0x8D>	0
<0x8E>	0
<0x8F>	0
<0x90>	0
<0x91>	0
<0x92>	0
<0x93>	0
<0x94>	0
<0x95>	0
<0x96>	0
<0x97>	0
<0x98>	0
<0x99>	0
<0x9A>	0
<0x9B>	0
<0x9C>	0
<0x9D>	0
<0x9E>	0
<0x9F>	0
<0xA0>	0
<0xA1>	0
<0xA2>	0
<0xA3>	0
<0xA4>	0
<0xA5>	0
<0xA6>	0
<0xA7>	0
<0xA8>	0
<0xA9>	0
<0xAA>	0
<0xAB>	0
<0xAC>	0
<0xAD>	0
<0xAE>	0
<0xAF>	0
<0xB0>	0
<0xB1>	0
<0xB2>	0
<0xB3>	0
<0xB4>	0
<0xB5>	0
<0xB6>	0
<0xB7>	0
<0xB8>	0
<0xB9>	0
<0xBA>	0
<0xBB>	0
<0xBC>	0
<0xBD>	0
<0xBE>	0
<0xBF>	0
<0xC0>	0
<0xC1>	0
<0xC2>	0
<0xC3>	0
<0xC4>	0
<0xC5>	0
<0xC6>	0
<0xC7>	0
<0xC8>	0
<0xC9>	0
<0xCA>	0
<0xCB>	0
<0xCC>	0
<0xCD>	0
<0xCE>	0
<0xCF>	0
<0xD0>	0
<0xD1>	0
<0xD2>	0
<0xD3>	0
<0xD4>	0
<0xD5>	0
<0xD6>	0
<0xD7>	0
<0xD8>	0
<0xD9>	0
<0xDA>	0
<0xDB>	0
<0xDC>	0
<0xDD>	0
<0xDE>	0
<0xDF>	0
<0xE0>	0
<0xE1>	0
<0xE2>	0
<0xE3>	0
<0xE4>	0
<0xE5>	0
<0xE6>	0
<0xE7>	0
<0xE8>	0
<0xE9>	0
<0xEA>	0
<0xEB>	0
<0xEC>	0
<0xED>	0
<0xEE>	0
<0xEF>	0
<0xF0>	0
<0xF1>	0
<0xF2>	0
<0xF3>	0
<0xF4>	0
<0xF5>	0
<0xF6>	0
<0xF7>	0
<0xF8>	0
<0xF9>	0
<0xFA>	0
<0xFB>	0
<0xFC>	0
<0xFD>	0
<0xFE>	0
<0xFF>	0
▁the	-3.19898
.	-3.20669
,	-3.34162
▁and	-3.74569
▁to	-3.76584
▁of	-3.76977
▁a	-4.06495
▁in	-4.33142
▁for	-4.4938
s	-4.50624
▁is	-4.50673
-	-4.68667
▁that	-4.79324
▁or	-5.04216
/	-5.11125
:	-5.18463
▁The	-5.24365
▁on	-5.24568
▁	-5.24859
▁are	-5.26112
▁with	-5.31228
▁your	-5.39497
▁as	-5.4562
’	-5.58025
▁it	-5.62444
▁be	-5.62996
▁(	-5.6419
▁by	-5.68017
▁you	-5.68952
▁if	-5.69322
▁from	-5.72451
▁different	-5.75428
▁can	-5.83309
▁-	-5.83357
▁control	-5.85331
▁was	-5.88848
▁flow	-5.89848
▁have	-5.91929
▁handle	-5.92912
▁switch	-5.93375
case	-5.93495
▁statements	-5.93679
else	-5.93854
▁snippet	-5.94384
▁an	-5.96126
▁at	-6.00674
▁this	-6.0314
)	-6.03744
'	-6.05955
▁comments	-6.16018
▁their	-6.19418
▁not	-6.21003
▁how	-6.231
▁which	-6.29316
▁they	-6.30889
▁has	-6.34038
▁more	-6.34981
▁well	-6.36947
▁will	-6.37625
run	-6.44107
▁In	-6.44919
▁Dry	-6.45182
▁explaining	-6.45664
▁then	-6.48771
▁“	-6.50938
▁one	-6.52398
?	-6.53217
▁we	-6.56015
▁also	-6.57922
▁about	-6.58189
_	-6.58709
▁This	-6.59327
▁but	-6.59838
▁A	-6.60131
▁It	-6.63081
▁were	-6.63531
▁based	-6.64015
t	-6.64649
▁all	-6.67026
▁cases	-6.69072
▁other	-6.70037
▁conditions	-6.72052
▁I	-6.73392
▁related	-6.74037
▁"	-6.77672
▁decision	-6.8189
▁than	-6.82989
▁Incorporate	-6.83163
▁people	-6.83639
▁when	-6.84307
▁been	-6.87562
▁into	-6.8828
;	-6.88759
▁may	-6.88856
▁each	-6.89318
▁who	-6.8946
▁its	-6.91603
▁time	-6.92579
▁most	-6.93883
▁his	-6.94765
▁our	-6.95693
▁these	-6.95699
▁High	-6.97048
▁some	-6.97664
▁them	-6.9865
▁Analysis	-6.98995
▁use	-7.00582
▁Low	-7.00881
▁Engineer	-7.01851
▁Experts	-7.02887
▁Making	-7.03177
▁used	-7.0348
▁Professionals	-7.04123
▁Beginners	-7.04488
▁Decision	-7.04539
▁Extreme	-7.04556
▁up	-7.05915
▁many	-7.06779
▁out	-7.0749
▁first	-7.08094
▁include	-7.0823
▁process	-7.08448
▁what	-7.08867
▁such	-7.08966
▁there	-7.09969
▁so	-7.11298
▁do	-7.14487
▁provide	-7.16812
▁he	-7.16879
▁new	-7.18041
▁two	-7.1881
▁had	-7.19012
▁program	-7.21859
▁only	-7.22008
▁various	-7.22542
k	-7.22564
▁like	-7.22831
▁years	-7.23448
▁water	-7.24219
▁–	-7.24888
▁over	-7.25502
▁would	-7.26036
▁C	-7.27246
”	-7.29737
▁health	-7.30732
▁approach	-7.31455
ing	-7.31476
▁through	-7.31635
▁function	-7.33185
▁clear	-7.34055
▁Use	-7.35553
▁ensure	-7.36355
▁between	-7.37159
▁make	-7.39037
▁behind	-7.41051
▁code	-7.41732
▁perform	-7.41921
▁help	-7.42225
▁work	-7.43458
▁actions	-7.43699
▁children	-7.44209
math	-7.44949
▁during	-7.45197
).	-7.45252
▁appropriate	-7.45358
"	-7.464
▁module	-7.46794
▁any	-7.46933
▁no	-7.47022
▁world	-7.48052
▁If	-7.48096
▁where	-7.48669
12	-7.48982
▁outline	-7.49365
▁could	-7.49423
▁Build	-7.49462
▁care	-7.4958
▁hygiene	-7.50104
▁Create	-7.50125
▁students	-7.50163
▁Ensure	-7.502
▁logic	-7.50222
▁script	-7.50244
documented	-7.50514
▁detailed	-7.5061
▁scenarios	-7.51278
▁Develop	-7.52181
▁way	-7.52408
▁Design	-7.52656
making	-7.52932
▁implement	-7.53064
commented	-7.53113
▁should	-7.53885
▁conditionally	-7.53952
▁Write	-7.5484
▁Consider	-7.5492
▁They	-7.55773
▁very	-7.55843
▁Provide	-7.5605
▁reasoning	-7.56126
▁because	-7.56328
▁structured	-7.5647
▁What	-7.57084
▁need	-7.57916
▁system	-7.58426
▁Implement	-7.58699
▁important	-7.59549
ed	-7.60302
▁life	-7.60917
▁found	-7.61001
▁cn	-7.61027
▁after	-7.61096
S	-7.61461
▁For	-7.62046
▁even	-7.62536
▁year	-7.63325
▁study	-7.63507
e	-7.64333
▁high	-7.64352
▁said	-7.64693
▁those	-7.65071
▁just	-7.65106
▁being	-7.65851
),	-7.68013
▁information	-7.68026
a	-7.68096
▁much	-7.68186
▁We	-7.68513
▁get	-7.69026
▁part	-7.69955
▁data	-7.70153
▁often	-7.71088
▁Determine	-7.7114
▁There	-7.71319
th	-7.71503
▁|	-7.7231
d	-7.73291
▁using	-7.73325
▁Calculate	-7.73483
▁made	-7.73639
▁body	-7.73864
!	-7.74574
▁Java	-7.75067
▁synthetic	-7.75334
▁But	-7.75638
▁around	-7.76234
▁As	-7.76758
▁research	-7.78
re	-7.78044
▁long	-7.78079
▁both	-7.80055
▁her	-7.80839
▁You	-7.81046
▁food	-7.8139
▁number	-7.81452
▁When	-7.81616
▁same	-7.81748
▁day	-7.82325
▁database	-7.82339
▁known	-7.82681
▁These	-7.83766
▁know	-7.84292
▁before	-7.85029
▁while	-7.85815
▁0.31	-7.86359
▁see	-7.86572
▁called	-7.86937
▁three	-7.8695
▁us	-7.88118
▁take	-7.89017
▁He	-7.90563
▁disease	-7.91342
▁good	-7.91485
▁1	-7.92817
▁To	-7.92843
▁including	-7.92957
▁now	-7.93126
▁home	-7.93885
▁energy	-7.94258
▁school	-7.95177
▁common	-7.96237
▁human	-7.97343
▁small	-7.97919
▁child	-7.99107
.”	-7.99305
▁own	-8.01768
▁back	-8.01903
▁example	-8.02533
▁2	-8.03054
▁does	-8.0349
▁under	-8.03733
▁Hygiene	-8.04093
▁Safety	-8.0414
4	-8.04181
▁University	-8.04798
▁change	-8.06216
▁New	-8.06281
ly	-8.06472
▁find	-8.07067
▁However	-8.07514
▁American	-8.07995
▁large	-8.08166
▁U	-8.08548
▁area	-8.08695
▁Trust	-8.08768
▁3	-8.09419
▁every	-8.09557
▁must	-8.10182
▁cause	-8.10207
▁history	-8.10272
▁down	-8.10873
▁blood	-8.11276
▁form	-8.11984
▁learning	-8.12166
▁Check	-8.12233
▁Transparency	-8.12395
▁Ethics	-8.1272
▁Reliability	-8.12797
▁early	-8.12821
▁still	-8.12838
▁species	-8.13262
▁state	-8.13299
▁power	-8.1337
▁Responsibility	-8.13435
▁How	-8.13647
▁Privacy	-8.13648
—	-8.1366
▁development	-8.13869
▁risk	-8.14111
▁women	-8.14123
▁Bias	-8.14238
▁Consent	-8.14341
▁place	-8.1486
▁few	-8.14953
▁become	-8.16424
▁within	-8.16493
▁‘	-8.16843
▁United	-8.16926
er	-8.17482
▁my	-8.17693
▁less	-8.18321
▁might	-8.19024
▁right	-8.19162
▁orca	-8.20031
▁And	-8.20682
▁without	-8.21083
▁olympiads	-8.21695
▁—	-8.21865
▁Update	-8.22457
▁means	-8.22686
,”	-8.22709
▁person	-8.23178
▁family	-8.23563
▁Display	-8.24914
▁Transform	-8.25381
▁she	-8.25487
▁great	-8.25846
▁social	-8.26265
▁several	-8.26337
▁another	-8.26599
j	-8.26727
m	-8.26737
▁age	-8.26931
▁best	-8.27443
▁learn	-8.27601
▁better	-8.27793
y	-8.27832
▁set	-8.28031
▁Go	-8.28789
▁light	-8.29358
in	-8.29583
▁public	-8.29587
▁States	-8.29781
▁One	-8.29823
▁10	-8.30091
▁here	-8.30265
▁type	-8.30342
▁end	-8.30684
▁areas	-8.30805
▁&	-8.30828
▁name	-8.30849
▁group	-8.31599
n	-8.31926
▁per	-8.32178
▁look	-8.3234
▁cells	-8.32473
The	-8.32734
▁last	-8.3321
▁able	-8.334
or	-8.33435
▁too	-8.34324
▁B	-8.34495
▁go	-8.34514
▁problems	-8.34598
▁percent	-8.34815
▁don	-8.34996
▁National	-8.35059
▁since	-8.35094
▁things	-8.3525
▁country	-8.35284
▁million	-8.35369
▁order	-8.354
▁cancer	-8.35533
▁So	-8.36059
▁following	-8.36168
▁off	-8.36654
▁natural	-8.36992
▁want	-8.37009
▁brain	-8.37029
▁Some	-8.37704
▁did	-8.37729
i	-8.37974
▁level	-8.38213
▁book	-8.38762
▁technology	-8.38958
▁Python	-8.39255
D	-8.39279
▁times	-8.39318
▁possible	-8.39741
▁Ruby	-8.4017
2	-8.40551
▁problem	-8.40666
▁usually	-8.40772
▁low	-8.40814
▁language	-8.4089
▁create	-8.40918
the	-8.4094
▁Rust	-8.41157
▁air	-8.41189
▁today	-8.41429
▁government	-8.41726
▁come	-8.41866
▁available	-8.42281
▁think	-8.42399
."	-8.42587
▁century	-8.42869
▁levels	-8.43061
▁education	-8.43097
|	-8.43167
#	-8.43193
▁An	-8.43553
▁against	-8.43815
▁plant	-8.43927
▁making	-8.44127
▁little	-8.44298
▁treatment	-8.44649
▁result	-8.44987
Script	-8.45008
▁support	-8.45015
C	-8.45027
▁plants	-8.4526
▁By	-8.4527
▁Julia	-8.45774
▁others	-8.46287
▁among	-8.46498
▁5	-8.46542
▁due	-8.46639
▁point	-8.46683
▁heart	-8.46742
▁Using	-8.46805
▁across	-8.46823
▁says	-8.47325
▁why	-8.4739
▁four	-8.47631
▁TypeScript	-8.48394
▁project	-8.48827
▁After	-8.4893
▁words	-8.49144
▁systems	-8.49434
▁researchers	-8.49569
▁types	-8.49593
▁him	-8.4974
++	-8.49825
▁Health	-8.49992
,"	-8.50193
▁understand	-8.50238
▁course	-8.50431
▁population	-8.50539
▁major	-8.50926
ve	-8.51281
▁environment	-8.51301
▁At	-8.5131
A	-8.51324
▁While	-8.51447
▁20	-8.51574
▁fact	-8.51792
▁Bash	-8.52312
▁until	-8.52457
▁something	-8.52501
▁likely	-8.52824
▁4	-8.52829
▁non	-8.53359
▁science	-8.53361
▁land	-8.53566
▁personal	-8.53627
▁days	-8.53825
▁increase	-8.53987
▁outside	-8.54
▁On	-8.54149
▁Neo	-8.54239
▁least	-8.54306
▁lead	-8.54611
▁ways	-8.54818
||	-8.54909
▁relation	-8.55283
▁symptoms	-8.55551
▁local	-8.55854
▁Hand	-8.55866
▁English	-8.5605
▁countries	-8.56107
▁skills	-8.56488
▁S	-8.56495
▁along	-8.56557
▁space	-8.56821
▁keep	-8.56914
▁together	-8.57096
▁young	-8.57145
▁second	-8.57159
▁community	-8.57253
▁Cypher	-8.57628
g	-8.57878
▁say	-8.58067
▁given	-8.5825
▁experience	-8.58628
▁That	-8.58671
▁With	-8.58886
▁World	-8.59292
▁develop	-8.59382
▁climate	-8.59694
o	-8.59846
▁always	-8.60251
▁Food	-8.60374
▁article	-8.60412
▁present	-8.60762
▁later	-8.61023
▁paper	-8.6103
▁test	-8.61034
▁physical	-8.61144
▁main	-8.61259
▁D	-8.61366
▁Cleaning	-8.61412
▁working	-8.61495
▁Updates	-8.61623
▁results	-8.61807
ll	-8.6203
▁changes	-8.62416
▁give	-8.62503
▁needs	-8.62589
to	-8.62757
▁start	-8.63261
▁Dr	-8.63346
▁Checks	-8.63378
▁range	-8.63439
r	-8.63678
▁below	-8.63781
▁period	-8.63954
es	-8.63971
▁read	-8.64067
▁SQL	-8.64156
▁Education	-8.64166
▁design	-8.64399
▁especially	-8.64515
▁activities	-8.64614
▁show	-8.64659
▁developed	-8.64861
▁word	-8.64969
▁future	-8.65059
▁higher	-8.65071
▁Displays	-8.65258
▁Transforms	-8.65298
▁specific	-8.65377
▁city	-8.65771
▁free	-8.65991
▁case	-8.66282
▁key	-8.66414
▁next	-8.66599
▁Earth	-8.66651
▁enough	-8.66661
▁current	-8.66811
▁men	-8.67039
▁amount	-8.6739
▁role	-8.67483
▁certain	-8.6791
▁past	-8.68163
▁old	-8.68481
▁surface	-8.68711
▁America	-8.68901
▁impact	-8.68914
▁live	-8.69076
▁activity	-8.69137
▁resources	-8.6916
▁far	-8.69215
▁became	-8.69378
▁All	-8.69387
▁knowledge	-8.69655
▁full	-8.69656
▁skin	-8.69685
▁according	-8.69774
▁War	-8.69803
▁story	-8.70057
▁studies	-8.70111
▁report	-8.70177
▁away	-8.70249
▁side	-8.70369
▁animals	-8.70642
▁created	-8.7083
▁access	-8.70921
▁Proper	-8.70945
▁makes	-8.71041
▁effects	-8.71103
▁material	-8.71217
▁E	-8.71327
▁growth	-8.71335
▁production	-8.7136
▁'	-8.71503
▁left	-8.71623
▁white	-8.71648
▁patients	-8.71836
▁however	-8.72117
▁team	-8.72172
I	-8.72305
▁healthy	-8.72309
▁having	-8.72375
▁building	-8.72379
▁check	-8.72536
▁Personal	-8.72631
▁Many	-8.72671
▁five	-8.72685
▁Toilet	-8.72754
▁simple	-8.73399
▁computer	-8.73575
▁published	-8.73577
▁put	-8.73626
▁pain	-8.73795
▁Here	-8.73884
▁source	-8.73949
▁site	-8.74292
▁Flossing	-8.74303
▁above	-8.74327
▁M	-8.74331
▁me	-8.74721
▁materials	-8.74898
▁play	-8.75126
al	-8.75136
▁field	-8.75493
▁short	-8.75559
▁size	-8.75597
▁seen	-8.75913
▁products	-8.76042
▁understanding	-8.76077
▁going	-8.7627
▁quality	-8.76716
▁individual	-8.76792
▁reduce	-8.76804
▁questions	-8.76818
▁pressure	-8.76844
▁medical	-8.76861
▁line	-8.76934
▁student	-8.76943
▁class	-8.7706
▁whether	-8.77205
▁lower	-8.77506
and	-8.77693
▁living	-8.78004
▁general	-8.7807
▁global	-8.78363
▁lot	-8.78557
▁similar	-8.78638
▁scientists	-8.78643
▁single	-8.78648
▁soil	-8.78994
▁items	-8.79091
▁Social	-8.79193
▁hand	-8.7952
▁6	-8.79578
▁comes	-8.79764
▁de	-8.80117
▁reading	-8.80142
▁potential	-8.80356
▁really	-8.80482
▁Most	-8.80564
▁issues	-8.80777
▁death	-8.80909
▁open	-8.80922
▁man	-8.81426
▁technique	-8.81583
▁South	-8.82011
▁parents	-8.82044
▁God	-8.82399
▁value	-8.82477
▁ability	-8.82554
▁According	-8.8259
▁considered	-8.82616
▁groups	-8.82729
▁actually	-8.82764
▁causes	-8.82964
▁already	-8.83107
▁parts	-8.83261
▁never	-8.83264
▁illness	-8.83342
▁loss	-8.83393
▁term	-8.83432
▁rate	-8.83529
▁recent	-8.83541
▁produce	-8.83738
▁black	-8.83764
1	-8.84173
▁significant	-8.84182
▁associated	-8.84576
▁North	-8.84608
▁either	-8.84749
▁real	-8.84847
▁self	-8.84994
▁caused	-8.85454
▁factors	-8.85721
▁Hair	-8.85865
▁almost	-8.86054
▁gas	-8.86435
▁done	-8.86702
▁addition	-8.86865
▁sure	-8.86889
▁practice	-8.86987
▁week	-8.8725
▁provides	-8.87392
▁once	-8.87464
▁idea	-8.87509
▁feel	-8.87614
▁cell	-8.87941
▁particular	-8.87962
▁effect	-8.88324
▁question	-8.8845
▁weight	-8.8845
▁throughout	-8.88461
▁Dental	-8.89073
▁Research	-8.89288
▁increased	-8.89312
▁near	-8.89584
▁region	-8.89599
▁writing	-8.89608
▁thought	-8.89781
▁began	-8.8981
▁designed	-8.89893
▁top	-8.89904
▁=	-8.90058
(	-8.9007
▁variety	-8.90112
▁half	-8.90147
▁nature	-8.90414
▁environmental	-8.90577
▁prevent	-8.90603
▁improve	-8.90624
▁came	-8.90711
▁12	-8.90735
▁taken	-8.90807
▁shared	-8.90811
▁modern	-8.90878
▁law	-8.91185
▁though	-8.91315
▁difficult	-8.91358
...	-8.91618
▁further	-8.91683
▁T	-8.91868
▁Ear	-8.91952
▁shows	-8.92008
▁lives	-8.92252
▁war	-8.92358
▁months	-8.92414
▁hard	-8.92454
▁built	-8.92457
▁evidence	-8.9268
▁online	-8.92711
▁Although	-8.92835
▁Your	-8.92962
▁temperature	-8.93106
▁Science	-8.93203
▁effective	-8.93301
▁rather	-8.93508
on	-8.93527
▁works	-8.93556
▁method	-8.93635
▁re	-8.93783
▁kids	-8.93939
▁economic	-8.93953
▁15	-8.93964
▁condition	-8.94118
▁whole	-8.94275
▁P	-8.94651
▁heat	-8.94685
▁oil	-8.94719
▁states	-8.94939
▁basic	-8.94939
▁Foot	-8.94949
▁head	-8.95073
▁From	-8.95197
▁needed	-8.95459
based	-8.95519
▁themselves	-8.95921
▁Weather	-8.95988
▁easy	-8.96388
▁ago	-8.96434
▁grow	-8.96504
▁School	-8.96771
▁ever	-8.97099
▁average	-8.97304
▁art	-8.97355
▁national	-8.97453
▁red	-8.97627
▁structure	-8.97853
▁Handling	-8.97856
▁color	-8.98592
▁British	-8.9864
▁model	-8.98665
ers	-8.98707
▁required	-8.9872
▁Nose	-8.98779
▁carbon	-8.98858
▁US	-8.98917
▁text	-8.98931
▁fish	-8.99192
▁schools	-8.99355
▁management	-8.99619
▁money	-8.9967
▁growing	-8.99837
▁image	-8.9998
▁Sneezing	-9.00233
▁damage	-9.00267
▁focus	-9.00398
▁business	-9.00408
▁includes	-9.00482
c	-9.00587
▁page	-9.00933
▁benefits	-9.01081
▁habits	-9.01261
▁industry	-9.01318
▁itself	-9.01356
▁State	-9.01778
▁content	-9.01943
▁took	-9.02076
▁Eye	-9.02163
▁Media	-9.02431
▁John	-9.02475
▁list	-9.02544
▁developing	-9.02567
▁Water	-9.02589
▁F	-9.02737
▁R	-9.02949
▁individuals	-9.03035
▁30	-9.03077
▁ground	-9.03234
▁8	-9.03341
▁taking	-9.03405
▁foods	-9.03507
com	-9.03669
▁cost	-9.03801
▁No	-9.0389
▁view	-9.04034
▁India	-9.04092
▁sometimes	-9.04158
▁K	-9.04497
▁uses	-9.04542
▁diet	-9.0478
▁post	-9.04859
▁hours	-9.0488
▁popular	-9.04918
▁routine	-9.04927
▁She	-9.0498
▁helps	-9.05011
▁tree	-9.05057
▁H	-9.05204
▁feet	-9.05268
▁rights	-9.05288
▁political	-9.05462
▁cannot	-9.05528
▁series	-9.05834
▁yet	-9.06081
▁build	-9.06121
▁Do	-9.06205
▁Our	-9.06274
▁G	-9.06325
▁move	-9.06378
▁plan	-9.06426
▁teachers	-9.0643
▁services	-9.06438
▁total	-9.06792
▁diseases	-9.06995
▁spaces	-9.07085
▁terms	-9.07143
▁animal	-9.0726
▁members	-9.07282
▁methods	-9.07283
▁led	-9.07402
an	-9.07427
▁1.	-9.07482
▁essential	-9.07497
▁complex	-9.07634
▁Online	-9.07818
▁analysis	-9.07887
▁etc	-9.07902
▁sources	-9.07997
▁solar	-9.08003
▁matter	-9.08042
▁Why	-9.08045
▁strong	-9.08179
▁special	-9.08206
▁longer	-9.08359
▁necessary	-9.08425
▁close	-9.08564
▁society	-9.08716
▁sleep	-9.08984
▁numbers	-9.09008
▁trees	-9.09048
▁written	-9.09293
▁eye	-9.09402
amc	-9.09472
▁big	-9.09478
▁forms	-9.0949
▁thing	-9.09593
▁During	-9.09654
▁upon	-9.09685
▁turn	-9.09733
▁Security	-9.09789
▁sense	-9.09791
▁First	-9.09792
▁events	-9.09811
▁mind	-9.09892
▁occur	-9.09946
▁sea	-9.0999
▁Travel	-9.10184
▁produced	-9.10313
▁normal	-9.10401
▁allow	-9.10402
▁face	-9.10498
▁video	-9.10821
▁More	-9.10855
▁eat	-9.10882
▁mean	-9.10963
▁culture	-9.10998
▁protect	-9.11149
▁movement	-9.11172
▁issue	-9.11192
▁training	-9.11207
▁Day	-9.11578
▁inside	-9.11609
▁reason	-9.11773
▁music	-9.11835
▁teeth	-9.11927
▁Center	-9.12035
▁7	-9.12239
▁action	-9.12388
▁Organization	-9.12566
▁Preventing	-9.12677
▁kind	-9.12978
▁green	-9.13005
▁Europe	-9.13289
▁humans	-9.13441
▁attention	-9.13509
▁Nail	-9.13582
▁six	-9.13591
▁again	-9.13653
▁safety	-9.13671
▁Handwashing	-9.13752
▁stress	-9.13813
l	-9.1383
▁believe	-9.13921
▁simply	-9.14157
▁St	-9.14399
▁company	-9.1447
▁shown	-9.14677
▁His	-9.14768
▁started	-9.14778
▁late	-9.14797
▁answer	-9.14863
▁complete	-9.14946
▁May	-9.15021
▁L	-9.15209
▁mental	-9.15365
▁ancient	-9.15461
▁daily	-9.1581
▁involved	-9.15849
▁scientific	-9.15932
▁unique	-9.15954
▁Bathing	-9.16174
▁getting	-9.16268
▁particularly	-9.16291
▁York	-9.16601
▁History	-9.16914
▁true	-9.16938
▁service	-9.16952
▁N	-9.17023
▁generally	-9.17093
▁J	-9.17261
▁largest	-9.17263
▁California	-9.17284
▁books	-9.17349
▁determine	-9.1735
▁subject	-9.17405
▁tools	-9.17407
▁interest	-9.17643
▁primary	-9.17673
b	-9.17691
▁ideas	-9.17746
▁China	-9.17807
▁adults	-9.17865
▁someone	-9.1791
▁e	-9.17947
▁share	-9.18145
▁looking	-9.18159
▁Now	-9.18602
▁provided	-9.18657
▁takes	-9.18721
▁response	-9.18827
▁bacteria	-9.19045
▁European	-9.19099
▁easily	-9.19133
▁Since	-9.19188
▁affect	-9.19199
▁infection	-9.19214
▁doesn	-9.19299
▁meaning	-9.19426
▁Institute	-9.19463
▁sun	-9.19544
▁wide	-9.19631
▁step	-9.1996
▁traditional	-9.19991
▁born	-9.20066
▁safe	-9.20173
▁Department	-9.20184
▁doing	-9.20307
▁allows	-9.20485
▁spread	-9.205
▁try	-9.2068
▁original	-9.20871
▁greater	-9.21002
▁teaching	-9.21238
▁programs	-9.21393
▁positive	-9.21493
▁contains	-9.21592
▁sound	-9.21819
▁communities	-9.22064
▁100	-9.22189
▁Africa	-9.22279
▁waste	-9.22325
▁reported	-9.22668
▁house	-9.22673
▁media	-9.22963
▁behavior	-9.22982
▁included	-9.23013
▁product	-9.23054
▁probably	-9.23088
▁leading	-9.23207
▁difference	-9.23395
▁quickly	-9.23511
▁call	-9.23591
▁--	-9.23847
▁require	-9.24073
▁summer	-9.24472
▁leaves	-9.2451
▁multiple	-9.24585
▁River	-9.24618
▁fire	-9.24759
▁nearly	-9.24881
en	-9.24948
▁standard	-9.24982
▁images	-9.2502
▁Each	-9.25151
▁write	-9.25333
▁run	-9.2545
▁quite	-9.25495
▁African	-9.25649
x	-9.25822
▁exercise	-9.25957
▁entire	-9.261
▁author	-9.26175
▁critical	-9.26241
▁coughing	-9.26251
▁chemical	-9.26595
▁let	-9.26618
▁love	-9.26731
▁French	-9.26806
▁located	-9.27091
▁larger	-9.27311
▁identify	-9.27361
▁serious	-9.276
▁begin	-9.27743
▁market	-9.27881
▁game	-9.27944
E	-9.27956
▁50	-9.28097
▁contact	-9.28175
3	-9.28201
▁Managing	-9.2821
▁devices	-9.28214
▁Oral	-9.28262
ups	-9.28364
▁network	-9.28378
▁typically	-9.28443
▁miles	-9.28547
▁continue	-9.28584
▁Is	-9.28669
▁2.	-9.28761
▁beginning	-9.28798
man	-9.28904
▁poor	-9.28989
B	-9.29028
▁virus	-9.29038
▁families	-9.29045
▁compared	-9.29094
▁Americans	-9.29143
▁international	-9.2915
▁highly	-9.2922
▁features	-9.29409
▁Transportation	-9.29887
▁discovered	-9.29963
▁software	-9.29973
▁cleanliness	-9.3007
▁9	-9.30148
▁diabetes	-9.30162
▁theory	-9.30256
▁commonly	-9.30263
▁active	-9.30338
–	-9.30406
▁month	-9.30494
▁People	-9.30775
▁O	-9.30823
▁fall	-9.30838
▁recently	-9.30868
▁Clothing	-9.30923
▁tell	-9.31021
▁Avoiding	-9.31117
▁follow	-9.31121
▁Before	-9.31197
▁etiquette	-9.31232
▁position	-9.3133
▁third	-9.31378
▁Regular	-9.31431
▁elements	-9.3149
▁event	-9.31504
▁force	-9.31592
▁added	-9.31754
▁Shopping	-9.31759
▁patient	-9.31805
F	-9.31813
▁...	-9.32034
▁Of	-9.32101
▁weather	-9.32194
▁Other	-9.32221
▁eating	-9.32222
▁digital	-9.32311
us	-9.32315
▁mass	-9.32322
▁avoid	-9.32668
▁March	-9.32716
▁Even	-9.32717
▁thinking	-9.32812
▁points	-9.32923
▁night	-9.32948
▁address	-9.32998
▁add	-9.33238
▁supply	-9.33247
▁established	-9.33318
▁Finance	-9.33404
▁performance	-9.33421
▁lack	-9.33474
▁goal	-9.33484
▁m	-9.3406
▁importance	-9.34091
▁consider	-9.34115
▁Canada	-9.34126
▁Because	-9.34397
▁creating	-9.34399
▁central	-9.34665
▁memory	-9.34727
▁instead	-9.34811
▁protein	-9.3482
▁11	-9.34846
▁birds	-9.3487
▁object	-9.34883
▁Today	-9.3499
▁Students	-9.35165
▁cut	-9.35337
▁18	-9.35538
▁Public	-9.35655
▁teacher	-9.35697
▁occurs	-9.35904
▁car	-9.35933
▁bring	-9.36072
▁minutes	-9.36093
▁pre	-9.36262
▁deep	-9.36293
▁i	-9.36312
We	-9.36347
P	-9.36358
▁contain	-9.3636
▁p	-9.36494
like	-9.36577
▁shape	-9.36587
▁directly	-9.36632
▁un	-9.36656
▁Fitness	-9.3676
▁International	-9.368
▁sugar	-9.36823
▁nation	-9.36829
▁useful	-9.36954
▁speed	-9.36974
▁cold	-9.36977
▁communication	-9.37064
▁purpose	-9.37124
▁processes	-9.37138
▁ice	-9.37271
▁objects	-9.37298
▁tool	-9.37304
://	-9.3741
▁device	-9.37645
up	-9.377
p	-9.37743
N	-9.37977
▁co	-9.38022
▁increasing	-9.38032
M	-9.38035
▁winter	-9.38194
▁severe	-9.38245
▁techniques	-9.38441
▁named	-9.38477
st	-9.38683
T	-9.38694
▁England	-9.38767
▁concept	-9.38994
▁rest	-9.39113
▁Tracking	-9.39124
able	-9.39265
▁planet	-9.39289
▁older	-9.39354
▁applications	-9.39369
▁Great	-9.395
▁account	-9.39532
▁W	-9.39572
▁held	-9.39668
▁Children	-9.39805
▁act	-9.40203
▁April	-9.40328
▁June	-9.40354
▁hands	-9.40389
▁center	-9.40483
▁appear	-9.40511
year	-9.40544
▁earth	-9.40629
▁fuel	-9.40692
▁Not	-9.40704
▁Act	-9.40768
▁construction	-9.40846
▁weeks	-9.40972
▁County	-9.40978
▁West	-9.41114
▁reach	-9.41133
▁requires	-9.41243
▁eyes	-9.41254
▁middle	-9.41317
▁record	-9.41564
▁website	-9.4158
▁reasons	-9.41762
▁billion	-9.41764
▁affected	-9.4181
▁King	-9.41962
▁dry	-9.42151
▁x	-9.42452
▁offer	-9.42455
▁II	-9.42455
▁birth	-9.42477
▁classroom	-9.42782
▁section	-9.4283
▁protection	-9.42861
▁Indian	-9.42876
▁companies	-9.42949
▁application	-9.42992
▁places	-9.43079
▁lost	-9.4325
▁although	-9.43566
▁19	-9.43596
▁tests	-9.43598
▁news	-9.43771
▁Planning	-9.43811
▁whose	-9.43847
▁German	-9.43962
▁16	-9.44004
▁policy	-9.44051
▁security	-9.4408
▁lines	-9.4415
▁baby	-9.44163
▁military	-9.442
▁measure	-9.4426
▁rates	-9.44297
ic	-9.44331
▁responsible	-9.444
▁job	-9.44425
▁cultural	-9.44704
▁Also	-9.44906
▁file	-9.44913
▁sites	-9.44955
▁emissions	-9.44963
▁projects	-9.44973
▁14	-9.45067
term	-9.45173
▁therefore	-9.4526
▁July	-9.45456
▁Then	-9.45571
▁towards	-9.45597
▁web	-9.45789
ism	-9.45939
▁limited	-9.46142
▁additional	-9.46271
▁negative	-9.46314
as	-9.46334
▁relationship	-9.46366
▁exposure	-9.46411
▁dog	-9.46425
▁examples	-9.46528
▁collection	-9.4663
▁fruit	-9.46832
▁influence	-9.46843
▁fun	-9.46912
▁bad	-9.4705
▁values	-9.47075
is	-9.47076
▁remains	-9.47117
▁Keeping	-9.47138
▁financial	-9.472
▁gives	-9.47268
▁brought	-9.47269
▁currently	-9.47296
▁location	-9.47332
▁rise	-9.47545
▁wind	-9.47576
▁genetic	-9.47663
▁stop	-9.47737
ness	-9.47846
▁seems	-9.48104
▁search	-9.48217
▁front	-9.48227
▁testing	-9.484
▁smaller	-9.48481
▁NASA	-9.48602
▁immune	-9.48789
▁talk	-9.48862
▁tissue	-9.48914
▁City	-9.49244
R	-9.49336
▁thus	-9.49398
▁disorder	-9.494
▁date	-9.49402
▁native	-9.4948
▁meet	-9.49546
▁40	-9.49679
▁V	-9.49727
▁Australia	-9.49767
▁situation	-9.4979
▁fat	-9.50092
▁base	-9.50113
▁X	-9.50178
▁went	-9.50216
▁goes	-9.50231
▁drug	-9.50313
▁everything	-9.50335
▁everyone	-9.50364
▁length	-9.50366
▁thousands	-9.50399
▁workers	-9.50449
▁13	-9.50476
▁told	-9.50571
▁25	-9.50635
▁historical	-9.50734
▁soon	-9.50738
▁solution	-9.50898
▁equipment	-9.50992
▁becomes	-9.51145
▁town	-9.51188
▁Hands	-9.51295
▁link	-9.51339
▁direct	-9.51346
▁signs	-9.51417
▁described	-9.5144
▁Once	-9.51514
▁Washington	-9.51545
▁regular	-9.51763
▁choose	-9.51789
▁doctor	-9.51853
H	-9.51865
▁hot	-9.52032
▁machine	-9.52042
▁cover	-9.52086
▁plastic	-9.52097
▁DNA	-9.52348
▁President	-9.52582
▁success	-9.52592
▁user	-9.52595
▁topic	-9.52675
▁Their	-9.52765
▁piece	-9.52893
▁clean	-9.52951
▁stories	-9.52967
▁acid	-9.53035
▁died	-9.53323
▁practices	-9.53362
▁September	-9.53472
▁interesting	-9.5349
▁seem	-9.53523
▁stage	-9.53568
▁standards	-9.5363
▁guide	-9.53632
▁opportunity	-9.53636
▁efforts	-9.5364
▁isn	-9.53704
▁users	-9.53718
▁January	-9.53776
▁electricity	-9.53834
▁federal	-9.54005
▁expected	-9.54046
▁mother	-9.54173
▁math	-9.54237
▁picture	-9.54243
▁Let	-9.54278
▁scale	-9.54375
▁Over	-9.54392
▁formed	-9.54478
▁visit	-9.54595
▁map	-9.54613
▁room	-9.54621
▁economy	-9.54639
▁asked	-9.54645
▁educational	-9.54645
▁north	-9.54665
▁costs	-9.54745
h	-9.54779
▁decades	-9.54802
▁Chinese	-9.55021
▁findings	-9.55041
▁/	-9.55156
▁Data	-9.55208
▁anti	-9.55295
▁providing	-9.55314
▁properties	-9.55355
▁drugs	-9.55406
▁received	-9.55464
▁October	-9.55609
▁powerful	-9.55648
▁steps	-9.55904
O	-9.55996
▁attack	-9.5606
▁basis	-9.56071
K	-9.56089
▁identified	-9.56379
▁overall	-9.56381
▁trying	-9.56402
▁treat	-9.56471
It	-9.56555
▁receive	-9.56774
▁challenges	-9.56856
▁unit	-9.5687
▁Internet	-9.56875
▁ask	-9.56878
▁rules	-9.5692
▁bone	-9.5698
▁patterns	-9.56993
▁followed	-9.57306
▁pay	-9.57362
▁hold	-9.57423
▁cities	-9.57432
▁previous	-9.57435
▁via	-9.57461
▁Management	-9.57478
▁UK	-9.57496
▁season	-9.57664
▁components	-9.57694
▁mouth	-9.581
▁dark	-9.58158
▁got	-9.58237
▁property	-9.58249
▁Black	-9.58325
▁muscle	-9.58493
▁trade	-9.58509
▁anything	-9.58548
▁rich	-9.5855
▁spring	-9.58672
▁beyond	-9.58689
▁teach	-9.58745
▁maintain	-9.58896
▁successful	-9.58932
G	-9.58952
▁defined	-9.59048
▁c	-9.59078
▁Medical	-9.59174
▁am	-9.59211
▁December	-9.59215
▁blue	-9.59349
▁return	-9.59383
▁father	-9.59437
▁bit	-9.59544
▁private	-9.59666
▁explain	-9.59701
▁south	-9.59709
▁differences	-9.59981
▁therapy	-9.59985
▁temperatures	-9.60108
▁t	-9.60196
▁East	-9.60217
▁fast	-9.60286
▁completely	-9.60469
▁female	-9.60513
▁yourself	-9.60629
▁saw	-9.60659
▁professor	-9.60712
▁famous	-9.60828
▁About	-9.60888
▁garden	-9.60992
▁moving	-9.61055
▁models	-9.61176
▁version	-9.6119
▁degree	-9.61255
▁August	-9.61446
▁Be	-9.61457
▁Can	-9.61601
▁explore	-9.61733
▁forest	-9.6187
▁changed	-9.61885
▁woman	-9.62097
▁San	-9.6218
▁depression	-9.62312
▁technologies	-9.6233
▁benefit	-9.62349
▁effort	-9.62398
▁alone	-9.62526
▁review	-9.62567
▁consumption	-9.62614
▁organization	-9.6269
▁Park	-9.62703
▁metal	-9.62848
▁placed	-9.62933
▁released	-9.63175
▁won	-9.63236
▁proper	-9.63346
▁religious	-9.63367
▁approximately	-9.63402
▁stay	-9.63447
▁17	-9.6358
▁character	-9.63647
▁Jesus	-9.63771
▁estimated	-9.6389
▁river	-9.63921
This	-9.64046
▁names	-9.64081
▁vision	-9.64117
▁earlier	-9.6428
▁majority	-9.64552
▁coming	-9.6461
▁professional	-9.6464
▁member	-9.64675
▁medicine	-9.64731
▁huge	-9.64734
▁causing	-9.64772
▁3.	-9.64832
▁offers	-9.65019
▁style	-9.6509
▁relatively	-9.65105
▁remain	-9.65136
▁measures	-9.65242
▁achieve	-9.65274
▁distance	-9.6533
▁functions	-9.65473
▁toward	-9.65665
▁resource	-9.65724
▁wrote	-9.65799
▁seven	-9.6586
▁wood	-9.65914
▁November	-9.65973
ity	-9.66015
▁widely	-9.6622
▁believed	-9.66227
▁structures	-9.66294
▁running	-9.66299
▁disorders	-9.66367
▁friends	-9.66567
▁applied	-9.66597
▁becoming	-9.66677
▁dogs	-9.66758
▁pollution	-9.66798
▁showed	-9.66884
▁General	-9.6691
▁reports	-9.66962
▁extremely	-9.67037
▁leave	-9.67056
▁Problems	-9.67079
▁increases	-9.67097
L	-9.67144
▁laws	-9.67266
▁Germany	-9.67343
ops	-9.67349
▁infections	-9.6737
▁lesson	-9.67469
▁table	-9.67477
▁worked	-9.67627
▁break	-9.6765
▁February	-9.67666
▁regions	-9.6772
▁save	-9.679
▁College	-9.68257
▁Control	-9.68304
▁alcohol	-9.68311
▁strategies	-9.6839
▁opportunities	-9.68519
▁oxygen	-9.68528
▁milk	-9.68532
f	-9.68619
▁adult	-9.68665
▁Spanish	-9.68673
▁tend	-9.68716
▁Read	-9.68761
▁Common	-9.68779
▁Another	-9.68914
▁conducted	-9.68932
▁balance	-9.68964
▁learned	-9.69103
▁gain	-9.693
▁reduced	-9.69333
▁games	-9.69339
▁didn	-9.69365
▁engineering	-9.69502
▁planning	-9.69518
▁equal	-9.69585
▁introduced	-9.6965
▁21	-9.69672
▁suggests	-9.69795
▁chronic	-9.69861
▁France	-9.69892
▁remember	-9.69899
▁details	-9.69956
▁My	-9.69999
▁correct	-9.70049
▁experiences	-9.70066
▁forces	-9.70123
▁experts	-9.70144
▁happen	-9.7018
▁rule	-9.70227
▁Two	-9.70235
▁bodies	-9.70286
▁Union	-9.70324
▁sent	-9.70384
▁final	-9.70431
▁Learning	-9.70444
▁Roman	-9.70521
▁deal	-9.70625
▁al	-9.70774
▁task	-9.70878
▁ones	-9.70896
▁referred	-9.71035
▁injury	-9.7117
▁hair	-9.713
▁legal	-9.71354
▁generation	-9.71397
▁easier	-9.71403
▁nothing	-9.71474
org	-9.71478
▁London	-9.71523
▁factor	-9.71662
▁road	-9.7169
▁appears	-9.71699
▁travel	-9.71823
▁Museum	-9.71966
▁figure	-9.71979
▁buildings	-9.71982
▁demand	-9.72015
▁+	-9.72025
▁seeds	-9.72043
▁capital	-9.72084
▁son	-9.72092
▁male	-9.72179
▁organic	-9.72276
▁highest	-9.72286
▁n	-9.72294
▁giving	-9.72465
▁release	-9.72592
▁bottom	-9.72652
▁chance	-9.72687
▁context	-9.72764
▁wild	-9.72888
of	-9.729
▁involves	-9.72907
▁goals	-9.72919
▁rare	-9.72983
▁cycle	-9.72993
▁happens	-9.73066
▁concepts	-9.73113
▁ocean	-9.7317
▁choice	-9.73188
▁eventually	-9.73263
▁eight	-9.73293
▁affects	-9.7337
▁grade	-9.73446
▁existing	-9.73484
▁Re	-9.73513
▁Japan	-9.73597
▁atmosphere	-9.73641
▁b	-9.7367
▁status	-9.73692
▁fields	-9.7377
▁describe	-9.7382
▁Western	-9.73827
▁fully	-9.7385
▁William	-9.73885
▁degrees	-9.73893
▁radiation	-9.73923
▁treated	-9.73947
▁Are	-9.73981
▁Greek	-9.74023
▁exactly	-9.74151
▁Society	-9.74346
▁Association	-9.74399
▁challenge	-9.74415
▁sub	-9.74504
▁progress	-9.74515
▁chemicals	-9.74638
▁layer	-9.74702
▁allowed	-9.74739
▁presence	-9.74747
▁capacity	-9.74826
▁dangerous	-9.75191
▁lived	-9.75262
▁mission	-9.75267
▁pattern	-9.75305
▁passed	-9.75354
▁commercial	-9.75374
▁pages	-9.75387
▁tooth	-9.75472
▁island	-9.75531
▁linked	-9.75533
▁heavy	-9.75672
▁square	-9.75775
it	-9.76064
▁cross	-9.76066
▁income	-9.7627
▁records	-9.7633
▁store	-9.76661
▁speech	-9.76667
▁mostly	-9.7668
▁characteristics	-9.76694
▁separate	-9.76735
▁aspects	-9.76816
▁Mexico	-9.76819
▁covered	-9.76901
▁presented	-9.76902
▁changing	-9.76914
▁Jewish	-9.7697
▁starting	-9.76987
▁See	-9.77039
▁root	-9.77152
▁carry	-9.77181
ia	-9.77214
▁Choosing	-9.77223
▁sign	-9.77226
▁numerous	-9.77297
▁college	-9.77345
▁Maintaining	-9.77368
▁urban	-9.77445
▁annual	-9.77504
▁Sea	-9.77527
▁frequently	-9.77528
▁flowers	-9.77562
▁vegetables	-9.77652
5	-9.77667
▁upper	-9.77717
▁strength	-9.77821
▁vitamin	-9.7785
▁electrical	-9.77939
▁note	-9.78059
▁nuclear	-9.78074
▁significantly	-9.78194
▁House	-9.78203
▁connected	-9.78238
v	-9.78247
▁ten	-9.78271
▁Protecting	-9.78302
▁hearing	-9.7836
▁definition	-9.78381
▁hope	-9.78467
In	-9.78541
▁Items	-9.78573
▁church	-9.78615
▁resistance	-9.78705
▁mid	-9.78837
▁perhaps	-9.78845
▁combination	-9.78921
▁letter	-9.78923
▁Teeth	-9.78943
▁feed	-9.78961
▁finding	-9.78972
▁James	-9.79106
▁options	-9.79112
▁visual	-9.7918
ist	-9.79239
day	-9.79247
▁literature	-9.79307
▁plans	-9.7948
▁gave	-9.79544
▁Q	-9.79725
▁northern	-9.7973
▁gets	-9.7995
▁direction	-9.80138
at	-9.80272
▁Church	-9.8032
▁anxiety	-9.80369
▁apply	-9.80407
▁Japanese	-9.80419
▁bird	-9.80424
▁Space	-9.80482
▁24	-9.80538
▁suggest	-9.80588
▁carried	-9.80592
forum	-9.80614
▁Good	-9.80644
▁extra	-9.80682
▁eggs	-9.80683
▁Texas	-9.80724
▁Asia	-9.80756
▁HIV	-9.80795
u	-9.80815
▁southern	-9.80862
▁target	-9.80895
▁breast	-9.80905
▁remove	-9.80937
▁instance	-9.80978
▁storage	-9.81029
▁George	-9.81136
▁film	-9.8125
▁notes	-9.81283
▁reality	-9.81312
▁warm	-9.81398
▁homes	-9.8148
▁resulting	-9.81581
▁yellow	-9.81603
▁classes	-9.81609
▁core	-9.81635
▁glass	-9.81668
▁price	-9.81956
▁discuss	-9.82093
▁Project	-9.82113
▁Technology	-9.82189
▁gene	-9.82214
▁academic	-9.82291
▁60	-9.82294
8	-9.82295
▁heard	-9.82307
▁exist	-9.8231
▁begins	-9.82328
▁meat	-9.82355
▁d	-9.82361
▁Make	-9.82385
▁centuries	-9.82476
▁populations	-9.82488
▁setting	-9.82492
▁reducing	-9.82496
▁David	-9.82501
▁exposed	-9.82511
▁rock	-9.82519
▁document	-9.82545
▁curriculum	-9.82558
▁Or	-9.82774
▁muscles	-9.82865
▁Both	-9.82926
▁properly	-9.83012
▁drinking	-9.83086
▁aware	-9.83199
▁industrial	-9.83353
▁refers	-9.83558
▁System	-9.83714
▁drive	-9.83797
related	-9.83804
▁conservation	-9.83927
▁iron	-9.83952
▁board	-9.83965
▁moved	-9.8404
▁electric	-9.84134
▁Professor	-9.84202
▁Trimming	-9.84215
▁anyone	-9.84232
▁Moisturizing	-9.84347
▁Nails	-9.84351
▁emotional	-9.84471
▁sustainable	-9.84486
▁mainly	-9.84542
▁requirements	-9.84553
▁nutrients	-9.84562
▁awareness	-9.84615
▁staff	-9.84618
▁journal	-9.84695
▁continued	-9.84863
▁office	-9.84923
▁forward	-9.84948
▁Development	-9.84979
by	-9.85006
▁Energy	-9.85021
▁helping	-9.85035
▁hear	-9.85274
▁assessment	-9.85344
V	-9.85471
▁languages	-9.85521
▁2012	-9.85537
▁statement	-9.85591
▁survey	-9.85628
▁essay	-9.85635
▁fight	-9.85664
▁foot	-9.85686
▁participants	-9.85784
▁serve	-9.85813
▁die	-9.85875
▁volume	-9.85882
▁himself	-9.85908
▁reference	-9.85913
▁km	-9.8593
less	-9.85968
▁wrong	-9.86113
▁observed	-9.86113
▁Red	-9.86178
▁discussion	-9.86262
▁distribution	-9.86302
▁Journal	-9.86337
▁depending	-9.86418
▁advanced	-9.86425
▁violence	-9.86564
de	-9.86592
▁risks	-9.86714
▁Clean	-9.86823
ation	-9.86892
▁Island	-9.87031
▁Researchers	-9.87135
▁perfect	-9.87147
▁wall	-9.87153
old	-9.87153
▁vital	-9.87183
▁tips	-9.87262
W	-9.87407
▁topics	-9.87449
▁Therefore	-9.87541
▁organizations	-9.87572
▁surgery	-9.87606
▁pieces	-9.87691
▁connection	-9.8775
▁star	-9.87769
▁Learn	-9.87787
▁0	-9.87801
▁pass	-9.87879
▁promote	-9.87995
▁experienced	-9.87999
▁De	-9.88021
▁Just	-9.88125
▁Medicine	-9.88188
▁amounts	-9.88234
▁clinical	-9.88274
▁race	-9.88278
▁gender	-9.88385
▁feeling	-9.88414
▁Human	-9.88458
▁facts	-9.88572
-19	-9.88665
▁beautiful	-9.88694
▁looks	-9.88696
▁alternative	-9.88857
ton	-9.88874
▁gold	-9.88957
▁solutions	-9.89199
▁performed	-9.89284
▁spent	-9.89284
▁Web	-9.89302
▁primarily	-9.89317
▁represent	-9.89362
▁actual	-9.89374
▁Temperature	-9.89429
▁latest	-9.89448
▁surrounding	-9.89536
▁sample	-9.89619
▁et	-9.89632
▁wanted	-9.89632
▁relationships	-9.8976
▁http	-9.8976
▁deaths	-9.89828
▁message	-9.89865
▁immediately	-9.89932
▁slow	-9.89973
▁processing	-9.89999
▁habitat	-9.90105
▁taught	-9.90145
▁particles	-9.90197
▁recorded	-9.90197
▁consists	-9.90637
▁stars	-9.90731
▁explains	-9.90735
▁former	-9.90762
▁principles	-9.90784
▁leaders	-9.90794
▁sounds	-9.90822
▁efficient	-9.90858
▁Congress	-9.90932
▁Civil	-9.90942
▁ready	-9.90945
▁dead	-9.91024
time	-9.91026
▁White	-9.91117
▁helped	-9.91164
▁vaccine	-9.91173
▁1,	-9.91269
▁recommended	-9.91317
no	-9.91387
▁display	-9.91416
▁failure	-9.91468
▁Lake	-9.91599
▁creation	-9.91653
▁served	-9.91654
▁articles	-9.91717
le	-9.918
▁contribute	-9.91949
▁Women	-9.92
▁fresh	-9.9205
▁moon	-9.92122
▁operations	-9.92196
▁path	-9.92221
▁turned	-9.92224
▁Don	-9.92284
▁Central	-9.92315
▁letters	-9.92344
rs	-9.92382
▁leads	-9.92417
▁reaction	-9.92452
▁liquid	-9.92461
▁Google	-9.92467
▁lessons	-9.92513
▁farmers	-9.92626
▁killed	-9.9265
▁impacts	-9.92688
▁joint	-9.92742
▁concern	-9.92778
▁grown	-9.92789
▁interested	-9.92797
”.	-9.92852
▁Britain	-9.92957
▁vehicle	-9.92966
▁Pacific	-9.93147
▁discovery	-9.93198
▁focused	-9.93251
▁THE	-9.93411
▁spend	-9.93412
▁Sun	-9.93424
www	-9.93442
▁inches	-9.93493
▁conflict	-9.93532
▁Service	-9.93571
▁colors	-9.9358
▁Environmental	-9.93632
▁worldwide	-9.93653
▁studied	-9.93804
▁effectively	-9.93816
▁internal	-9.93828
▁previously	-9.93847
▁flu	-9.93895
▁feature	-9.93912
▁dental	-9.94011
▁links	-9.94129
▁moment	-9.94138
▁Latin	-9.94152
▁ages	-9.94166
▁genes	-9.94204
▁Like	-9.94357
▁Every	-9.94357
▁efficiency	-9.94463
▁hundreds	-9.94465
▁poverty	-9.94532
▁internet	-9.94768
▁stone	-9.948
▁box	-9.94842
▁fear	-9.94889
▁extreme	-9.94916
▁fruits	-9.94947
▁tasks	-9.94989
▁diagnosis	-9.95012
▁enjoy	-9.95028
▁faster	-9.95042
▁independent	-9.95141
▁encourage	-9.95182
▁origin	-9.95195
▁roots	-9.95293
▁initial	-9.95303
▁background	-9.95361
▁collected	-9.95497
▁crops	-9.95513
▁Program	-9.95585
▁Information	-9.95714
▁Thus	-9.9576
▁Step	-9.95771
ion	-9.95779
▁engine	-9.95794
▁Christian	-9.95811
▁Its	-9.95841
▁Life	-9.96001
▁sexual	-9.96037
▁emergency	-9.9604
▁Please	-9.96051
▁meeting	-9.961
▁computers	-9.96105
▁agricultural	-9.9618
▁enter	-9.96186
▁tiny	-9.96297
▁host	-9.9631
▁oral	-9.96364
▁morning	-9.96451
▁practical	-9.96476
▁infected	-9.96532
▁Safe	-9.96557
▁civil	-9.96614
▁coast	-9.96639
▁divided	-9.96768
▁girls	-9.96769
▁Council	-9.96772
▁Have	-9.96787
▁please	-9.96802
▁manage	-9.96861
▁units	-9.96863
▁west	-9.96868
▁fine	-9.96965
▁track	-9.96993
▁liver	-9.97017
▁decided	-9.97049
▁hour	-9.97191
▁career	-9.97193
▁multi	-9.97267
▁click	-9.97284
▁removed	-9.97386
▁element	-9.97429
▁injuries	-9.97575
▁kinds	-9.97598
▁draw	-9.97713
▁solid	-9.97773
▁citizens	-9.978
▁determined	-9.97806
▁foreign	-9.97912
▁2010	-9.98062
▁increasingly	-9.98099
▁visible	-9.98153
▁characters	-9.98263
▁biological	-9.98297
▁brown	-9.98307
▁2013	-9.98335
▁o	-9.98558
▁threat	-9.98672
▁coal	-9.98693
one	-9.98706
▁official	-9.98764
▁concerns	-9.98822
J	-9.98827
▁aid	-9.98848
▁situations	-9.98904
▁introduction	-9.99104
▁showing	-9.99133
▁speak	-9.99142
for	-9.99244
▁signal	-9.9941
▁fluid	-9.99544
▁Middle	-9.9976
▁stand	-9.99865
▁continues	-9.99967
▁completed	-9.99971
▁warming	-9.99997
▁driving	-10.0001
▁policies	-10.0002
▁familiar	-10.0004
▁relevant	-10.0018
▁bones	-10.0027
▁output	-10.0035
▁wildlife	-10.0036
▁allowing	-10.0038
▁clearly	-10.0042
▁typical	-10.0045
▁4.	-10.0049
▁screen	-10.0049
▁millions	-10.0049
um	-10.0051
▁credit	-10.0062
▁component	-10.007
▁intended	-10.0072
▁inflammation	-10.0074
▁pregnancy	-10.0076
▁east	-10.0079
▁onto	-10.0086
▁authors	-10.0091
▁cent	-10.0092
▁formation	-10.0096
▁operating	-10.01
▁specifically	-10.0108
▁height	-10.0111
▁files	-10.0113
▁purposes	-10.0135
▁landscape	-10.0136
▁stem	-10.0139
ian	-10.014
▁crucial	-10.015
▁CO	-10.0151
▁phone	-10.0154
▁combined	-10.0175
▁director	-10.0181
▁aren	-10.0182
▁attacks	-10.0183
▁Florida	-10.0188
z	-10.0198
▁Art	-10.02
▁consequences	-10.0221
▁novel	-10.0223
▁Mars	-10.0226
▁motor	-10.0235
▁Green	-10.0238
▁phase	-10.0242
▁looked	-10.0242
▁expression	-10.0243
▁largely	-10.0245
▁regarding	-10.0248
▁evolution	-10.0268
▁playing	-10.0268
▁played	-10.028
▁syndrome	-10.0281
▁religion	-10.0292
▁limit	-10.0296
▁potentially	-10.0302
▁naturally	-10.0307
▁ear	-10.0317
▁improved	-10.0319
▁frequency	-10.0334
▁western	-10.0334
▁Book	-10.0335
▁Thomas	-10.0337
▁fit	-10.0339
▁cat	-10.034
▁Government	-10.0343
▁procedure	-10.0363
▁forests	-10.0365
▁marine	-10.0368
▁abuse	-10.0369
▁freedom	-10.0372
▁agriculture	-10.0372
▁fundamental	-10.038
▁samples	-10.0388
▁2011	-10.039
▁Heart	-10.0409
▁seed	-10.0409
▁cognitive	-10.0413
▁Those	-10.0416
▁email	-10.0418
▁indicate	-10.0429
▁Air	-10.0434
▁respect	-10.0435
▁double	-10.0435
▁voice	-10.0437
▁drink	-10.0438
▁mobile	-10.0439
▁200	-10.0446
▁rural	-10.045
▁subjects	-10.0452
▁operation	-10.0456
see	-10.0457
▁greatest	-10.0462
▁walk	-10.0464
▁Co	-10.0465
▁Despite	-10.0467
▁Old	-10.0469
▁jobs	-10.0476
▁childhood	-10.0482
▁parent	-10.0482
▁rapidly	-10.0485
▁salt	-10.0491
▁Click	-10.0492
▁measured	-10.0492
▁motion	-10.0497
▁substance	-10.05
▁treatments	-10.0501
▁tax	-10.0502
▁keeping	-10.0508
▁relative	-10.0511
▁buy	-10.0514
6	-10.0514
▁Instead	-10.052
▁kept	-10.052
▁Disease	-10.0521
▁Studies	-10.0521
▁block	-10.0521
▁Library	-10.0531
▁suffer	-10.0534
▁La	-10.0536
▁Help	-10.0549
▁vary	-10.0553
▁attempt	-10.0558
▁residents	-10.0587
▁insects	-10.0591
▁Care	-10.0591
▁harmful	-10.0603
▁radio	-10.0604
▁court	-10.0623
▁Who	-10.0628
▁soft	-10.0631
▁Early	-10.0649
na	-10.0655
▁Yet	-10.0658
▁Services	-10.0665
line	-10.068
▁constant	-10.0681
▁hit	-10.0693
▁tested	-10.0697
▁saying	-10.07
▁experiment	-10.0716
▁proteins	-10.072
▁technical	-10.0723
land	-10.0734
▁lose	-10.0738
▁describes	-10.0739
▁walls	-10.0741
▁leader	-10.0741
▁Virginia	-10.0747
▁Nature	-10.0749
▁vast	-10.0751
▁Climate	-10.0752
▁massive	-10.0756
▁decisions	-10.0757
▁accurate	-10.0758
▁prior	-10.0761
▁slightly	-10.0762
▁originally	-10.0771
▁diverse	-10.0774
▁president	-10.0783
▁Bay	-10.0792
▁decade	-10.0795
▁Mary	-10.0796
▁explained	-10.08
▁battle	-10.0822
▁option	-10.0825
▁charge	-10.0826
▁else	-10.0827
▁appearance	-10.0827
▁photo	-10.0833
▁occurred	-10.0838
▁excellent	-10.0839
▁king	-10.0845
▁periods	-10.0846
▁Native	-10.0852
▁strategy	-10.0856
▁Bible	-10.0863
▁Scientists	-10.0864
▁vehicles	-10.0865
▁Language	-10.0871
▁raised	-10.0875
▁cars	-10.0883
);	-10.089
▁studying	-10.091
=	-10.0912
▁represents	-10.0918
▁chapter	-10.0919
▁Israel	-10.092
▁perspective	-10.0921
▁prepared	-10.0933
▁containing	-10.0939
▁suffering	-10.0941
▁greenhouse	-10.0954
▁finally	-10.0954
▁News	-10.0962
▁prepare	-10.0964
▁pet	-10.0965
▁starts	-10.0967
▁reduction	-10.0971
▁ship	-10.098
▁advantage	-10.0981
▁worth	-10.0983
▁Take	-10.0985
▁farm	-10.0985
▁Products	-10.099
▁f	-10.0996
▁Lord	-10.1
▁generate	-10.1003
▁normally	-10.1005
▁protected	-10.101
▁electronic	-10.1012
▁identity	-10.1015
▁crisis	-10.1019
▁meant	-10.1031
▁crop	-10.104
▁solve	-10.1041
▁noted	-10.1042
▁Monitoring	-10.1046
▁sex	-10.1047
▁youth	-10.1047
▁Foundation	-10.105
▁depends	-10.105
▁ideal	-10.1054
▁command	-10.1055
▁reached	-10.1072
▁Grade	-10.1079
▁transport	-10.109
▁Following	-10.1091
▁watch	-10.1093
▁thoughts	-10.1098
▁send	-10.1098
▁era	-10.1101
▁monitoring	-10.1109
el	-10.1109
ization	-10.1112
▁cool	-10.1114
▁creative	-10.1116
▁feelings	-10.1117
▁recognized	-10.1121
▁Part	-10.1124
▁proposed	-10.1136
▁portion	-10.1158
▁survive	-10.1161
▁library	-10.1162
▁title	-10.1187
ie	-10.1196
▁talking	-10.121
▁closely	-10.1211
▁valuable	-10.1212
▁obesity	-10.1218
▁diversity	-10.1222
▁Paul	-10.1227
▁80	-10.1227
▁rain	-10.1237
▁couple	-10.1239
▁helpful	-10.1242
▁despite	-10.1245
▁print	-10.125
w	-10.1253
▁ball	-10.1255
▁Charles	-10.1259
▁Storage	-10.1262
▁manufacturing	-10.1267
▁Robert	-10.1268
▁prevention	-10.127
▁toxic	-10.1271
▁producing	-10.1272
▁Nations	-10.1279
▁party	-10.1287
▁waves	-10.129
▁recognize	-10.1291
te	-10.1291
▁institutions	-10.1292
▁truth	-10.1303
▁pictures	-10.1312
▁Injury	-10.1314
▁forced	-10.1315
ry	-10.1316
▁Special	-10.1319
▁Cancer	-10.1325
▁programming	-10.1329
▁manner	-10.1332
▁raise	-10.1338
▁stages	-10.134
▁rapid	-10.1351
▁diagnosed	-10.1363
▁external	-10.1369
▁happened	-10.1371
▁flight	-10.1386
▁broad	-10.1386
+	-10.1389
▁stored	-10.1402
▁pretty	-10.1409
▁stroke	-10.141
▁contrast	-10.1414
▁sector	-10.1416
men	-10.1435
▁hundred	-10.1444
▁friend	-10.1448
▁answers	-10.1448
▁input	-10.1449
▁floor	-10.1451
▁format	-10.1456
nd	-10.1457
▁Her	-10.1457
▁Last	-10.146
▁Global	-10.1468
▁Spread	-10.1474
▁dioxide	-10.1486
▁Techniques	-10.1506
▁comprehensive	-10.1508
▁sports	-10.1511
▁claim	-10.1513
▁intelligence	-10.1525
▁traffic	-10.1527
▁22	-10.1529
▁Area	-10.1529
▁businesses	-10.1535
▁sky	-10.1536
".	-10.1539
▁documents	-10.154
▁cm	-10.1542
▁nations	-10.1547
▁cholesterol	-10.1549
▁quick	-10.1558
▁Eyes	-10.1563
▁expect	-10.158
▁tradition	-10.1581
▁park	-10.1581
▁blog	-10.1582
▁lab	-10.1582
▁offered	-10.1587
▁Henry	-10.159
▁spot	-10.1595
▁Where	-10.1598
▁approaches	-10.1602
▁labor	-10.1611
▁Time	-10.1615
ized	-10.1621
▁survival	-10.1622
ar	-10.1623
▁peace	-10.1624
▁regularly	-10.1627
▁maximum	-10.163
▁follows	-10.1632
▁molecules	-10.1637
▁adding	-10.1642
▁aim	-10.1642
▁controlled	-10.1653
▁steel	-10.1654
▁Jews	-10.166
▁plays	-10.1661
▁nerve	-10.1664
▁readers	-10.1664
▁drawing	-10.1665
▁Natural	-10.1669
▁respond	-10.1672
▁Sometimes	-10.1676
▁decline	-10.1683
▁presentation	-10.1689
▁g	-10.1694
▁officials	-10.1711
▁fossil	-10.173
▁dust	-10.174
▁stomach	-10.1741
▁movements	-10.1742
▁revealed	-10.1745
▁seek	-10.1745
▁doctors	-10.1749
▁Year	-10.1758
▁Australian	-10.1758
▁capable	-10.176
▁concerned	-10.1776
▁Though	-10.1779
▁supported	-10.1782
▁facilities	-10.1784
▁Shared	-10.1792
▁selected	-10.18
▁otherwise	-10.1805
▁met	-10.1812
co	-10.1814
▁sides	-10.1818
▁extent	-10.1822
▁Through	-10.1822
▁Mr	-10.1823
▁snow	-10.1841
▁battery	-10.1844
▁refer	-10.1846
▁universe	-10.1846
▁produces	-10.1865
os	-10.1881
▁leaving	-10.1884
▁drop	-10.1885
▁existence	-10.1901
▁Law	-10.1902
▁vessels	-10.1903
▁v	-10.1903
▁Only	-10.1904
▁Access	-10.1905
▁felt	-10.1908
▁unknown	-10.1912
▁Well	-10.1926
▁whom	-10.1926
▁infrastructure	-10.1926
▁Canadian	-10.1932
▁sets	-10.1936
▁Student	-10.1943
▁70	-10.1945
▁outcomes	-10.195
▁colleagues	-10.1951
▁advice	-10.1953
▁figures	-10.1954
▁speaking	-10.1967
ling	-10.1969
which	-10.197
▁Army	-10.1981
▁improving	-10.1981
▁twice	-10.1988
▁mentioned	-10.1995
▁Touching	-10.1996
▁detail	-10.1996
▁biggest	-10.2005
▁Right	-10.2007
▁village	-10.2008
▁domestic	-10.2008
▁decrease	-10.2012
▁communicate	-10.2014
▁foundation	-10.2015
▁fever	-10.2015
▁sensitive	-10.2017
▁corn	-10.2019
▁flat	-10.2022
▁discussed	-10.203
▁concentration	-10.2035
▁signals	-10.2038
▁Rights	-10.2039
▁Cross	-10.2059
▁minimum	-10.206
▁responsibility	-10.207
▁architecture	-10.2074
▁legs	-10.2075
▁medications	-10.2087
▁sort	-10.2089
▁notice	-10.2091
▁thin	-10.2116
▁nutrition	-10.2119
▁Types	-10.2125
▁breathing	-10.2139
▁nine	-10.2141
▁environments	-10.2144
▁wear	-10.2149
▁camera	-10.2153
▁certainly	-10.2153
▁detect	-10.2155
▁experiments	-10.2155
▁window	-10.2161
▁BC	-10.2161
▁edge	-10.2165
▁Russia	-10.2166
▁Court	-10.2174
▁Second	-10.2182
▁guidelines	-10.2188
▁everyday	-10.2189
free	-10.2192
▁Find	-10.2192
▁Study	-10.2195
▁governments	-10.2197
▁networks	-10.22
▁sand	-10.2217
▁Properly	-10.2224
▁Floss	-10.2228
▁procedures	-10.2229
▁Local	-10.2229
▁round	-10.2233
▁Caring	-10.2239
▁fiber	-10.224
▁transfer	-10.2243
▁babies	-10.2243
▁bright	-10.2246
▁sold	-10.2248
▁Y	-10.2248
▁aircraft	-10.2249
▁creates	-10.2255
ch	-10.2257
▁straight	-10.2259
▁intake	-10.2272
▁goods	-10.2274
▁OF	-10.2274
▁generated	-10.2279
▁Egypt	-10.2284
▁expensive	-10.2285
▁Christ	-10.2299
▁shall	-10.2304
▁Nasal	-10.2305
▁chain	-10.2317
▁covers	-10.2317
▁symbol	-10.2323
▁micro	-10.2326
▁medium	-10.2326
▁organisms	-10.2328
▁worse	-10.233
▁healthcare	-10.2331
▁listed	-10.2337
▁hospital	-10.2343
son	-10.2344
▁press	-10.235
▁suggested	-10.235
▁Southern	-10.2357
▁nor	-10.2357
▁Sanitizer	-10.2358
▁Type	-10.2367
ally	-10.2369
▁extensive	-10.2369
▁Tissues	-10.2371
▁mountain	-10.238
▁coffee	-10.2386
▁household	-10.2387
▁station	-10.2387
▁journey	-10.2392
▁Federal	-10.2395
▁Such	-10.2411
▁Russian	-10.2411
▁Germs	-10.2412
▁lots	-10.2416
▁Free	-10.2417
▁filled	-10.2421
▁audience	-10.2421
▁card	-10.2428
▁distinct	-10.2431
▁Note	-10.2434
▁district	-10.2436
▁appeared	-10.2441
▁derived	-10.2442
▁tells	-10.2443
▁Get	-10.2446
▁kill	-10.2449
▁23	-10.2452
ne	-10.2453
▁Disinfecting	-10.2454
▁remained	-10.246
▁prices	-10.2463
un	-10.2465
▁Coughing	-10.2479
▁stands	-10.2481
▁artificial	-10.2497
▁Drying	-10.2504
▁cats	-10.2517
▁walking	-10.2518
▁lifestyle	-10.2526
▁raw	-10.2526
▁emotions	-10.2545
▁tea	-10.2552
▁professionals	-10.2554
▁select	-10.2555
▁cutting	-10.2556
▁choices	-10.256
▁hydrogen	-10.257
▁establish	-10.2571
▁secondary	-10.2578
▁horse	-10.2579
▁Carolina	-10.2583
age	-10.2585
▁smoke	-10.2587
▁Northern	-10.2591
▁calories	-10.2611
▁connect	-10.2615
▁slowly	-10.2617
▁tried	-10.2632
▁touch	-10.2633
▁broken	-10.264
▁Ireland	-10.2641
▁examine	-10.2644
▁wave	-10.2645
▁monitor	-10.2651
▁engage	-10.2658
▁Reading	-10.2664
▁bank	-10.2669
ment	-10.2678
▁2009	-10.2686
▁smoking	-10.2691
▁acids	-10.2694
▁machines	-10.2697
▁skill	-10.2698
▁laboratory	-10.27
▁Among	-10.2706
ta	-10.2708
▁rising	-10.271
▁Press	-10.2716
▁reflect	-10.272
ma	-10.2725
▁justice	-10.2726
▁magnetic	-10.2727
▁Congestion	-10.2731
▁younger	-10.2733
▁courses	-10.2733
▁eastern	-10.2738
ate	-10.2739
▁cultures	-10.274
▁instruction	-10.274
▁Ocean	-10.2741
▁cloud	-10.2742
rd	-10.2752
▁90	-10.2759
▁physics	-10.2764
▁enable	-10.2772
▁Valley	-10.2787
▁beneficial	-10.2792
▁Republic	-10.2795
▁adopted	-10.2799
▁accounts	-10.2809
▁brief	-10.2812
▁26	-10.2815
▁Contact	-10.2822
▁maps	-10.2823
▁lung	-10.2823
X	-10.2829
▁viruses	-10.2831
▁Does	-10.2843
▁calcium	-10.2844
▁neck	-10.2844
▁copy	-10.2845
▁suitable	-10.2846
▁transportation	-10.2849
▁remote	-10.2853
▁Others	-10.2861
▁substances	-10.2862
▁framework	-10.2866
▁sentence	-10.287
▁bed	-10.287
▁closer	-10.2874
▁28	-10.2885
▁founded	-10.2892
▁opening	-10.2899
▁cards	-10.2916
▁understood	-10.2919
▁Man	-10.292
▁enhance	-10.2921
▁permanent	-10.2929
▁server	-10.2936
▁meters	-10.2942
▁successfully	-10.2944
▁reader	-10.2946
▁renewable	-10.295
▁houses	-10.2956
▁Unfortunately	-10.2961
▁Age	-10.2962
▁trial	-10.2964
▁launched	-10.2966
▁colour	-10.2969
▁locations	-10.297
▁rivers	-10.2972
▁transmission	-10.2974
▁difficulty	-10.2975
▁Z	-10.2976
▁description	-10.2981
▁Group	-10.2987
▁painting	-10.2996
▁possibly	-10.2996
▁satellite	-10.2996
▁sequence	-10.3004
▁depth	-10.3005
ine	-10.3008
▁historic	-10.3013
▁UN	-10.3017
▁organs	-10.3019
▁returned	-10.3019
▁nearby	-10.3024
▁struggle	-10.3027
▁knew	-10.3027
out	-10.3029
▁Home	-10.3032
▁closed	-10.3037
▁vulnerable	-10.3038
▁opened	-10.305
▁grew	-10.3051
▁hole	-10.3065
▁Paris	-10.3065
▁consumers	-10.3068
10	-10.3069
▁army	-10.3072
▁turns	-10.3077
▁exchange	-10.308
▁medication	-10.3083
▁Resources	-10.3098
▁opposite	-10.3105
▁Under	-10.3109
▁sheet	-10.3109
▁conventional	-10.3123
?”	-10.313
▁soldiers	-10.3131
▁Healthy	-10.3136
▁inner	-10.3136
▁fewer	-10.314
▁composition	-10.314
▁harm	-10.3141
▁principle	-10.3142
▁minerals	-10.3146
▁usage	-10.3149
U	-10.315
▁define	-10.3157
▁debate	-10.3157
▁dedicated	-10.3159
▁compounds	-10.317
▁instrument	-10.3172
scale	-10.3178
▁egg	-10.3187
▁Un	-10.3193
▁organized	-10.3193
▁regional	-10.3193
▁tissues	-10.3207
▁campaign	-10.3211
▁shapes	-10.3212
ists	-10.3213
▁Post	-10.3224
▁calls	-10.3225
▁taste	-10.323
▁recovery	-10.3237
▁aims	-10.3243
▁involve	-10.3244
▁focuses	-10.3245
▁behaviour	-10.3259
▁seeing	-10.3263
▁supplies	-10.327
▁obtained	-10.327
▁2016	-10.3273
▁feeding	-10.3288
▁obvious	-10.3296
▁Chapter	-10.3299
▁Catholic	-10.3302
7	-10.3303
▁investment	-10.3304
▁fly	-10.3315
▁assess	-10.3317
▁coastal	-10.3322
▁flower	-10.3323
▁Three	-10.3334
▁Guide	-10.3335
▁count	-10.3338
▁Keep	-10.3341
▁density	-10.3342
▁selection	-10.3343
▁apart	-10.3345
▁Academy	-10.3347
▁layers	-10.3357
▁entirely	-10.3359
▁except	-10.3359
▁lies	-10.3361
▁secure	-10.3361
▁attached	-10.3363
▁Al	-10.3365
▁instruments	-10.3373
▁authority	-10.3373
▁Spain	-10.3387
▁2000	-10.3388
▁Moon	-10.3391
▁Power	-10.3394
▁belief	-10.3398
▁fill	-10.3399
▁asthma	-10.3401
am	-10.3404
▁concrete	-10.3405
▁behaviors	-10.3409
▁AI	-10.3412
▁2008	-10.3414
▁wife	-10.3415
▁discover	-10.3418
▁scientist	-10.3425
▁mark	-10.3426
▁Open	-10.3437
▁instructions	-10.3441
▁indicates	-10.3443
▁Italy	-10.3444
▁exact	-10.3449
▁(1	-10.3455
▁employees	-10.3456
▁300	-10.3466
▁managed	-10.3473
▁impossible	-10.3477
▁Commission	-10.3485
▁circuit	-10.3487
▁arms	-10.349
known	-10.3491
▁Empire	-10.3498
▁university	-10.3502
▁interaction	-10.3504
▁Office	-10.3511
&	-10.3512
▁grass	-10.3521
▁Scheduling	-10.3521
▁Atlantic	-10.3524
called	-10.3528
▁claims	-10.3554
▁Results	-10.3554
▁agencies	-10.3561
▁paid	-10.3565
):	-10.3565
▁achieved	-10.3569
▁sharing	-10.3571
▁train	-10.3573
▁kidney	-10.3574
Y	-10.3582
▁noise	-10.3583
level	-10.3583
▁Land	-10.3586
▁bill	-10.3598
▁Eating	-10.3598
▁Body	-10.3602
▁zone	-10.3604
▁tropical	-10.3605
▁Alzheimer	-10.3605
▁storm	-10.3611
▁Long	-10.3614
What	-10.3618
▁thousand	-10.3637
▁acts	-10.3638
▁nose	-10.365
▁2015	-10.3653
▁damaged	-10.3654
▁stream	-10.3655
▁variable	-10.3656
▁El	-10.3658
▁collect	-10.3661
▁pounds	-10.3663
▁blocks	-10.3665
▁35	-10.367
0	-10.3672
▁Company	-10.3676
▁Wind	-10.3677
▁views	-10.368
▁conduct	-10.3682
▁decide	-10.3689
▁Sciences	-10.3693
▁Christmas	-10.3698
▁mathematics	-10.3703
▁mice	-10.3706
▁waters	-10.3719
▁aspect	-10.3734
▁Peter	-10.3735
▁funding	-10.3738
ies	-10.374
▁27	-10.3741
▁challenging	-10.3741
▁marked	-10.3742
▁Benefits	-10.3752
▁underlying	-10.3763
▁greatly	-10.3776
▁index	-10.378
▁#	-10.3786
▁extended	-10.3789
▁mixed	-10.3795
▁pick	-10.3802
▁Any	-10.3805
▁artists	-10.3807
▁remaining	-10.3808
et	-10.3809
▁burning	-10.3818
▁percentage	-10.3819
▁Course	-10.3819
▁leadership	-10.3827
▁equivalent	-10.3828
▁happy	-10.383
▁gap	-10.383
▁moisture	-10.3841
▁Change	-10.3849
▁500	-10.3853
▁leaf	-10.3859
▁accepted	-10.3859
▁literacy	-10.3861
▁islands	-10.3866
▁mechanism	-10.387
▁wants	-10.3871
▁zero	-10.3878
▁categories	-10.3879
▁insulin	-10.3881
9	-10.3889
▁drought	-10.3889
▁Agency	-10.3893
▁theme	-10.39
▁widespread	-10.3904
▁capture	-10.3907
▁virtual	-10.3907
▁participate	-10.3908
▁reactions	-10.3911
▁1990	-10.3924
▁faith	-10.3928
▁agency	-10.3936
▁load	-10.3956
▁announced	-10.3956
",	-10.3964
▁recommend	-10.3967
▁Windows	-10.3971
▁carefully	-10.3972
▁1960	-10.3973
ley	-10.398
▁expert	-10.3987
▁interests	-10.3995
▁formal	-10.3999
▁replace	-10.4
▁maintenance	-10.4011
▁Richard	-10.4023
▁Math	-10.4027
▁bridge	-10.4027
▁psychological	-10.4034
▁demonstrate	-10.4038
▁wasn	-10.404
▁Prevention	-10.4042
▁Big	-10.4043
▁independence	-10.4045
▁generations	-10.4056
▁wealth	-10.4057
▁arrived	-10.4067
▁museum	-10.4078
▁Family	-10.4088
▁2017	-10.4091
▁master	-10.4092
▁rocks	-10.4098
▁shift	-10.4099
▁smart	-10.4101
▁respiratory	-10.4102
▁territory	-10.4105
▁vocabulary	-10.4109
▁unable	-10.411
▁tall	-10.4116
▁replaced	-10.4116
▁giant	-10.4118
▁Royal	-10.4122
▁Kingdom	-10.4126
▁chosen	-10.4126
▁philosophy	-10.4128
▁estimates	-10.4141
▁pair	-10.4145
▁platform	-10.4146
▁oldest	-10.4149
▁5.	-10.4152
▁Martin	-10.4173
▁purchase	-10.4175
▁fair	-10.418
▁stated	-10.4184
▁favorite	-10.4201
▁joined	-10.4203
▁represented	-10.4204
▁biology	-10.4206
izing	-10.4208
▁Eastern	-10.4211
▁thick	-10.4214
▁nervous	-10.4215
▁connections	-10.4219
▁join	-10.422
▁truly	-10.4223
▁COVID	-10.423
ray	-10.4237
▁launch	-10.4242
▁mechanical	-10.425
▁players	-10.4253
▁observations	-10.4254
▁standing	-10.4255
▁Child	-10.4257
▁interactive	-10.4266
▁2014	-10.4274
▁industries	-10.4278
▁supporting	-10.4284
▁error	-10.4286
▁marriage	-10.4286
▁facing	-10.4287
▁arts	-10.4298
▁farming	-10.4299
▁Italian	-10.43
▁police	-10.4301
▁destroyed	-10.4307
▁obtain	-10.4307
if	-10.4321
▁accessible	-10.4323
▁learners	-10.4324
▁roughly	-10.4326
▁Kids	-10.4329
▁Michael	-10.4331
be	-10.4336
▁assist	-10.4336
la	-10.4339
▁breeding	-10.4343
▁marks	-10.4344
▁earliest	-10.4347
▁lake	-10.435
▁Columbia	-10.4353
▁researcher	-10.4359
▁app	-10.4374
▁fixed	-10.4376
▁trip	-10.4377
▁composed	-10.4377
▁supports	-10.4377
▁centre	-10.4378
▁county	-10.4381
▁frequent	-10.4381
▁putting	-10.4387
▁contained	-10.439
▁limits	-10.4392
▁glucose	-10.4404
▁angle	-10.4404
▁excess	-10.4407
▁writer	-10.4413
Z	-10.4419
▁phenomenon	-10.4434
▁surfaces	-10.4434
▁ultimately	-10.4437
▁mild	-10.4442
▁possibility	-10.4442
▁trained	-10.4453
▁ships	-10.4456
▁constructed	-10.4464
▁recognition	-10.4473
▁heating	-10.4473
▁border	-10.4482
▁Centre	-10.4482
▁circle	-10.4483
▁involving	-10.4483
If	-10.4487
▁string	-10.4498
▁Better	-10.4499
not	-10.4502
▁Irish	-10.4505
▁Engineering	-10.451
▁Plan	-10.451
▁compare	-10.4521
▁maintaining	-10.4523
▁persons	-10.4525
▁artist	-10.4527
▁objective	-10.4529
▁tube	-10.4532
▁characterized	-10.4538
▁collaboration	-10.4544
▁Exercise	-10.4553
▁Constitution	-10.4556
▁Which	-10.4556
▁mix	-10.4562
▁Rome	-10.4563
▁scene	-10.4566
▁voltage	-10.4566
▁immediate	-10.4568
▁fighting	-10.4569
▁1970	-10.4574
▁regulations	-10.4575
▁measurement	-10.4576
▁statistics	-10.4581
▁sections	-10.4583
▁missing	-10.4585
▁disaster	-10.4585
▁exists	-10.4586
▁owners	-10.4589
▁stable	-10.4589
▁Environment	-10.459
▁beliefs	-10.4594
▁ongoing	-10.4595
▁daughter	-10.4598
▁ends	-10.4601
▁engineers	-10.4609
▁ratio	-10.461
me	-10.4616
▁moral	-10.4619
▁department	-10.4622
▁gases	-10.4624
▁Did	-10.4627
▁Plant	-10.4628
▁gone	-10.4629
▁Diet	-10.4632
▁danger	-10.4634
▁bear	-10.4635
▁hormone	-10.4638
▁Symptoms	-10.4638
▁amazing	-10.4641
▁sunlight	-10.4648
▁autism	-10.4651
ra	-10.4663
il	-10.4664
▁comparison	-10.4667
▁parties	-10.4671
▁Brown	-10.4673
▁photos	-10.4676
▁ahead	-10.4679
▁issued	-10.4688
▁Street	-10.4694
▁turning	-10.4704
▁estimate	-10.4707
▁USA	-10.471
such	-10.4711
▁Joseph	-10.4712
▁unusual	-10.4718
▁unless	-10.4719
do	-10.4719
▁argument	-10.4721
▁runs	-10.4727
▁complicated	-10.4728
▁exercises	-10.4729
▁installed	-10.473
▁1980	-10.4731
▁printing	-10.4731
▁flag	-10.4733
▁evolved	-10.4735
▁brings	-10.4737
▁cooking	-10.4745
▁mining	-10.4745
▁Next	-10.4745
▁paint	-10.4747
▁breath	-10.4748
▁grows	-10.475
▁implementation	-10.4751
▁download	-10.4754
▁sufficient	-10.4756
▁bio	-10.4773
▁housing	-10.4777
▁consumer	-10.4781
▁meal	-10.4782
▁boys	-10.4782
▁trouble	-10.4784
▁evaluate	-10.4784
▁varieties	-10.4787
▁rice	-10.4796
▁outer	-10.4797
▁ecosystem	-10.4801
being	-10.4803
▁operate	-10.481
▁express	-10.4812
▁lungs	-10.4828
▁intervention	-10.4828
▁Without	-10.4832
▁Ohio	-10.4833
▁exam	-10.4836
▁educators	-10.4837
▁plate	-10.4838
▁pregnant	-10.484
▁assistance	-10.4844
▁Zealand	-10.4844
▁Whether	-10.4846
▁opinion	-10.4848
▁y	-10.486
▁tail	-10.4861
▁explanation	-10.4865
▁orbit	-10.4867
▁Content	-10.4868
▁chief	-10.4874
▁frame	-10.4881
▁settings	-10.4885
▁responses	-10.4885
▁Administration	-10.4885
▁administration	-10.4886
off	-10.4889
▁Solar	-10.4891
▁entry	-10.4893
▁Work	-10.4904
▁super	-10.4906
▁narrow	-10.4911
▁item	-10.4919
▁Chicago	-10.4924
▁ourselves	-10.4924
▁branches	-10.4935
▁resulted	-10.4935
▁agree	-10.4936
▁spending	-10.4939
▁crime	-10.4941
mm	-10.4944
▁array	-10.4954
▁song	-10.4956
▁clothing	-10.4959
id	-10.496
▁twenty	-10.4962
▁match	-10.4964
▁150	-10.4965
▁printed	-10.4969
▁Forest	-10.4969
▁bees	-10.4974
▁Conservation	-10.4975
▁preventing	-10.4976
▁Professional	-10.4977
▁chemistry	-10.4984
per	-10.4994
▁vote	-10.5002
▁minute	-10.5004
▁rarely	-10.5004
▁rely	-10.5007
▁door	-10.5012
▁th	-10.5012
▁dates	-10.5012
▁sick	-10.5015
▁grid	-10.5017
▁consume	-10.5022
▁consistent	-10.5024
▁drawn	-10.5032
▁theories	-10.5035
▁planets	-10.5036
▁females	-10.5043
▁evaluation	-10.5043
▁disabilities	-10.5045
▁Young	-10.5045
▁constantly	-10.5047
▁net	-10.5048
▁tons	-10.5049
▁plenty	-10.5064
▁Additionally	-10.5064
▁diameter	-10.5067
ner	-10.5073
▁stock	-10.5079
▁Academic	-10.5083
▁Asian	-10.5083
▁District	-10.5084
▁Mark	-10.5088
▁married	-10.509
▁presents	-10.5091
▁Word	-10.5102
▁occurring	-10.5105
▁agreement	-10.5105
ous	-10.5108
▁videos	-10.5113
▁holes	-10.5114
▁arm	-10.5118
▁Several	-10.5125
▁tank	-10.5132
▁mechanisms	-10.5138
▁2007	-10.5139
▁depend	-10.5147
▁catch	-10.5152
▁measurements	-10.5152
▁failed	-10.5154
▁Michigan	-10.5157
▁wet	-10.5162
▁Source	-10.5162
▁beauty	-10.5164
▁competition	-10.5167
▁vs	-10.5174
▁2019	-10.5176
▁circumstances	-10.5176
▁di	-10.5182
▁deliver	-10.5198
▁spiritual	-10.5199
▁sit	-10.5203
▁Smith	-10.5205
▁Board	-10.5211
▁bar	-10.5215
▁partners	-10.5215
ting	-10.5217
-1	-10.5217
▁holds	-10.5222
”,	-10.5225
▁Dictionary	-10.5226
▁Arctic	-10.523
▁Soviet	-10.523
▁route	-10.5232
▁confidence	-10.5232
▁bigger	-10.5233
▁lay	-10.5237
▁significance	-10.5244
▁males	-10.5245
▁conversation	-10.5246
▁computing	-10.5246
▁influenced	-10.5247
▁interactions	-10.5249
▁realize	-10.5252
▁Director	-10.5253
▁messages	-10.5254
▁AND	-10.5256
▁copper	-10.5256
▁transition	-10.5259
▁measuring	-10.5259
led	-10.526
▁spectrum	-10.5264
▁Community	-10.5264
▁visitors	-10.5267
▁resolution	-10.5269
▁holiday	-10.5277
▁inter	-10.5278
▁distributed	-10.528
▁wish	-10.5293
▁warning	-10.5299
▁trust	-10.5315
▁column	-10.5324
▁sweet	-10.5325
▁examined	-10.5343
▁lands	-10.5344
▁latter	-10.5349
ant	-10.5352
▁Colorado	-10.5353
▁thanks	-10.5356
▁intense	-10.5357
▁musical	-10.5359
▁advance	-10.5359
▁happening	-10.536
▁nitrogen	-10.5362
▁29	-10.5362
▁covering	-10.5363
▁Introduction	-10.5365
▁molecular	-10.5371
▁trauma	-10.5383
▁integrated	-10.5384
▁preparation	-10.5388
▁newly	-10.5389
▁moves	-10.539
▁edition	-10.5391
▁victims	-10.5391
▁ingredients	-10.5397
▁affecting	-10.5397
▁EU	-10.5401
▁leg	-10.5403
▁necessarily	-10.5404
▁publication	-10.5408
▁cleaning	-10.5412
▁Scotland	-10.5413
▁h	-10.5421
▁texts	-10.5421
▁Bank	-10.5423
▁expansion	-10.5424
▁politics	-10.5425
▁2,	-10.5426
▁feedback	-10.5431
▁Protection	-10.5432
▁imagine	-10.5436
▁Friday	-10.5436
use	-10.5438
▁prove	-10.5438
There	-10.5439
▁aged	-10.5442
▁Skin	-10.5444
▁Up	-10.5446
▁mineral	-10.545
▁reliable	-10.545
▁excessive	-10.545
▁mode	-10.5451
▁fairly	-10.5455
▁asking	-10.5464
▁functional	-10.547
▁reduces	-10.5471
▁innovative	-10.5472
▁listen	-10.5472
▁fell	-10.548
▁authorities	-10.5486
▁falls	-10.5487
▁fourth	-10.5489
▁poem	-10.5492
▁mood	-10.5495
▁legislation	-10.5498
▁delivery	-10.5507
da	-10.551
▁expressed	-10.5512
▁Writing	-10.5517
▁Finally	-10.5518
▁variables	-10.5519
▁minor	-10.5521
▁sensors	-10.5523
▁Guidelines	-10.5526
▁45	-10.5529
ca	-10.5545
▁trend	-10.5555
▁anywhere	-10.5558
▁division	-10.556
▁improvement	-10.556
▁1:	-10.5565
▁loved	-10.5566
▁grain	-10.5569
▁designs	-10.5572
▁listening	-10.5572
▁centers	-10.5585
▁inspired	-10.5588
▁whereas	-10.5597
▁fuels	-10.5606
▁formula	-10.5607
est	-10.5611
▁Monday	-10.5611
▁organ	-10.5618
▁advantages	-10.5621
▁mathematical	-10.5621
▁Georgia	-10.5624
▁mm	-10.5625
▁interact	-10.5632
▁creatures	-10.5634
▁facility	-10.5637
▁mortality	-10.5641
▁Unlike	-10.5646
▁discrimination	-10.5655
▁Revolution	-10.5658
American	-10.5659
▁ecosystems	-10.566
▁detection	-10.5666
way	-10.5669
▁entered	-10.5675
▁ended	-10.5676
▁r	-10.5678
▁burn	-10.5678
▁planting	-10.5682
▁2020	-10.5682
▁captured	-10.5682
▁shot	-10.5686
▁demonstrated	-10.5688
▁Digital	-10.5692
▁debt	-10.5693
▁audio	-10.5694
▁spacecraft	-10.5698
▁abilities	-10.5702
▁introduce	-10.5706
▁Wildlife	-10.5712
▁l	-10.5712
▁celebrated	-10.5713
▁Pre	-10.5715
▁screening	-10.5715
▁cancers	-10.5719
▁banks	-10.5721
▁Task	-10.5724
▁category	-10.5726
▁push	-10.5727
▁Back	-10.5728
long	-10.573
▁wonder	-10.574
▁indeed	-10.5743
▁contemporary	-10.5744
▁silver	-10.5755
ite	-10.5766
▁Product	-10.5777
▁passing	-10.5778
▁principal	-10.5783
▁roads	-10.5788
▁confirmed	-10.5791
▁serving	-10.5792
▁partner	-10.5793
▁biodiversity	-10.5793
▁Mar	-10.5795
▁peak	-10.5802
▁predict	-10.5808
▁prominent	-10.5809
▁employment	-10.5816
▁1950	-10.5823
:||	-10.5823
▁celebrate	-10.5823
▁declared	-10.5824
▁seconds	-10.5827
▁desire	-10.5831
▁acres	-10.5832
▁holding	-10.5832
▁television	-10.5843
▁slavery	-10.5843
▁plane	-10.5845
▁1)	-10.5846
▁wait	-10.5846
▁heritage	-10.5851
▁panels	-10.5851
▁domain	-10.5852
▁implications	-10.5854
▁vitamins	-10.5854
▁destruction	-10.5858
▁papers	-10.586
▁chest	-10.5862
▁gum	-10.5863
▁panel	-10.5866
▁fishing	-10.5866
▁guidance	-10.5872
her	-10.5876
▁weak	-10.5879
▁Sunday	-10.588
▁deeper	-10.588
▁player	-10.5884
▁senior	-10.5884
▁Areas	-10.5884
▁firm	-10.5886
▁sight	-10.5886
▁Jan	-10.5891
▁continuous	-10.5891
ur	-10.5892
▁Due	-10.5893
▁exciting	-10.5902
▁Market	-10.5905
▁Laboratory	-10.5906
▁exploration	-10.5906
▁Topics	-10.591
▁wine	-10.5915
▁examination	-10.5915
▁Report	-10.5917
▁batteries	-10.5921
▁recycling	-10.5922
▁proven	-10.5923
▁processed	-10.5926
▁dollars	-10.5927
▁TV	-10.5927
we	-10.593
▁w	-10.5939
▁roof	-10.594
▁receiving	-10.5945
▁analyze	-10.5947
▁2018	-10.5948
▁identifying	-10.5955
▁cardiovascular	-10.5956
▁threats	-10.5961
▁treating	-10.5966
▁brother	-10.597
▁street	-10.597
▁Fort	-10.5976
▁Understanding	-10.5979
▁Test	-10.5979
▁bringing	-10.5981
▁chart	-10.5992
▁Flight	-10.5994
▁horses	-10.5999
▁plus	-10.6003
▁la	-10.6011
so	-10.6012
▁(18	-10.6013
▁experiencing	-10.6016
▁Sugar	-10.6018
▁cooling	-10.6027
▁signed	-10.6028
▁Having	-10.6039
▁somewhat	-10.604
▁Indians	-10.6043
▁laser	-10.6046
li	-10.6046
▁branch	-10.6046
▁essentially	-10.6048
▁shaped	-10.6052
water	-10.6053
▁protecting	-10.6059
▁Doctor	-10.606
▁Bill	-10.6064
▁session	-10.6066
▁Review	-10.6068
▁carrying	-10.607
▁wire	-10.6078
▁decay	-10.6085
▁knows	-10.6085
▁dealing	-10.6098
▁participation	-10.6108
▁innovation	-10.6108
▁reveal	-10.6116
▁forming	-10.6125
including	-10.6126
▁Being	-10.6126
▁ill	-10.6127
▁globe	-10.6128
▁Will	-10.6132
▁worst	-10.6134
▁observe	-10.6135
▁Facebook	-10.6137
▁mountains	-10.614
▁port	-10.6141
▁caught	-10.6141
▁disability	-10.6143
▁escape	-10.6146
▁cup	-10.6152
all	-10.6152
he	-10.6158
▁lights	-10.6158
▁Committee	-10.6159
)|	-10.6163
▁Wikipedia	-10.6169
▁complications	-10.617
▁passage	-10.6178
▁band	-10.6178
▁indigenous	-10.6179
▁Hospital	-10.618
▁Agriculture	-10.6181
▁wheat	-10.6181
▁accuracy	-10.6181
▁trials	-10.6183
▁Class	-10.6187
▁pupils	-10.62
▁Speed	-10.6204
▁Hall	-10.6206
▁acute	-10.6211
▁tract	-10.6215
▁Often	-10.6218
▁Key	-10.6218
▁drivers	-10.6218
▁Survey	-10.6219
▁Off	-10.6221
▁Men	-10.6224
▁bacterial	-10.6229
▁expand	-10.6229
▁Times	-10.623
▁Vitamin	-10.6233
▁repair	-10.6235
▁consumed	-10.6238
▁hardware	-10.6243
▁considering	-10.6248
▁antibiotics	-10.625
▁recommendations	-10.6253
▁combat	-10.6253
▁budget	-10.6255
▁Network	-10.6258
▁en	-10.626
▁customers	-10.6261
▁temple	-10.6262
▁Performance	-10.6268
▁troops	-10.6269
▁difficulties	-10.627
▁modified	-10.6275
API	-10.6275
▁gained	-10.6275
ier	-10.628
▁traditions	-10.6284
▁adequate	-10.6285
▁lens	-10.629
▁faced	-10.629
but	-10.6293
▁score	-10.6294
▁usual	-10.6302
century	-10.6309
▁fatty	-10.6311
▁correctly	-10.6311
▁teens	-10.6311
▁stronger	-10.6312
▁finished	-10.6317
▁Face	-10.633
▁association	-10.6333
▁orange	-10.6336
▁illnesses	-10.6339
▁dramatic	-10.6347
.|	-10.6349
▁exhibit	-10.6349
▁400	-10.635
▁ranging	-10.6351
▁whatever	-10.6356
▁objectives	-10.6361
▁habitats	-10.6364
▁dependent	-10.6366
▁Little	-10.6366
▁roles	-10.6366
▁employed	-10.6367
▁accept	-10.637
▁Date	-10.6373
▁gradually	-10.6374
▁MD	-10.6379
▁offering	-10.6381
▁functioning	-10.6387
▁serves	-10.6387
▁delivered	-10.6397
▁(1)	-10.6405
▁Lincoln	-10.6406
▁parallel	-10.6408
▁User	-10.6409
▁detected	-10.6415
▁Furthermore	-10.6418
▁sitting	-10.6424
▁cattle	-10.6426
▁Blue	-10.6428
▁filter	-10.6429
▁knowing	-10.6433
▁compound	-10.6434
▁interface	-10.6445
▁initially	-10.6449
▁engaging	-10.645
▁honor	-10.6456
▁Heritage	-10.6457
▁teams	-10.6458
▁Moreover	-10.646
▁trends	-10.6462
ize	-10.6471
▁Recovery	-10.6473
▁owner	-10.6479
▁technological	-10.6479
▁boost	-10.6479
▁flying	-10.648
ary	-10.6482
▁camp	-10.6487
▁encouraged	-10.6488
▁Modern	-10.6493
▁targets	-10.6497
▁Music	-10.6499
▁engaged	-10.6504
▁Non	-10.6507
▁worry	-10.6513
▁classified	-10.6513
▁Start	-10.6518
▁phrase	-10.6518
▁joints	-10.6518
with	-10.6523
▁seeking	-10.6524
▁cord	-10.6524
▁strain	-10.6525
▁racial	-10.6526
▁structural	-10.6526
▁implemented	-10.6527
▁Pennsylvania	-10.6534
▁Massachusetts	-10.6535
▁fires	-10.6536
▁imaging	-10.6538
▁updated	-10.6542
▁urine	-10.6545
▁gravity	-10.6548
▁pro	-10.6559
▁Based	-10.6561
▁strongly	-10.6566
▁Fire	-10.6566
▁AD	-10.6572
▁relief	-10.6573
shaped	-10.6577
ter	-10.6589
▁throat	-10.659
▁hormones	-10.6592
▁dynamic	-10.6592
▁Basics	-10.6598
▁III	-10.66
▁nutrient	-10.6609
▁2006	-10.6613
▁thermal	-10.6614
▁stick	-10.6615
▁painful	-10.6615
▁origins	-10.6616
▁Below	-10.6616
▁attempts	-10.6621
▁aimed	-10.6633
▁ethnic	-10.6633
▁Try	-10.6634
▁Table	-10.6635
▁Records	-10.6635
▁fats	-10.6639
▁ring	-10.664
▁election	-10.6645
ge	-10.6647
▁spinal	-10.6648
▁Gulf	-10.6651
▁prefer	-10.6654
▁hidden	-10.6664
▁transmitted	-10.6667
▁Hill	-10.6669
that	-10.6672
")	-10.6673
▁65	-10.6682
▁approved	-10.6682
▁effectiveness	-10.6685
field	-10.6689
▁sharp	-10.6691
▁harvest	-10.6691
▁yield	-10.6697
▁reaching	-10.6699
▁settlement	-10.6699
▁Building	-10.67
▁engines	-10.6702
▁psychology	-10.6704
▁eliminate	-10.6705
▁Processing	-10.6706
▁falling	-10.6707
▁overview	-10.6711
▁doubt	-10.6713
▁Louis	-10.6719
▁Treatment	-10.6721
▁enables	-10.6721
▁metals	-10.6725
▁associate	-10.6729
▁decreased	-10.6729
▁Dutch	-10.6733
▁identification	-10.6733
io	-10.6734
▁Boston	-10.6738
▁1,000	-10.6743
▁Brazil	-10.6745
▁Photo	-10.675
▁Saint	-10.675
▁Queen	-10.6751
▁conference	-10.6753
se	-10.6755
▁boy	-10.6758
▁Battle	-10.6766
▁desired	-10.677
▁fascinating	-10.6772
▁1930	-10.6775
▁markets	-10.6777
▁button	-10.6779
▁protective	-10.6779
▁Islands	-10.678
▁Arts	-10.6783
▁driver	-10.6784
▁dietary	-10.6786
▁assume	-10.679
▁sport	-10.6804
▁committed	-10.6804
▁grains	-10.6809
▁preserve	-10.6809
▁photographs	-10.6809
▁sentences	-10.6812
▁pets	-10.6814
▁heavily	-10.6815
▁Ph	-10.6816
▁sought	-10.6819
▁planned	-10.682
▁pandemic	-10.6824
▁meals	-10.6829
▁windows	-10.683
▁insurance	-10.6836
▁programme	-10.6842
▁achievement	-10.6847
▁infants	-10.6848
▁fashion	-10.6849
from	-10.6849
▁driven	-10.6853
▁cure	-10.686
▁atoms	-10.6864
▁prey	-10.6865
-3	-10.6869
▁dance	-10.6871
▁farms	-10.688
▁healing	-10.6885
▁stores	-10.6894
▁outbreak	-10.6896
▁removal	-10.69
▁gut	-10.6904
▁vaccines	-10.6904
▁tip	-10.6908
go	-10.6913
ro	-10.6913
▁aging	-10.6915
▁Rate	-10.6916
▁Physical	-10.6921
▁threatened	-10.6922
ive	-10.6925
▁PDF	-10.6926
▁Harvard	-10.6927
▁bread	-10.693
▁stations	-10.6936
▁Light	-10.6941
▁Stock	-10.6943
▁grades	-10.6949
▁intellectual	-10.6949
▁breed	-10.6957
▁random	-10.6958
▁spots	-10.6961
▁lighting	-10.6964
▁Tuesday	-10.6966
▁endangered	-10.6967
▁automatically	-10.6975
▁Look	-10.6978
▁tobacco	-10.698
▁comfortable	-10.6986
ana	-10.6989
▁characteristic	-10.699
▁dairy	-10.7
▁insect	-10.7
▁Computer	-10.7006
▁physician	-10.7011
▁extend	-10.7016
▁assigned	-10.7019
▁quantum	-10.7021
▁suffered	-10.7029
▁criteria	-10.703
▁harder	-10.7033
wood	-10.7036
▁vegetation	-10.704
▁rose	-10.7043
▁Sir	-10.7043
▁physically	-10.7046
▁request	-10.7049
▁tumor	-10.7051
▁websites	-10.7054
▁Examples	-10.7058
con	-10.706
▁sensor	-10.7062
▁pull	-10.7062
▁2)	-10.7063
▁vegetable	-10.7064
▁initiative	-10.7065
▁flood	-10.707
▁laid	-10.707
▁IN	-10.7076
im	-10.7078
▁forget	-10.7084
▁mammals	-10.7091
▁mixture	-10.71
▁spirit	-10.7102
▁Century	-10.7107
▁ecological	-10.7111
▁false	-10.7112
▁conclusion	-10.7112
▁Article	-10.7125
TOOLFORMER	-10.7129
▁corner	-10.7135
▁separated	-10.7136
▁Holy	-10.7136
You	-10.714
▁writers	-10.7141
▁Mac	-10.7141
▁pure	-10.7142
▁sustainability	-10.7142
▁emerging	-10.7144
▁chances	-10.7145
▁solving	-10.7145
▁fail	-10.7146
▁investigate	-10.7151
▁equation	-10.7153
▁Frequently	-10.7156
▁flexible	-10.7161
▁cotton	-10.7166
▁convert	-10.7169
▁styles	-10.717
▁focusing	-10.7171
▁isolated	-10.7171
▁Copyright	-10.7179
▁vertical	-10.7181
rich	-10.7181
▁sizes	-10.7181
▁funds	-10.7184
▁Le	-10.7185
▁Wednesday	-10.7194
▁Ask	-10.7195
ty	-10.7196
▁planted	-10.7198
▁maybe	-10.7203
ah	-10.7206
▁dementia	-10.7213
▁Traffic	-10.7214
▁secret	-10.7216
▁clay	-10.7221
▁fatigue	-10.7224
▁smooth	-10.7229
▁watching	-10.7232
▁Page	-10.7232
▁hunting	-10.7236
▁Think	-10.7239
▁lakes	-10.7243
▁Identity	-10.7244
end	-10.7245
▁View	-10.7247
▁acquired	-10.7248
▁Equipment	-10.725
▁seat	-10.7252
▁matters	-10.7254
▁exploring	-10.7258
▁heads	-10.726
▁relations	-10.726
ul	-10.727
▁universal	-10.7271
▁remarkable	-10.7271
▁movie	-10.7272
▁symbols	-10.7277
▁moderate	-10.7282
▁finds	-10.7284
▁robot	-10.7285
▁positions	-10.729
▁Tobacco	-10.7292
▁earthquake	-10.7294
▁container	-10.7297
▁Fruits	-10.73
▁investigation	-10.7304
▁Mount	-10.7306
ka	-10.7306
▁desert	-10.7306
▁indicated	-10.7306
▁pump	-10.731
▁cash	-10.7314
▁weapons	-10.7315
▁equally	-10.7319
▁overcome	-10.7337
▁stones	-10.7338
▁literary	-10.7347
▁viewed	-10.7348
▁Teaching	-10.736
▁List	-10.7367
▁perception	-10.7372
▁Exam	-10.7382
▁observation	-10.7382
▁emphasis	-10.7385
▁outcome	-10.7394
▁allergies	-10.7409
▁gardens	-10.741
▁maintained	-10.741
▁careful	-10.7415
▁Questions	-10.7418
▁intensity	-10.7424
▁Coast	-10.7424
▁revolution	-10.7425
▁Brain	-10.7433
▁variation	-10.7434
ti	-10.7439
▁representation	-10.7444
▁lifetime	-10.7458
▁fought	-10.7459
▁faces	-10.7462
▁scholars	-10.7463
▁Trip	-10.7464
▁digestive	-10.7464
▁Yes	-10.7465
red	-10.7465
▁migration	-10.7467
▁Thursday	-10.7467
▁agreed	-10.7468
▁enormous	-10.7472
▁wonderful	-10.7473
▁ears	-10.7477
▁spoken	-10.7479
▁annually	-10.748
▁Ancient	-10.7489
▁Korea	-10.7489
▁quarter	-10.7495
▁31	-10.7495
▁elected	-10.7496
ish	-10.7497
▁invented	-10.75
▁streams	-10.7506
▁experimental	-10.7508
▁productivity	-10.7513
▁defense	-10.7515
▁claimed	-10.7525
▁IP	-10.7536
▁Between	-10.7543
▁seemed	-10.7547
▁schedule	-10.7558
▁rays	-10.7559
▁mothers	-10.7563
▁criminal	-10.7563
▁mention	-10.7564
▁split	-10.7565
▁develops	-10.7578
▁Image	-10.7578
▁managing	-10.7579
▁alive	-10.758
▁classic	-10.7581
▁Correct	-10.7583
▁Infections	-10.7585
▁visited	-10.7588
▁2005	-10.7588
▁Hotel	-10.7589
ised	-10.7589
▁lowest	-10.7591
▁32	-10.7593
▁Star	-10.7593
▁Formation	-10.7595
▁powers	-10.7599
▁https	-10.76
▁phones	-10.7602
▁Frequency	-10.7605
▁shell	-10.761
▁nutritional	-10.761
▁noticed	-10.7615
▁wheel	-10.7616
▁trigger	-10.762
▁sodium	-10.7621
▁regardless	-10.7626
▁Figure	-10.7629
▁honey	-10.7631
▁elementary	-10.7637
▁Bio	-10.7641
▁province	-10.7642
▁Alaska	-10.7643
▁drinks	-10.7644
▁subsequent	-10.7648
ING	-10.7651
▁considerable	-10.7652
-2	-10.7653
▁Teachers	-10.7655
▁deficiency	-10.7655
▁Electronics	-10.7656
▁contract	-10.7662
▁quantity	-10.7667
▁smell	-10.767
▁bleeding	-10.7672
▁Perhaps	-10.7674
▁accident	-10.7678
▁row	-10.768
▁Division	-10.768
▁Systems	-10.7682
▁contributed	-10.7684
▁substantial	-10.7686
▁Reducing	-10.7688
▁stability	-10.7689
▁Ni	-10.7691
▁Mouth	-10.7692
▁sell	-10.7699
▁errors	-10.7701
▁arthritis	-10.7703
▁safely	-10.771
ad	-10.7711
▁informed	-10.7716
▁k	-10.7716
▁oceans	-10.772
▁chocolate	-10.7724
▁respectively	-10.7727
▁TO	-10.7728
▁versions	-10.7731
▁manufacturers	-10.7735
▁slaves	-10.7747
▁agents	-10.7748
▁Marketing	-10.7753
▁reveals	-10.7757
▁Vegetables	-10.7757
▁counter	-10.7758
▁pairs	-10.7761
▁Station	-10.7769
▁Know	-10.7771
▁narrative	-10.7775
▁supposed	-10.7778
ated	-10.7785
▁livestock	-10.7787
▁Microsoft	-10.7792
▁opposed	-10.7795
▁kilometers	-10.7796
▁expanded	-10.7799
▁slave	-10.7801
▁Route	-10.7804
▁Add	-10.7804
▁pH	-10.7806
▁continent	-10.7806
▁mouse	-10.7815
▁insight	-10.7818
▁colonies	-10.7819
ri	-10.7828
▁abnormal	-10.7829
▁adapted	-10.783
▁Goal	-10.7831
ha	-10.7835
▁tribes	-10.7839
▁poetry	-10.7845
▁steam	-10.7851
▁differ	-10.7852
side	-10.7854
▁addiction	-10.7855
▁invasive	-10.7857
lin	-10.7858
▁reaches	-10.7858
▁Technique	-10.7858
▁towns	-10.7862
▁Code	-10.7862
▁creativity	-10.7864
▁Within	-10.7865
▁Vehicle	-10.7865
▁proved	-10.787
▁Johnson	-10.7871
▁Investment	-10.7873
▁EPA	-10.7874
▁granted	-10.7876
ir	-10.7879
▁contribution	-10.7879
▁precise	-10.7881
▁Place	-10.7889
▁performing	-10.7892
▁Standards	-10.7893
▁dating	-10.7898
▁Party	-10.7904
▁boundaries	-10.7917
▁girl	-10.7917
▁underground	-10.7925
▁classical	-10.7944
▁outdoor	-10.7946
▁Mediterranean	-10.7955
net	-10.7956
▁calculate	-10.7959
▁none	-10.796
▁www	-10.7964
▁1920	-10.7964
▁absence	-10.7969
▁channel	-10.7972
▁interior	-10.7978
▁Detection	-10.798
▁variations	-10.7986
▁dose	-10.7986
▁workplace	-10.7988
▁lists	-10.799
▁repeated	-10.8002
▁literally	-10.8004
▁tongue	-10.8006
▁fellow	-10.8009
▁victim	-10.8014
▁converted	-10.8014
▁beans	-10.8017
▁Remember	-10.8017
▁vessel	-10.8027
▁reverse	-10.8031
▁resistant	-10.8033
▁translation	-10.8034
ities	-10.8049
▁societies	-10.8054
▁basically	-10.8057
▁provider	-10.8059
▁behavioral	-10.8073
▁Illinois	-10.8075
▁Greece	-10.8079
▁saving	-10.8082
▁win	-10.8083
▁regulation	-10.8085
▁Much	-10.8087
▁Ride	-10.8087
ful	-10.8095
▁streets	-10.8098
▁keeps	-10.8114
▁Wet	-10.8115
▁verb	-10.8115
▁losses	-10.8122
ac	-10.8125
▁graph	-10.8125
over	-10.8125
▁demands	-10.8126
▁Illness	-10.8126
▁hence	-10.8131
▁Fish	-10.8135
▁peer	-10.8141
Q	-10.8141
▁Outer	-10.8141
▁directions	-10.8143
▁killing	-10.8144
▁traits	-10.8147
▁pipe	-10.8147
▁(2	-10.8149
▁crew	-10.8149
▁Lens	-10.8156
▁CDC	-10.8157
▁Published	-10.8158
▁6.	-10.816
▁concerning	-10.8161
▁calling	-10.8165
▁illegal	-10.8168
au	-10.817
▁bag	-10.8171
▁Small	-10.8174
▁Cybersecurity	-10.8175
▁swelling	-10.8176
▁proportion	-10.8181
▁spine	-10.8184
▁nest	-10.8186
▁2:	-10.8186
▁Measures	-10.8188
▁Allergies	-10.8189
▁beneath	-10.8189
▁Me	-10.8191
also	-10.8199
▁pilot	-10.82
▁analyzed	-10.8201
▁Later	-10.8202
▁gathered	-10.8204
▁soils	-10.8213
▁settled	-10.8213
▁concentrations	-10.8216
▁coverage	-10.8217
▁Shipping	-10.8217
▁Feet	-10.8225
▁households	-10.823
▁advances	-10.8232
▁Sick	-10.8237
▁prevalence	-10.8238
▁mine	-10.8239
▁communications	-10.8239
more	-10.8242
▁Washing	-10.8243
▁colony	-10.8243
▁Francisco	-10.8244
▁craft	-10.8244
▁||	-10.8245
▁raising	-10.8247
▁clock	-10.8247
den	-10.8248
▁Removal	-10.8249
▁determining	-10.8251
▁differently	-10.8259
▁semi	-10.826
▁Number	-10.8266
▁varies	-10.8267
▁addresses	-10.8269
▁Humidity	-10.8271
▁Los	-10.8271
▁Appropriate	-10.8273
▁Forecast	-10.8277
▁haven	-10.828
▁genus	-10.8281
▁75	-10.8284
▁emerged	-10.8284
20	-10.8288
ted	-10.8289
▁newspaper	-10.829
▁inch	-10.8293
▁STEM	-10.8294
▁entering	-10.8299
▁pool	-10.8301
▁electrons	-10.8303
▁availability	-10.8305
▁regarded	-10.8309
▁varied	-10.8309
▁buried	-10.831
▁bears	-10.8314
▁mi	-10.8319
ey	-10.8325
▁adds	-10.8326
ol	-10.8329
▁viral	-10.833
▁rainfall	-10.833
ya	-10.833
▁Creek	-10.8334
▁tumors	-10.8336
▁universities	-10.8338
▁Blood	-10.8339
▁wooden	-10.834
▁Islam	-10.8341
▁4,	-10.8343
▁Name	-10.8347
▁personality	-10.8349
▁sensitivity	-10.8349
▁debris	-10.8349
▁equality	-10.8359
▁Wearing	-10.8361
▁Preventive	-10.8362
▁sudden	-10.8367
▁commitment	-10.8367
▁humanity	-10.8369
▁ensuring	-10.837
▁assets	-10.8375
▁Force	-10.8376
▁linear	-10.8377
▁ran	-10.838
▁wisdom	-10.8381
▁bus	-10.8381
▁Level	-10.8386
▁dense	-10.8388
▁lie	-10.8389
▁summary	-10.839
▁Definition	-10.8394
▁adapt	-10.8397
▁deeply	-10.8398
▁empty	-10.8399
▁graduate	-10.84
▁Oregon	-10.8406
▁Edward	-10.8406
For	-10.8414
▁accidents	-10.8414
▁Covering	-10.8415
▁comment	-10.8417
▁label	-10.842
▁exhibition	-10.8421
▁everywhere	-10.8422
▁Calendar	-10.8424
▁shorter	-10.8425
▁boat	-10.8426
▁(2)	-10.8426
ium	-10.8428
▁neither	-10.8428
▁Tongue	-10.8429
▁providers	-10.8432
▁democracy	-10.8433
▁ordinary	-10.8433
▁removing	-10.8433
▁plot	-10.8434
▁Unit	-10.8438
▁districts	-10.844
▁scores	-10.8441
▁Soap	-10.8452
▁volunteers	-10.8454
▁Dentist	-10.8459
▁argue	-10.8463
▁recover	-10.8467
▁concluded	-10.8467
▁con	-10.8467
▁regard	-10.8469
▁Lee	-10.8469
▁dentist	-10.8471
▁genome	-10.8471
▁Counting	-10.8474
▁fabric	-10.8478
▁charged	-10.8482
▁Marine	-10.8483
▁addressed	-10.8486
▁Historical	-10.8486
▁Loan	-10.8492
▁Inc	-10.8496
▁optical	-10.8497
▁temporary	-10.8498
▁losing	-10.85
▁Track	-10.85
▁sales	-10.8502
▁surprise	-10.8506
▁knee	-10.8508
▁ex	-10.8508
▁preparing	-10.851
q	-10.8513
▁Biology	-10.8513
▁wider	-10.8516
▁agent	-10.8525
▁cast	-10.853
▁incidence	-10.8533
▁Parents	-10.8538
▁saved	-10.8546
▁balanced	-10.8548
▁Policy	-10.8551
▁Brushing	-10.8558
?"	-10.856
▁Payment	-10.8561
▁ease	-10.8563
▁Way	-10.8564
▁neurons	-10.8564
▁paintings	-10.8564
▁Reservation	-10.8564
▁virtually	-10.8566
▁Dealing	-10.8566
▁husband	-10.8571
▁engineer	-10.8572
▁Mexican	-10.8575
▁Elizabeth	-10.8576
▁scope	-10.8581
▁Arizona	-10.8585
▁specialized	-10.8585
▁Supreme	-10.8588
▁friendly	-10.8589
▁Seeking	-10.8589
▁absorb	-10.8591
▁wearing	-10.8592
▁taxes	-10.8592
▁colonial	-10.8594
▁owned	-10.8594
▁Working	-10.8595
▁clouds	-10.8595
life	-10.8598
▁Field	-10.8598
ED	-10.86
▁gather	-10.8602
▁unlike	-10.8606
ville	-10.8606
▁evil	-10.8607
▁ancestors	-10.8608
▁medieval	-10.8609
▁Road	-10.8612
▁restore	-10.8614
▁grammar	-10.8615
▁Week	-10.8619
▁Availability	-10.8619
▁infant	-10.8621
▁interpretation	-10.8622
▁prime	-10.8623
▁Search	-10.8628
▁plain	-10.8632
▁definitions	-10.8632
▁particle	-10.8632
▁assistant	-10.8634
ler	-10.8639
▁fed	-10.8656
▁developmental	-10.8658
▁contaminated	-10.8658
▁clothes	-10.8666
▁susceptible	-10.8669
▁50%	-10.8669
▁deadly	-10.8671
▁Elbow	-10.8672
▁telling	-10.868
▁breaking	-10.8683
▁1.5	-10.8686
▁partnership	-10.869
▁displayed	-10.8692
▁aggressive	-10.8692
▁mold	-10.8693
▁extension	-10.8694
▁IT	-10.8694
▁Out	-10.8695
▁Calculation	-10.8697
▁bullying	-10.8698
▁apparent	-10.87
▁Oxford	-10.87
▁Recommendations	-10.8701
▁Santa	-10.8704
▁PhD	-10.8706
▁dominant	-10.8707
▁worksheets	-10.8707
▁membrane	-10.8712
▁existed	-10.8715
▁Precipitation	-10.8716
▁Mississippi	-10.8717
▁attend	-10.8719
▁reporting	-10.8721
▁Watch	-10.8723
▁beings	-10.8725
▁Habit	-10.8731
▁mature	-10.8731
▁posted	-10.8734
▁songs	-10.8737
▁Point	-10.8739
▁stopped	-10.874
▁promoting	-10.8745
▁writes	-10.8746
▁expectations	-10.8746
▁finger	-10.8752
▁Engagement	-10.8753
made	-10.8759
▁pointed	-10.8764
▁capabilities	-10.8766
▁Download	-10.8766
▁client	-10.8768
▁Head	-10.8789
▁dramatically	-10.879
▁pesticides	-10.8794
▁Muslim	-10.8805
▁assignment	-10.8805
▁spreading	-10.8811
▁Books	-10.8815
▁Further	-10.8816
▁brains	-10.8816
▁zones	-10.8821
▁wings	-10.8822
▁parameters	-10.8823
▁restoration	-10.8824
▁currency	-10.8826
▁applying	-10.8831
▁controlling	-10.8833
▁metabolism	-10.8834
▁thyroid	-10.8835
▁trans	-10.8835
▁improvements	-10.8837
▁stuff	-10.8841
▁Odor	-10.8844
▁grant	-10.8845
mo	-10.8846
▁merely	-10.8849
▁nuts	-10.8851
▁Assessment	-10.8851
▁robots	-10.8852
ability	-10.8854
▁Minnesota	-10.8857
▁disk	-10.8858
▁Pro	-10.8866
▁Pakistan	-10.8868
▁Completely	-10.8882
▁Visiting	-10.8883
▁erosion	-10.8886
▁Amazon	-10.8887
▁Diabetes	-10.8888
▁calculated	-10.8889
▁deer	-10.889
▁Four	-10.8897
▁begun	-10.8899
▁Clothes	-10.89
▁proof	-10.89
▁Clearing	-10.8905
▁Shoes	-10.8907
▁coral	-10.8909
▁Scientific	-10.8909
▁Spaces	-10.891
▁pot	-10.8913
▁Top	-10.8914
▁bite	-10.8914
▁influenza	-10.8914
▁Encryption	-10.8915
▁contributions	-10.8917
▁Fraud	-10.8918
▁consideration	-10.8919
▁fifth	-10.8919
▁gums	-10.892
▁recording	-10.892
ning	-10.8921
15	-10.8921
▁hazards	-10.8924
▁ft	-10.8925
▁invention	-10.8927
▁Standard	-10.8933
▁Bureau	-10.8935
▁Lab	-10.8941
▁Transit	-10.8946
▁Shaping	-10.895
▁Navy	-10.8953
▁Model	-10.8955
▁Pricing	-10.8956
▁destroy	-10.8957
▁contents	-10.8959
▁priority	-10.8959
▁dream	-10.896
▁accurately	-10.8961
▁accompanied	-10.8962
▁Carrying	-10.8962
▁3,	-10.8966
▁Conditioning	-10.8966
▁chose	-10.8969
▁Laundry	-10.8971
▁barriers	-10.8973
▁Stain	-10.8978
▁Paper	-10.898
▁calendar	-10.8981
▁Still	-10.8991
▁Mountain	-10.8992
der	-10.8993
▁definitely	-10.8995
▁facilitate	-10.8995
hand	-10.9001
▁circulation	-10.9003
▁evening	-10.901
▁Routine	-10.9011
Tips	-10.9011
▁highlight	-10.9013
▁Hebrew	-10.9015
▁Economic	-10.9024
▁brush	-10.9025
▁HTML	-10.9033
▁Set	-10.9033
▁minds	-10.9037
▁surrounded	-10.9037
ni	-10.9037
▁Spring	-10.9038
▁sleeping	-10.904
▁Alexander	-10.9041
▁themes	-10.9042
▁surprising	-10.9043
▁insights	-10.9043
isation	-10.9044
▁Passages	-10.9045
▁Blowing	-10.9045
▁passes	-10.9053
▁Mildew	-10.9054
▁Schools	-10.9057
▁celebration	-10.9058
▁infectious	-10.9063
▁choosing	-10.9064
▁funded	-10.9064
▁Author	-10.9067
▁swimming	-10.9069
▁Respecting	-10.9071
To	-10.908
▁medicines	-10.9085
▁workshop	-10.9086
▁stems	-10.9088
▁Business	-10.9088
▁diagram	-10.9089
▁efficiently	-10.9093
▁reproductive	-10.9097
▁varying	-10.9098
▁Sub	-10.9099
▁Suitable	-10.91
▁Accessories	-10.91
▁canal	-10.9101
▁magnitude	-10.9101
Re	-10.9103
▁Thoroughly	-10.9104
▁Illnesses	-10.9108
▁popularity	-10.9108
▁browser	-10.9112
di	-10.9117
▁Contamination	-10.9119
▁executive	-10.9123
▁Filing	-10.9124
▁Verification	-10.9127
▁install	-10.9129
▁shade	-10.9132
▁pink	-10.9133
▁nice	-10.9136
▁directed	-10.9139
▁Surfaces	-10.9141
▁juice	-10.9144
.1	-10.9146
▁Jerusalem	-10.9149
▁Minister	-10.915
▁violent	-10.9152
▁Fabrics	-10.9154
▁sheets	-10.9154
▁winds	-10.9163
▁references	-10.9167
▁Restrooms	-10.9167
▁Facts	-10.9168
▁meaningful	-10.9168
down	-10.9176
▁healthier	-10.9176
▁quantities	-10.9177
▁designated	-10.9179
▁Indeed	-10.9184
▁engagement	-10.9186
▁overweight	-10.9191
▁interventions	-10.9191
▁targeted	-10.9198
▁Disposal	-10.9198
▁atmospheric	-10.9201
sa	-10.9205
▁regulate	-10.9208
▁Toenails	-10.9216
bit	-10.9216
▁divide	-10.9219
▁earn	-10.9221
▁Centers	-10.9224
▁Scrubbing	-10.9229
▁Irritation	-10.9231
▁collections	-10.9234
ance	-10.9235
▁spoke	-10.9237
▁Foodborne	-10.924
▁breaks	-10.9241
▁contributing	-10.9241
▁fiction	-10.9242
▁Mouthwash	-10.9245
▁fatal	-10.9245
When	-10.9251
▁36	-10.9255
▁Seconds	-10.9256
▁Action	-10.9256
▁sum	-10.9258
▁Avoid	-10.9258
▁log	-10.9258
▁tables	-10.9261
▁handling	-10.9262
▁Enrollment	-10.9262
▁Justice	-10.9264
▁eaten	-10.9264
▁duration	-10.9269
▁enemy	-10.9269
▁noun	-10.9273
▁MS	-10.9274
▁homework	-10.9274
▁Attractions	-10.9276
▁molecule	-10.9278
▁worship	-10.9284
▁pose	-10.9285
back	-10.9286
▁Current	-10.9287
▁nerves	-10.9287
▁Eyelids	-10.9291
▁Cleansing	-10.9299
▁Utensils	-10.9303
▁Given	-10.9309
▁Cuticle	-10.9309
▁sciences	-10.9315
▁god	-10.9315
▁Temple	-10.9324
50	-10.9325
▁trace	-10.933
▁abstract	-10.9331
▁Earwax	-10.9332
▁Indicators	-10.9338
▁Christianity	-10.9344
▁representing	-10.9347
▁relate	-10.9348
Contamination	-10.9352
▁Comfortable	-10.9354
▁permission	-10.9356
▁actively	-10.9356
ns	-10.9356
▁scales	-10.9359
▁Different	-10.936
▁brand	-10.9367
▁galaxy	-10.937
▁Conference	-10.9371
▁Intake	-10.9373
▁severity	-10.9376
▁En	-10.9377
▁originated	-10.9378
▁amino	-10.9381
As	-10.9381
▁Play	-10.9382
well	-10.9384
Sharing	-10.9386
▁abundant	-10.9387
▁specialist	-10.939
▁Sanitizing	-10.9395
▁discussions	-10.9399
▁officially	-10.9401
▁thereby	-10.9403
▁Testament	-10.9403
▁believes	-10.941
▁exception	-10.9411
▁sheep	-10.9414
▁scenario	-10.9414
my	-10.9415
▁habit	-10.9416
▁Recommendation	-10.9417
▁Core	-10.9418
▁extinction	-10.9419
▁allergic	-10.942
▁Egyptian	-10.9421
▁barrier	-10.9423
▁corresponding	-10.9425
example	-10.9427
▁Odors	-10.943
▁Wales	-10.9431
▁rocket	-10.9433
▁password	-10.9433
▁distant	-10.9435
▁beach	-10.9439
▁Ears	-10.944
▁custom	-10.944
▁2004	-10.9441
ce	-10.9441
▁dropped	-10.9443
▁sending	-10.9444
▁Buildup	-10.9446
▁Practice	-10.9448
▁gray	-10.9449
▁elsewhere	-10.9453
▁realized	-10.9454
▁comfort	-10.9455
▁immigrants	-10.9456
▁bags	-10.9457
▁Grand	-10.9458
▁10,000	-10.9459
work	-10.946
▁Towels	-10.946
▁Mental	-10.9464
▁tone	-10.9466
▁Major	-10.9466
▁diets	-10.9466
▁predators	-10.9469
▁contamination	-10.947
▁Section	-10.947
▁organism	-10.9477
▁influences	-10.9478
▁Wipes	-10.948
▁Obama	-10.948
▁1000	-10.9486
▁evolutionary	-10.9487
▁Nosebleeds	-10.9488
▁Shampoo	-10.9488
▁Etiquette	-10.949
▁continuing	-10.9492
▁tends	-10.9498
▁Physics	-10.9506
▁Discounts	-10.9508
▁specified	-10.951
▁spelling	-10.9511
▁Toothbrushing	-10.9512
▁algae	-10.9514
▁probability	-10.9515
▁Calculations	-10.9517
▁valve	-10.9519
▁cellular	-10.9523
▁DC	-10.9526
▁hospitals	-10.9528
▁purchased	-10.9529
▁Abraham	-10.9536
▁athletes	-10.9539
▁assembly	-10.954
▁consist	-10.9549
▁attitudes	-10.9549
▁waiting	-10.9549
▁couldn	-10.9553
▁flooding	-10.9554
▁productive	-10.9555
▁savings	-10.9558
▁Risk	-10.9566
▁Mo	-10.9569
▁Indigenous	-10.9573
▁Daniel	-10.9575
▁Exams	-10.9575
can	-10.958
▁encounter	-10.958
▁Rinsing	-10.9584
▁preserved	-10.9591
▁wireless	-10.9592
▁Missouri	-10.9593
▁ordered	-10.9595
▁painted	-10.9598
▁peers	-10.9602
▁Itineraries	-10.9604
▁conversion	-10.9609
▁Species	-10.9609
▁arguments	-10.961
▁strike	-10.9615
▁Self	-10.9615
()	-10.9621
▁adverse	-10.9621
▁default	-10.9622
▁gun	-10.9623
▁Budgeting	-10.9624
▁profile	-10.9627
▁Correctly	-10.9628
Touched	-10.9629
▁perceived	-10.9634
▁predicted	-10.9635
▁requirement	-10.964
▁Linux	-10.9642
▁algorithm	-10.9644
▁wouldn	-10.9649
▁deposits	-10.9651
▁dis	-10.9651
▁qualities	-10.9652
▁combine	-10.9655
▁kitchen	-10.9655
▁Expense	-10.9656
▁discipline	-10.9658
▁width	-10.9664
▁supplements	-10.9667
▁expanding	-10.9674
▁civilization	-10.9676
▁defines	-10.9677
▁Booking	-10.9679
Our	-10.9684
They	-10.9685
▁Should	-10.9686
▁tension	-10.9687
uk	-10.9694
▁wake	-10.9695
▁promise	-10.9695
▁Sentiment	-10.9695
▁abundance	-10.97
▁ethical	-10.9702
How	-10.9703
▁Maryland	-10.9706
▁suddenly	-10.9709
▁sessions	-10.9709
▁sensory	-10.9711
▁containers	-10.9712
▁colored	-10.9712
▁Di	-10.9712
▁Anti	-10.9715
▁readily	-10.9726
▁elderly	-10.9732
▁inhabitants	-10.974
▁Lesson	-10.9741
▁Convention	-10.9741
▁Vietnam	-10.9749
▁seriously	-10.9751
▁plates	-10.9753
▁accounting	-10.9757
▁strengthen	-10.9758
▁reserved	-10.9759
▁polar	-10.976
▁Calorie	-10.9764
▁Animal	-10.9768
▁2003	-10.9776
▁Tree	-10.9776
ham	-10.978
▁basics	-10.9783
▁acting	-10.9784
▁indoor	-10.9787
▁allergy	-10.9788
▁shock	-10.9796
▁suicide	-10.9798
▁electronics	-10.98
▁sacred	-10.9801
▁integration	-10.9802
▁appointed	-10.9802
▁Thanks	-10.9805
▁pace	-10.9807
▁Teacher	-10.9808
▁protocol	-10.981
▁anniversary	-10.9811
▁complexity	-10.9811
▁Per	-10.9812
▁happiness	-10.9813
▁Ontario	-10.9816
▁feels	-10.9818
em	-10.9823
▁highlights	-10.9825
▁Sprays	-10.9826
▁preferred	-10.9826
▁adolescents	-10.9832
▁officer	-10.9835
▁reflected	-10.9836
▁injured	-10.9837
▁stretch	-10.9839
-18	-10.9845
▁manager	-10.9846
▁Wall	-10.9852
▁Styling	-10.9854
▁10%	-10.9859
▁Map	-10.9862
▁metabolic	-10.9862
▁bond	-10.9869
▁Story	-10.9873
▁arise	-10.9876
mer	-10.9878
▁surgical	-10.9884
▁Workout	-10.9884
▁assumed	-10.9887
▁parks	-10.9889
▁fingers	-10.989
▁Reminder	-10.989
▁Depression	-10.9895
1,	-10.9899
▁officers	-10.9899
▁anger	-10.99
▁Basic	-10.9905
▁bound	-10.9908
▁grams	-10.9909
▁interview	-10.9909
100	-10.9913
▁inform	-10.9914
foot	-10.9918
▁obese	-10.992
va	-10.9928
▁Van	-10.9929
▁addressing	-10.9938
▁identical	-10.9939
tic	-10.994
▁impressive	-10.9942
▁returns	-10.9945
▁establishment	-10.9946
▁wash	-10.9946
▁expertise	-10.9948
▁compost	-10.9949
friendly	-10.9957
▁curve	-10.996
▁designing	-10.9962
▁shallow	-10.9964
▁Garden	-10.9966
▁settlers	-10.9966
▁strange	-10.9967
▁ranges	-10.9968
▁replacement	-10.9972
▁Index	-10.9973
▁confused	-10.9974
▁stood	-10.9975
▁theoretical	-10.9977
▁ruled	-10.9978
▁Month	-10.9979
sized	-10.9979
▁beam	-10.9982
▁tough	-10.9982
30	-10.9983
▁prescribed	-10.9988
▁telescope	-10.9991
▁Statistics	-10.9993
head	-10.9993
ke	-10.9994
▁loose	-10.9995
▁Shakespeare	-10.9996
▁extract	-11.0003
▁electron	-11.0011
▁Christians	-11.0021
▁toxins	-11.0025
▁institution	-11.0028
▁customer	-11.003
▁plaque	-11.0033
▁incorporated	-11.0034
▁paying	-11.0039
class	-11.0046
▁encouraging	-11.0052
▁union	-11.0059
▁utility	-11.0061
▁copyright	-11.0064
world	-11.0066
▁irrigation	-11.0068
▁dried	-11.0071
▁surveys	-11.0073
▁welfare	-11.0074
▁rid	-11.0081
▁Currently	-11.0083
▁Schedules	-11.0083
▁bladder	-11.0086
▁seasonal	-11.0089
▁Ma	-11.009
▁48	-11.0091
▁Tom	-11.0091
▁grounds	-11.0092
▁absolute	-11.01
▁distinctive	-11.01
▁attitude	-11.0108
▁Trending	-11.0109
ina	-11.0109
▁Notifications	-11.0109
▁kingdom	-11.011
▁distinguish	-11.0113
▁rough	-11.0119
▁manual	-11.0121
▁33	-11.0123
▁tower	-11.0124
▁burned	-11.0125
▁UV	-11.0127
▁Islamic	-11.0132
▁meter	-11.0135
▁dying	-11.0137
▁imagination	-11.0139
▁algorithms	-11.0139
▁thrive	-11.0139
▁dimensions	-11.014
▁carbohydrates	-11.0141
▁Primary	-11.0143
▁ADHD	-11.0147
▁landing	-11.0148
▁Summer	-11.0153
▁cameras	-11.0154
▁Drug	-11.0166
▁incorporate	-11.0167
▁storms	-11.0168
▁chicken	-11.0169
▁occupied	-11.0169
▁diarrhea	-11.0171
▁hypothesis	-11.0173
school	-11.0173
▁duty	-11.0173
▁alongside	-11.0175
▁blind	-11.0176
▁react	-11.0177
▁consuming	-11.0177
▁strategic	-11.0178
▁attractive	-11.0181
▁Posted	-11.0184
▁posts	-11.0187
▁collecting	-11.0196
▁Caribbean	-11.0198
▁1940	-11.0199
▁fibers	-11.02
2)	-11.0202
▁fertilizer	-11.0205
▁Usually	-11.0207
▁Five	-11.0207
▁Dec	-11.0211
▁spatial	-11.0214
▁bottle	-11.0215
▁marketing	-11.0219
▁shelter	-11.0223
▁describing	-11.0226
▁package	-11.0227
▁teaches	-11.0236
▁explores	-11.0236
▁worker	-11.0237
▁Car	-11.024
▁enjoyed	-11.0241
▁Wood	-11.0241
▁(19	-11.0241
▁consisting	-11.0242
▁surprised	-11.0246
▁edges	-11.0248
▁poet	-11.0248
▁mg	-11.0248
▁fur	-11.025
▁reform	-11.0251
▁competitive	-11.0252
ise	-11.0256
▁horizontal	-11.0257
▁relating	-11.0259
▁epidemic	-11.026
ex	-11.0261
▁valley	-11.0267
▁circular	-11.0273
▁metres	-11.0279
▁shoes	-11.0282
▁galaxies	-11.0284
▁residential	-11.0285
▁potassium	-11.0286
▁Training	-11.0286
▁requiring	-11.0288
▁atomic	-11.0289
▁powder	-11.0304
▁Scott	-11.0304
▁optimal	-11.0305
▁confusion	-11.0308
▁finish	-11.0309
▁Chief	-11.0311
▁memories	-11.0312
▁puts	-11.0313
▁Best	-11.0313
▁artistic	-11.0317
▁2001	-11.0318
▁Moses	-11.0318
▁devastating	-11.0321
▁discharge	-11.0322
▁visits	-11.0323
▁Throughout	-11.0324
board	-11.0334
▁explored	-11.0336
▁belong	-11.0337
▁boxes	-11.034
▁scheme	-11.034
▁recycled	-11.0343
▁Apple	-11.0343
▁Mass	-11.0354
bo	-11.0359
▁copies	-11.036
▁collective	-11.0361
▁Bar	-11.0363
▁logical	-11.0363
▁producers	-11.0365
▁buying	-11.0369
▁visiting	-11.0371
▁Recent	-11.0373
▁soul	-11.0376
▁Large	-11.0378
▁carries	-11.0382
ology	-11.0385
house	-11.0387
▁Du	-11.0387
▁motivation	-11.0387
▁ending	-11.0388
▁Sleep	-11.0388
▁cooperation	-11.0388
▁bonds	-11.0389
▁Essay	-11.0391
▁Full	-11.0392
▁pests	-11.0397
11	-11.0397
▁Secretary	-11.0398
▁shoulder	-11.0398
▁notion	-11.0399
▁jaw	-11.0404
▁Ten	-11.0408
▁Nutrition	-11.0408
▁crown	-11.041
▁malaria	-11.0412
sh	-11.0412
▁Culture	-11.0412
▁Turkey	-11.0413
are	-11.0419
▁displays	-11.0425
▁occasionally	-11.0429
▁busy	-11.043
▁absorbed	-11.0431
▁attributed	-11.0432
▁cap	-11.0433
▁jump	-11.0437
▁versus	-11.0445
▁humidity	-11.0445
▁registered	-11.0447
▁sister	-11.0448
▁survived	-11.0451
▁Cambridge	-11.0451
▁applies	-11.0451
▁willing	-11.0453
era	-11.0453
▁Angeles	-11.0456
▁profit	-11.0459
▁PM	-11.0459
▁Li	-11.0461
▁featured	-11.0462
▁Plants	-11.0463
fish	-11.0464
▁mapping	-11.0468
▁classrooms	-11.0469
▁FDA	-11.0469
▁hazardous	-11.0469
▁Rather	-11.0475
▁cable	-11.0476
US	-11.0476
▁disasters	-11.0483
quality	-11.0484
▁onset	-11.0486
▁kg	-11.0488
▁Andrew	-11.0488
▁rubber	-11.0493
▁construct	-11.0493
▁fitness	-11.0495
▁situated	-11.0495
▁Future	-11.0498
▁discusses	-11.0499
▁prone	-11.0499
dimensional	-11.05
▁diagnose	-11.0502
▁equipped	-11.0503
▁Pi	-11.0509
▁magazine	-11.0516
▁1800	-11.0517
▁Wisconsin	-11.052
▁amongst	-11.0522
▁Carbon	-11.0525
▁velocity	-11.0529
▁therapeutic	-11.0531
gov	-11.0532
25	-11.0533
▁elevated	-11.0538
▁Dis	-11.0543
▁Clinical	-11.0545
▁cave	-11.0547
▁oils	-11.0549
▁minimize	-11.0555
▁Things	-11.0558
▁cough	-11.0562
▁Gold	-11.0566
▁PC	-11.0567
▁utilized	-11.057
▁methane	-11.0571
▁dictionary	-11.0573
▁speaker	-11.0573
▁hopes	-11.0573
▁consciousness	-11.058
▁excited	-11.0581
▁pest	-11.0581
He	-11.0585
▁achieving	-11.0585
specific	-11.0588
▁gift	-11.059
▁Rock	-11.0591
▁Philadelphia	-11.0591
▁bark	-11.0593
▁integral	-11.0594
▁diagnostic	-11.0594
14	-11.0595
▁borders	-11.0595
▁royal	-11.0596
▁nodes	-11.06
▁satellites	-11.0603
▁disc	-11.0607
▁Generally	-11.0607
▁%	-11.0609
▁possibilities	-11.0615
▁mercury	-11.0623
▁Mountains	-11.0624
▁Cape	-11.0627
▁3)	-11.0632
▁perfectly	-11.0634
▁cycles	-11.0634
▁managers	-11.0644
▁colon	-11.0651
▁villages	-11.0652
▁pollutants	-11.0654
▁salmon	-11.0657
▁arrival	-11.0663
▁Encyclopedia	-11.0665
▁struggling	-11.0668
green	-11.0672
ins	-11.0672
▁sperm	-11.0672
▁reflects	-11.0676
▁se	-11.0678
▁limitations	-11.0679
lo	-11.0682
▁welcome	-11.0682
▁toys	-11.0683
mail	-11.0685
▁labour	-11.0685
▁Video	-11.0689
▁Hence	-11.0693
▁factory	-11.0696
▁CD	-11.0696
▁faculty	-11.0698
▁discoveries	-11.07
▁developers	-11.0704
▁founder	-11.0704
▁Pope	-11.0707
16	-11.0707
ula	-11.0716
▁campus	-11.0718
▁ha	-11.0721
▁classification	-11.0722
▁transferred	-11.0727
art	-11.0728
▁apparently	-11.0739
ating	-11.0745
▁Frank	-11.0745
▁IV	-11.0753
▁cheese	-11.0754
▁graphic	-11.0754
▁abandoned	-11.0756
▁drainage	-11.0758
▁Scottish	-11.076
▁symptom	-11.0762
▁incredible	-11.0762
▁embedded	-11.0764
▁120	-11.0768
ial	-11.0768
▁separation	-11.0768
▁Tips	-11.0769
▁traditionally	-11.077
▁minimal	-11.0771
don	-11.0774
CO	-11.0778
▁speeds	-11.0781
▁involvement	-11.0781
▁Parliament	-11.0786
▁lecture	-11.0786
▁transformation	-11.0786
▁volcanic	-11.0789
▁simultaneously	-11.0793
▁55	-11.0794
▁enzymes	-11.0795
▁partial	-11.0796
▁Reserve	-11.0797
▁installation	-11.0799
▁tracking	-11.0801
▁reflection	-11.0806
▁WHO	-11.0808
No	-11.0808
▁counties	-11.0808
▁headaches	-11.0809
▁Saturday	-11.0809
▁warmer	-11.0814
▁breathe	-11.0821
▁sale	-11.0821
▁conflicts	-11.0822
▁flexibility	-11.0829
▁weakness	-11.0832
▁bought	-11.0833
▁somewhere	-11.0834
▁flash	-11.0834
les	-11.0838
▁controversial	-11.0839
▁rooms	-11.0839
▁dangers	-11.0839
▁Depending	-11.084
▁Cold	-11.0842
▁documented	-11.0843
▁opinions	-11.0846
▁fix	-11.0848
▁cluster	-11.0854
▁vaccination	-11.0856
ak	-11.0856
▁genetically	-11.0856
▁burden	-11.0859
income	-11.086
▁(3	-11.0863
▁initiatives	-11.0864
▁inspiration	-11.0866
▁personnel	-11.0867
▁mystery	-11.0868
▁whales	-11.0868
▁traveling	-11.0872
▁worn	-11.0875
▁establishing	-11.0875
2,	-11.0875
▁palm	-11.0876
▁prevalent	-11.0876
▁Senate	-11.0878
▁armed	-11.0879
ii	-11.0882
▁Description	-11.0882
ba	-11.0885
▁hunger	-11.0886
▁sin	-11.0888
▁gods	-11.0889
▁fluids	-11.089
▁prevents	-11.0891
▁representative	-11.0892
▁Down	-11.0894
▁scan	-11.0897
▁Census	-11.0897
▁7.	-11.0898
▁awarded	-11.0903
▁historians	-11.0904
▁ownership	-11.0904
▁searching	-11.0909
▁Materials	-11.091
▁neighborhood	-11.0912
TM	-11.0914
▁tribe	-11.0918
▁span	-11.092
▁roll	-11.0921
▁missions	-11.0921
▁defects	-11.0923
▁nano	-11.0925
▁collapse	-11.0934
▁chamber	-11.094
▁operated	-11.0941
type	-11.0943
wide	-11.0944
▁bugs	-11.0944
▁AIDS	-11.0948
▁Sustainable	-11.0949
▁suggestions	-11.0952
▁3-	-11.0952
ov	-11.0958
▁cuts	-11.0958
▁neural	-11.0966
▁statistical	-11.0967
▁progressive	-11.097
▁transform	-11.0971
▁libraries	-11.0975
▁Ministry	-11.0976
▁arteries	-11.0977
▁restricted	-11.0986
▁attract	-11.0987
▁worksheet	-11.0987
▁genetics	-11.0989
▁superior	-11.0991
▁reasonable	-11.0996
▁apps	-11.1
▁translated	-11.1005
▁groundwater	-11.1009
▁churches	-11.1009
▁channels	-11.1011
▁aquatic	-11.1012
▁equations	-11.1012
▁poisoning	-11.1013
▁cow	-11.1014
▁participating	-11.1016
▁doors	-11.1016
ative	-11.1022
▁connecting	-11.1024
▁Causes	-11.1025
▁Until	-11.1034
▁favor	-11.1037
▁washing	-11.1037
sen	-11.104
ard	-11.1045
▁improves	-11.1045
▁speakers	-11.1049
▁mistakes	-11.1054
▁Indonesia	-11.1059
▁estate	-11.106
ent	-11.1062
▁struck	-11.1063
▁Industrial	-11.1068
▁Prize	-11.1068
▁earned	-11.1069
▁attended	-11.1073
▁totally	-11.1076
▁attributes	-11.1078
▁tape	-11.108
18	-11.1081
ger	-11.1082
▁Sweden	-11.1082
▁Need	-11.1084
%	-11.1085
▁Choose	-11.1086
▁educate	-11.1087
▁ban	-11.1089
ura	-11.1092
min	-11.1095
▁fraction	-11.1096
▁cloth	-11.1097
▁Fair	-11.1098
▁Poland	-11.1101
▁globally	-11.1101
▁kid	-11.1106
▁(“	-11.1107
▁Short	-11.1107
▁enzyme	-11.1111
▁wound	-11.1112
▁Jackson	-11.1118
▁entitled	-11.1119
▁films	-11.1119
▁drives	-11.1121
▁discomfort	-11.1121
▁vomiting	-11.1123
▁Nazi	-11.1123
▁bowel	-11.1123
▁Give	-11.1125
▁isolation	-11.1126
▁Site	-11.1127
▁reputation	-11.1128
▁shares	-11.1132
▁wing	-11.1134
▁afford	-11.1135
▁Edition	-11.1135
▁sophisticated	-11.1139
▁outdoors	-11.114
▁essays	-11.1141
ius	-11.1142
▁RNA	-11.1145
▁powered	-11.1147
▁assessments	-11.1148
▁Jr	-11.1148
▁throw	-11.1149
▁mosquito	-11.1151
▁empire	-11.1151
▁invasion	-11.1151
▁ash	-11.1151
▁Ka	-11.1155
▁absorption	-11.1157
▁Emperor	-11.1157
▁privacy	-11.1158
▁Jersey	-11.1158
▁unlikely	-11.116
▁Ha	-11.1165
▁20%	-11.1165
▁coat	-11.1165
▁reign	-11.1169
▁Years	-11.117
▁architectural	-11.1173
▁adoption	-11.1173
▁sectors	-11.1174
▁victory	-11.1175
▁strains	-11.1179
▁Real	-11.1179
▁lasting	-11.118
▁tutorial	-11.1181
▁illustrated	-11.1181
▁incident	-11.1181
▁Cell	-11.1181
▁physicians	-11.1185
▁Jefferson	-11.119
▁mile	-11.1191
▁committee	-11.1194
▁smallest	-11.1195
▁packaging	-11.1196
▁judge	-11.1196
▁twelve	-11.1201
▁1900	-11.1202
▁Twitter	-11.1206
▁boundary	-11.1208
▁illustrations	-11.1208
▁facial	-11.1216
▁phenomena	-11.1216
▁hip	-11.1217
▁cope	-11.122
▁Ar	-11.1222
▁persistent	-11.1225
responsibilities	-11.1227
▁Related	-11.1227
▁2002	-11.1229
▁acquire	-11.123
▁100,000	-11.1236
▁Con	-11.1238
▁Netherlands	-11.1246
▁flavor	-11.1246
▁pack	-11.1247
▁census	-11.1248
▁Educational	-11.1251
▁Example	-11.1252
▁educated	-11.1254
▁600	-11.1256
▁Trade	-11.1257
▁2012,	-11.1258
▁editor	-11.1267
▁hurt	-11.1267
▁auto	-11.1269
▁Advanced	-11.1278
▁alter	-11.128
▁safer	-11.1281
▁labels	-11.1281
▁argued	-11.1282
ata	-11.1287
▁prescription	-11.1288
war	-11.1295
▁Stephen	-11.1297
▁damaging	-11.1298
▁ca	-11.1299
▁adjust	-11.1299
▁hybrid	-11.13
▁archaeological	-11.1301
▁trading	-11.1307
▁Arab	-11.1311
▁Victoria	-11.1319
▁3:	-11.1319
▁distances	-11.1321
ft	-11.1327
▁candidate	-11.1333
▁receives	-11.1335
▁seasons	-11.1344
▁gathering	-11.1344
▁destination	-11.1352
▁tubes	-11.1353
▁valid	-11.1354
▁5,	-11.1365
▁rhythm	-11.1366
▁Ages	-11.1369
▁tech	-11.1376
ford	-11.1377
▁Theory	-11.1385
▁purple	-11.1387
▁alternatives	-11.1388
▁Commons	-11.1391
▁nursing	-11.1395
born	-11.1395
▁intelligent	-11.1396
▁calm	-11.1398
See	-11.1401
▁partially	-11.1402
▁whenever	-11.141
▁Around	-11.1412
▁generating	-11.1412
▁appreciate	-11.1416
▁encourages	-11.1421
▁Berlin	-11.1421
▁cream	-11.1424
ped	-11.1428
▁Port	-11.143
▁incredibly	-11.1432
▁forth	-11.1433
state	-11.1434
▁Na	-11.1435
▁Order	-11.1436
▁pipes	-11.1439
▁Fund	-11.1439
▁extraordinary	-11.1443
▁orientation	-11.1444
▁opposition	-11.1447
▁lining	-11.1449
▁enhanced	-11.1451
▁250	-11.1452
▁occurrence	-11.1452
▁potatoes	-11.1463
▁adjacent	-11.1464
▁Oil	-11.1465
▁adopt	-11.1466
▁Franklin	-11.1468
▁slide	-11.1473
▁Daily	-11.1475
▁minority	-11.1476
▁moist	-11.1479
▁freely	-11.1479
▁economics	-11.148
▁Quality	-11.1481
▁drawings	-11.1483
▁34	-11.1485
▁Besides	-11.1487
▁prison	-11.1492
▁Te	-11.1493
▁wars	-11.1496
▁broke	-11.1501
▁altered	-11.1505
▁mobility	-11.1515
▁interpret	-11.1516
13	-11.1516
▁arranged	-11.1518
▁distinguished	-11.1523
bar	-11.1524
▁Romans	-11.1527
▁lift	-11.153
▁developments	-11.153
▁Question	-11.1534
ng	-11.1534
▁examines	-11.1536
▁shut	-11.154
▁clients	-11.1541
▁expedition	-11.1543
But	-11.1548
▁likelihood	-11.1549
▁axis	-11.1551
▁Se	-11.1556
▁Kansas	-11.1557
▁preservation	-11.1558
▁platforms	-11.1564
▁tourism	-11.1565
▁Jupiter	-11.1565
▁citizen	-11.157
▁ride	-11.1575
▁arrive	-11.158
▁possess	-11.1588
▁aside	-11.1588
▁tour	-11.1591
▁Movement	-11.1591
▁myself	-11.1594
▁timber	-11.1595
▁prayer	-11.1596
▁confirm	-11.1596
▁tolerance	-11.1603
▁retain	-11.1603
▁wage	-11.1606
▁photography	-11.1607
▁paragraph	-11.1607
▁emission	-11.1608
▁gaps	-11.1608
itis	-11.1609
▁plasma	-11.1613
▁bills	-11.1614
▁Ho	-11.1614
▁Samuel	-11.1614
yl	-11.1618
▁weekly	-11.1622
▁Ben	-11.1625
▁geography	-11.1625
▁pursue	-11.1625
And	-11.1627
▁partly	-11.1628
▁systematic	-11.1632
▁mutations	-11.1634
ring	-11.1634
▁Everyone	-11.1636
▁prevented	-11.1637
▁freshwater	-11.1638
!”	-11.1638
”)	-11.1641
▁7,	-11.1641
▁Syndrome	-11.1642
▁illustrate	-11.1645
▁manufacture	-11.1645
▁appetite	-11.1647
▁bias	-11.1649
▁utilize	-11.1652
▁Lower	-11.1653
▁prostate	-11.1655
▁Utah	-11.1655
▁ultimate	-11.1658
▁antibodies	-11.1662
▁geographic	-11.1663
▁Call	-11.1664
▁chip	-11.1667
▁teen	-11.167
▁Francis	-11.1671
▁placing	-11.1671
▁ID	-11.1673
step	-11.1674
▁cheap	-11.1675
▁modeling	-11.1676
▁contributes	-11.1686
▁golden	-11.1689
▁transformed	-11.1692
▁entrance	-11.1692
▁vice	-11.1692
▁cardiac	-11.1694
▁tap	-11.1696
▁neutral	-11.1698
▁dynamics	-11.1699
▁tracks	-11.1703
▁37	-11.1704
▁pollen	-11.1705
▁2,000	-11.1707
▁chapters	-11.1713
▁comprehension	-11.1715
▁absolutely	-11.1717
za	-11.1718
▁reproduction	-11.1719
▁Korean	-11.1723
▁counting	-11.1727
!)	-11.1727
▁precisely	-11.1731
▁Assembly	-11.1731
▁Talk	-11.1732
▁Prince	-11.1732
▁NOT	-11.1732
▁Communication	-11.1739
▁loop	-11.1744
▁Follow	-11.1744
▁quiet	-11.1748
▁Was	-11.175
▁Select	-11.1751
▁texture	-11.1754
▁inequality	-11.1756
▁Third	-11.1756
▁hill	-11.1757
▁beat	-11.1761
▁thirty	-11.1762
▁GDP	-11.1762
▁Independence	-11.1765
▁guess	-11.1765
▁Almost	-11.1766
mi	-11.1768
▁comparing	-11.1769
▁aluminum	-11.177
▁Micro	-11.1772
▁progression	-11.1775
▁expressions	-11.1776
▁11,	-11.1778
▁Bo	-11.1779
air	-11.1782
▁finance	-11.1782
▁Iran	-11.1782
▁Skills	-11.1783
▁fungi	-11.1785
▁precipitation	-11.1787
▁Mathematics	-11.1788
▁consistently	-11.179
ga	-11.179
▁alert	-11.179
▁recommends	-11.1791
▁avoiding	-11.1793
▁Memorial	-11.1794
▁larvae	-11.1795
▁bits	-11.1799
▁discussing	-11.1801
▁Answer	-11.1803
▁herself	-11.1808
book	-11.1809
▁circles	-11.1812
▁mirror	-11.1814
▁Ice	-11.1814
▁frozen	-11.1814
cm	-11.1815
ten	-11.1816
▁Title	-11.1816
▁shop	-11.1817
▁concentrated	-11.1819
▁Put	-11.182
▁instances	-11.1823
▁suggesting	-11.1824
▁90%	-11.1825
▁inherited	-11.1827
▁examining	-11.1827
▁broader	-11.1829
▁shed	-11.1831
▁vector	-11.1831
▁da	-11.1831
▁restrictions	-11.1831
▁reviewed	-11.1833
▁bulbs	-11.1833
▁supplement	-11.1834
▁bi	-11.1836
▁6,	-11.184
▁apple	-11.1842
▁protects	-11.1843
▁update	-11.1846
▁astronomers	-11.1849
▁legacy	-11.1851
▁thesis	-11.1852
▁Am	-11.1855
An	-11.1856
▁phrases	-11.1856
▁delay	-11.1856
▁filling	-11.1857
▁Muslims	-11.1861
▁LED	-11.1861
she	-11.1863
▁lunar	-11.1864
▁monthly	-11.1864
▁colours	-11.1867
▁profound	-11.1871
▁affordable	-11.1872
▁continuously	-11.1875
▁conducting	-11.1878
▁festival	-11.1879
▁Nobel	-11.188
▁gland	-11.188
▁evaluated	-11.1883
▁pine	-11.1886
▁doses	-11.1891
▁chips	-11.1896
▁Excel	-11.1896
ot	-11.1899
▁independently	-11.19
▁yard	-11.1903
▁proposal	-11.1904
▁pop	-11.1906
▁fund	-11.1908
▁Adam	-11.191
▁thread	-11.1912
▁Main	-11.1913
▁pen	-11.1915
▁revenue	-11.1918
▁Along	-11.1922
▁payment	-11.1922
▁implementing	-11.1926
▁footprint	-11.1933
▁succeed	-11.1935
▁Curriculum	-11.1936
▁notable	-11.1937
light	-11.1937
▁hide	-11.1937
▁Hawaii	-11.1939
▁Line	-11.194
▁Nov	-11.1946
▁traveled	-11.1946
▁promising	-11.1946
▁Duke	-11.1947
ung	-11.1947
▁Bridge	-11.1949
▁Credit	-11.1949
▁dinner	-11.195
now	-11.1951
▁radical	-11.1956
▁nineteenth	-11.196
▁Jack	-11.1964
▁extinct	-11.1964
▁influential	-11.197
▁poly	-11.1975
▁poorly	-11.1979
▁Winter	-11.1981
▁tendency	-11.1981
▁(3)	-11.1981
▁atom	-11.1988
▁glands	-11.1989
▁striking	-11.199
▁routes	-11.1993
▁Pain	-11.1993
▁acceptable	-11.1999
▁suit	-11.2
▁Explain	-11.2
▁Chemical	-11.2
▁Super	-11.2004
▁Living	-11.2005
▁Similarly	-11.2006
▁Arabic	-11.2007
▁harsh	-11.2007
▁selling	-11.201
▁Support	-11.2011
▁Kenya	-11.2011
istic	-11.2012
how	-11.2016
▁patent	-11.202
▁adaptation	-11.2024
ens	-11.2024
▁designers	-11.2024
▁bee	-11.2024
▁devoted	-11.2025
▁lunch	-11.203
▁consequence	-11.203
▁flies	-11.2033
▁ingredient	-11.2034
▁pathogens	-11.2034
▁demonstrates	-11.2035
▁fertility	-11.2035
▁Historic	-11.2037
▁attempted	-11.2037
40	-11.2039
▁Bird	-11.2039
▁Matthew	-11.2039
▁radioactive	-11.204
▁snake	-11.204
▁Master	-11.2044
▁photograph	-11.2046
▁AM	-11.2049
▁Lewis	-11.205
▁38	-11.205
▁Stress	-11.2051
▁myth	-11.2059
▁grey	-11.2061
▁Oct	-11.2064
▁panic	-11.2066
▁pin	-11.2067
▁conclusions	-11.2069
▁80%	-11.2069
▁relatives	-11.2073
▁2010,	-11.2074
▁importantly	-11.2074
ship	-11.2075
pa	-11.208
▁100%	-11.209
▁historian	-11.2098
▁Iowa	-11.2099
▁cavity	-11.21
▁enabling	-11.2109
▁fallen	-11.2115
chi	-11.2118
▁coins	-11.2119
▁indicators	-11.2123
▁Mother	-11.2132
▁therapies	-11.2134
▁recall	-11.2134
▁Pan	-11.2135
▁stimulate	-11.2141
▁alike	-11.2142
▁foster	-11.2142
▁Camp	-11.2144
▁promotes	-11.2145
▁pp	-11.2151
▁Sam	-11.2153
▁investigated	-11.2155
▁tackle	-11.2159
▁refugees	-11.2162
▁End	-11.2166
▁Peace	-11.2166
▁attracted	-11.2171
▁specimens	-11.2171
▁kidneys	-11.2173
▁register	-11.2178
▁Chemistry	-11.2178
▁manufactured	-11.2178
▁Volume	-11.218
low	-11.218
▁Typically	-11.2183
▁trail	-11.2186
wa	-11.2189
▁mis	-11.2193
ible	-11.2201
▁Kentucky	-11.2203
▁Show	-11.2208
▁Origin	-11.2208
inch	-11.221
▁assessed	-11.2212
▁heal	-11.2217
▁precious	-11.2218
▁employee	-11.2218
▁emerge	-11.222
▁distinction	-11.222
km	-11.2227
▁fault	-11.2227
ping	-11.2228
you	-11.2228
▁Getting	-11.223
▁wetlands	-11.2231
▁reviews	-11.2233
▁melting	-11.2233
▁candidates	-11.2235
▁meditation	-11.2236
▁2.5	-11.2242
▁dollar	-11.2244
▁Resource	-11.2247
▁Imagine	-11.2248
▁enforcement	-11.2248
▁bike	-11.2248
▁brothers	-11.2252
▁headache	-11.2259
▁Patients	-11.2261
▁repeat	-11.2261
▁8,	-11.2262
▁Tennessee	-11.2263
▁fan	-11.2266
▁Feb	-11.2267
▁completion	-11.2273
▁fungus	-11.2276
▁returning	-11.2277
▁hunt	-11.228
▁gear	-11.2281
▁Games	-11.2286
▁Davis	-11.2287
▁inflation	-11.2288
▁loud	-11.229
▁severely	-11.2293
▁Bush	-11.2296
ney	-11.2299
▁alphabet	-11.2299
▁Activity	-11.2302
▁integrity	-11.2303
▁analyzing	-11.2305
▁cyber	-11.2305
▁Governor	-11.2305
▁Alabama	-11.2305
▁Easter	-11.2306
▁yes	-11.2306
▁locally	-11.2307
▁Father	-11.2309
set	-11.2309
▁uniform	-11.2309
▁grand	-11.2311
▁segment	-11.2312
▁castle	-11.2314
▁Knowledge	-11.2316
▁Words	-11.2316
▁synthesis	-11.2319
▁42	-11.2322
▁Very	-11.2322
▁USDA	-11.2326
▁draft	-11.2328
▁evident	-11.2328
▁strict	-11.2329
▁poems	-11.233
▁Text	-11.2334
▁simulation	-11.2334
▁inflammatory	-11.2338
▁occupation	-11.2343
▁magnesium	-11.2348
▁guides	-11.2349
▁dig	-11.2352
▁columns	-11.2355
berg	-11.2358
▁drops	-11.2358
▁asteroid	-11.236
ans	-11.2361
▁Death	-11.2362
▁bottles	-11.2365
▁perspectives	-11.2366
▁unhealthy	-11.2371
▁calculations	-11.2375
▁viewing	-11.2376
▁analyses	-11.2376
▁mud	-11.2377
▁(17	-11.2379
▁economies	-11.2384
▁Sound	-11.2387
▁biomass	-11.2387
▁Ca	-11.2389
▁accomplish	-11.2389
▁Louisiana	-11.2389
▁immunity	-11.2395
▁oxide	-11.2396
▁steady	-11.2397
ze	-11.2406
▁rats	-11.2407
▁bearing	-11.2408
▁Hindu	-11.2408
▁Visual	-11.2411
▁till	-11.2416
▁extends	-11.2419
▁camps	-11.2419
These	-11.2428
▁pushed	-11.2428
white	-11.2429
▁clusters	-11.2431
▁Radio	-11.2435
▁tunnel	-11.2436
▁Color	-11.2436
▁gsm	-11.244
▁football	-11.244
▁Taking	-11.2441
▁Gas	-11.2441
▁rotation	-11.2448
▁dominated	-11.245
▁lawn	-11.2453
▁Democratic	-11.2454
▁insulation	-11.2456
▁defend	-11.2458
▁historically	-11.2458
ries	-11.2459
▁chair	-11.246
▁hypertension	-11.2464
▁cooked	-11.2465
▁tanks	-11.2468
si	-11.2474
▁Pa	-11.2483
▁employers	-11.2483
▁decreases	-11.2484
▁static	-11.2487
▁2021	-11.2489
32	-11.249
▁environmentally	-11.2491
▁menu	-11.2495
▁Recently	-11.2497
▁curious	-11.2501
hour	-11.2505
▁angles	-11.2507
▁locate	-11.2509
▁veins	-11.2511
▁elections	-11.2512
▁floating	-11.2514
▁emotion	-11.2516
▁rises	-11.2516
▁butter	-11.2516
▁Iron	-11.2519
ron	-11.2524
▁Creative	-11.2527
▁zinc	-11.2528
▁Nation	-11.2532
▁skull	-11.2533
rays	-11.2538
▁offices	-11.2539
▁breakfast	-11.2539
non	-11.2543
ians	-11.2545
▁relieve	-11.2546
▁2011,	-11.2548
▁vacuum	-11.2549
▁racism	-11.2551
▁Born	-11.2554
▁abdominal	-11.2555
▁joy	-11.2555
▁volcano	-11.2556
▁belt	-11.2558
▁collaborative	-11.256
▁tied	-11.256
▁suspect	-11.2566
▁navigate	-11.2567
▁plastics	-11.2567
▁precision	-11.2568
▁Diego	-11.2569
▁yields	-11.257
this	-11.257
▁forever	-11.2571
▁Indiana	-11.2578
▁talks	-11.2578
▁cited	-11.258
▁organize	-11.258
▁neurological	-11.2583
▁landscapes	-11.2591
▁MIT	-11.2592
▁subsequently	-11.2595
▁silicon	-11.2606
▁referring	-11.2606
▁antibiotic	-11.2614
king	-11.262
▁Bell	-11.2622
lan	-11.2622
▁hyper	-11.2626
▁van	-11.2626
▁mini	-11.2629
▁Meanwhile	-11.2631
▁geometry	-11.2631
▁eco	-11.2632
▁sediment	-11.2632
▁Renaissance	-11.2633
▁Parkinson	-11.2634
▁Mission	-11.2634
▁reserves	-11.2635
▁rings	-11.2636
▁profession	-11.2638
▁Game	-11.2638
▁robust	-11.2639
ig	-11.2648
▁seeks	-11.2649
▁seal	-11.2651
▁intensive	-11.2653
▁Mrs	-11.2653
▁yeast	-11.2654
ence	-11.2654
▁indicating	-11.2654
our	-11.2655
▁Wilson	-11.2655
▁phases	-11.2655
▁defining	-11.2661
▁resolve	-11.2664
▁tight	-11.2665
▁nurse	-11.2666
▁IS	-11.2666
▁minister	-11.2667
▁thoroughly	-11.2669
▁Disorder	-11.2673
▁Aboriginal	-11.2674
▁scenes	-11.2679
html	-11.2681
▁crimes	-11.2681
▁beta	-11.2682
about	-11.2686
▁administered	-11.2688
▁configuration	-11.2689
▁opens	-11.2698
▁furniture	-11.2699
▁stuck	-11.2702
▁filters	-11.2703
▁graphics	-11.2703
mon	-11.2704
▁tear	-11.2705
▁keys	-11.2712
▁encountered	-11.2714
dis	-11.2715
▁par	-11.2716
▁radar	-11.2716
▁bats	-11.2719
▁invited	-11.2721
ee	-11.2724
▁determines	-11.2725
▁conjunction	-11.2727
▁2022	-11.2728
▁dirt	-11.2731
▁commands	-11.2735
▁coordination	-11.2735
▁pathways	-11.2735
care	-11.2736
▁heated	-11.274
▁inspire	-11.2743
dy	-11.2744
▁longest	-11.2746
▁orders	-11.2748
▁Darwin	-11.275
▁markers	-11.2752
op	-11.2754
▁pleasure	-11.2757
▁duties	-11.2757
▁gaining	-11.2761
ab	-11.2762
▁whale	-11.2763
▁Kennedy	-11.2763
▁circuits	-11.2765
▁coding	-11.2767
▁regulatory	-11.2769
▁sat	-11.2769
▁unexpected	-11.2779
let	-11.2779
▁crystal	-11.2783
▁democratic	-11.2783
▁unprecedented	-11.2794
▁Anne	-11.2797
▁indicator	-11.2797
▁Po	-11.2797
▁constitution	-11.2803
▁microbes	-11.2805
▁artery	-11.2808
▁closest	-11.2809
▁exams	-11.281
▁corporate	-11.2817
▁Hitler	-11.2817
▁Sa	-11.2817
▁sons	-11.2819
▁Cut	-11.2819
▁Jim	-11.2819
▁Therapy	-11.2821
▁bloom	-11.2821
▁extraction	-11.2822
▁operational	-11.2826
▁autumn	-11.2827
▁travels	-11.2828
ster	-11.2832
▁needle	-11.2834
▁Jones	-11.2841
▁picked	-11.285
▁shore	-11.2852
▁movies	-11.2852
▁("	-11.2854
pe	-11.2861
▁untreated	-11.2865
▁wise	-11.2866
▁timing	-11.2869
▁punishment	-11.2872
▁mosquitoes	-11.2873
▁Gen	-11.2874
▁accomplished	-11.2881
risk	-11.2882
▁argues	-11.2884
MS	-11.2884
▁wealthy	-11.2885
point	-11.2886
▁regime	-11.2891
▁antioxidants	-11.2891
▁GPS	-11.2894
▁enabled	-11.2902
▁Youth	-11.2902
▁explosion	-11.2911
▁basin	-11.2915
▁enters	-11.2917
▁loan	-11.2919
▁miss	-11.292
ide	-11.2921
▁Fortunately	-11.2922
▁farmer	-11.2925
▁bat	-11.2925
▁geographical	-11.2926
▁stops	-11.2931
▁earthquakes	-11.2933
▁spin	-11.2933
iv	-11.2936
▁colorful	-11.2937
ella	-11.2942
▁Nearly	-11.2943
▁rank	-11.2944
▁9,	-11.2945
▁declined	-11.2946
▁capability	-11.2947
▁deals	-11.2947
▁sampling	-11.2951
▁rows	-11.2952
▁builds	-11.2953
▁legend	-11.2953
▁realistic	-11.2956
▁Golden	-11.2957
▁navigation	-11.2959
▁bands	-11.2959
▁telephone	-11.296
▁teenagers	-11.2962
▁digestion	-11.2963
car	-11.2963
▁newspapers	-11.2965
▁Labor	-11.2972
▁diesel	-11.2975
▁shopping	-11.2975
▁blow	-11.2976
▁800	-11.2978
▁Together	-11.2979
▁conversations	-11.2982
▁flour	-11.2982
▁rescue	-11.2984
▁bulk	-11.2986
▁Wild	-11.2989
▁organisations	-11.2994
▁odd	-11.2995
▁sustain	-11.2998
▁shouldn	-11.2999
▁Lo	-11.3004
▁appeal	-11.3007
▁highlighted	-11.3007
▁afternoon	-11.3007
▁prolonged	-11.3009
27	-11.3018
▁makers	-11.3019
▁Archives	-11.3027
▁exclusively	-11.3027
▁Luther	-11.3028
▁binding	-11.3031
▁transparent	-11.3031
▁Originally	-11.3033
▁Iraq	-11.3033
▁artifacts	-11.3034
▁snakes	-11.3036
▁Maine	-11.3037
▁gallons	-11.3038
▁sustained	-11.3044
▁singing	-11.3045
▁Confederate	-11.3046
ae	-11.3046
▁combustion	-11.305
▁occasion	-11.3051
▁Works	-11.3052
▁Soil	-11.3053
▁quote	-11.3053
▁Initiative	-11.3054
▁14,	-11.3054
▁Club	-11.3055
▁glue	-11.3055
▁Has	-11.3056
▁administrative	-11.3061
▁flowing	-11.3065
▁Cat	-11.3067
▁degradation	-11.3071
ino	-11.3074
▁specialists	-11.308
▁Declaration	-11.308
▁stressed	-11.3081
▁dishes	-11.3084
▁Cultural	-11.3085
▁pond	-11.3087
▁matrix	-11.3087
-12	-11.309
▁Albert	-11.3092
▁Collection	-11.3096
▁kindergarten	-11.3103
▁physiological	-11.3108
▁Looking	-11.3108
▁injection	-11.3109
▁tremendous	-11.3111
▁Holocaust	-11.3112
kin	-11.3114
▁mistake	-11.3115
▁Activities	-11.3115
some	-11.3115
▁participated	-11.3116
▁44	-11.3119
▁holy	-11.312
▁namely	-11.3122
▁beds	-11.3124
▁39	-11.3124
vi	-11.3125
▁Venus	-11.3128
▁turtles	-11.3129
▁passive	-11.3129
▁wastewater	-11.3133
▁impacted	-11.3138
▁Stanford	-11.314
▁Psychology	-11.3141
▁flowering	-11.3141
▁Dan	-11.3143
new	-11.3144
ho	-11.3144
part	-11.3147
▁floods	-11.315
▁ozone	-11.3151
▁sugars	-11.3156
stone	-11.3156
▁fossils	-11.3159
▁spray	-11.3159
▁governor	-11.3165
▁dialogue	-11.3166
▁sorts	-11.3167
▁asbestos	-11.3168
▁boards	-11.3175
▁mere	-11.3176
▁careers	-11.3177
▁suspected	-11.3179
▁episode	-11.3184
▁moments	-11.3184
▁consent	-11.3185
▁submitted	-11.3185
▁invest	-11.3189
ph	-11.3192
▁dozen	-11.3194
▁inclusion	-11.3196
▁Join	-11.3196
▁Nevertheless	-11.3197
▁triangle	-11.3197
▁Visit	-11.3199
▁Buddhist	-11.32
ward	-11.3203
▁servers	-11.3208
▁myths	-11.3208
▁tri	-11.3209
▁disposal	-11.3211
▁courts	-11.3216
▁TB	-11.3217
▁Town	-11.3221
▁voting	-11.3222
▁comprised	-11.3222
▁drain	-11.3222
▁receptors	-11.3223
▁transmit	-11.3225
▁1999	-11.3226
▁refused	-11.3228
▁dam	-11.3234
ising	-11.3234
tech	-11.3237
▁completing	-11.3237
▁Deep	-11.3239
▁Tech	-11.3241
fat	-11.3241
ach	-11.3242
eg	-11.3242
▁meetings	-11.3242
▁disciplines	-11.3248
▁Maria	-11.3252
▁conscious	-11.3253
pi	-11.3254
▁mill	-11.3256
hi	-11.326
▁Buddha	-11.326
▁manufacturer	-11.3261
▁Saturn	-11.3265
▁Programme	-11.327
▁senses	-11.3275
▁Agricultural	-11.3276
▁triggered	-11.3277
▁titled	-11.3279
▁seemingly	-11.3281
▁provision	-11.3283
▁territories	-11.3283
▁shipping	-11.3284
gen	-11.3284
▁Farm	-11.3285
▁dinosaurs	-11.3286
2.	-11.3287
▁trillion	-11.3288
▁caffeine	-11.3292
▁introducing	-11.3292
▁probe	-11.3293
▁asks	-11.3293
▁pale	-11.3294
▁thorough	-11.3298
▁assignments	-11.33
ny	-11.3305
▁rational	-11.3306
▁Summary	-11.3307
▁stakeholders	-11.3309
19	-11.331
▁tag	-11.3312
▁soap	-11.3313
▁Corps	-11.3315
▁Stone	-11.3317
▁verbal	-11.3318
▁Weight	-11.3318
▁1998	-11.3319
▁implies	-11.3321
▁essence	-11.3324
24	-11.3325
▁lying	-11.3326
▁abdomen	-11.3328
▁Ver	-11.3331
▁Simple	-11.334
▁masses	-11.334
▁Heat	-11.3343
“	-11.3344
▁nucleus	-11.3346
▁belonging	-11.3347
▁Love	-11.335
▁2009,	-11.3358
▁sad	-11.3361
▁Prime	-11.3365
▁whilst	-11.3365
▁feathers	-11.3365
▁reward	-11.3367
▁Da	-11.3367
▁Amendment	-11.337
▁cultivated	-11.3371
▁transactions	-11.3373
▁crash	-11.3374
▁BBC	-11.3376
▁constitutional	-11.3378
▁dress	-11.3379
▁Share	-11.3379
▁Va	-11.3389
▁gardening	-11.339
▁practiced	-11.3392
▁guided	-11.3393
▁Far	-11.3398
▁traumatic	-11.3398
▁litter	-11.3401
▁League	-11.3406
▁Team	-11.3406
▁Series	-11.3407
▁organisation	-11.3408
▁Roosevelt	-11.341
▁Prof	-11.3416
▁FOR	-11.3419
ap	-11.3421
▁Classroom	-11.3421
▁blame	-11.3422
▁Chi	-11.3425
▁winning	-11.3427
▁neuro	-11.3428
▁30%	-11.3428
▁talked	-11.3434
▁(5	-11.3437
▁aids	-11.344
▁pulled	-11.3442
▁projected	-11.3444
▁(4	-11.3444
▁rail	-11.3448
▁architect	-11.345
▁creature	-11.3451
▁Peru	-11.3456
▁ants	-11.3457
▁Ford	-11.346
▁coating	-11.3466
▁Oklahoma	-11.3466
▁meanings	-11.3468
▁preschool	-11.3468
▁elevation	-11.3469
▁bulb	-11.347
▁defeat	-11.3479
▁compression	-11.348
oc	-11.3481
▁terminal	-11.3483
▁thickness	-11.3483
▁weigh	-11.3484
▁Fall	-11.3487
▁costly	-11.349
idae	-11.3492
▁ruling	-11.3492
bi	-11.3492
▁publications	-11.3494
▁Problem	-11.3496
▁Ed	-11.3496
▁instructional	-11.35
▁15,	-11.35
▁billions	-11.35
▁altitude	-11.3501
▁slight	-11.3501
▁convenient	-11.3505
▁machinery	-11.3506
▁executed	-11.3509
▁award	-11.351
▁Literature	-11.351
▁Intelligence	-11.3511
ging	-11.3511
▁beer	-11.3512
▁breeds	-11.3514
▁strip	-11.3515
tu	-11.3515
▁8.	-11.3516
▁kit	-11.3516
▁Sri	-11.3519
All	-11.3521
▁triggers	-11.3524
▁poultry	-11.3527
▁indoors	-11.3528
▁Publication	-11.3528
▁Antarctic	-11.3532
▁avoided	-11.3532
▁attacked	-11.3533
▁Eat	-11.354
▁belongs	-11.3541
▁underwater	-11.3542
▁surviving	-11.3542
▁observing	-11.3542
▁herbs	-11.3543
▁nausea	-11.3545
edu	-11.3548
mann	-11.355
▁shadow	-11.3551
▁puzzle	-11.3552
▁investments	-11.3553
▁lighter	-11.3553
▁paths	-11.3555
▁immigration	-11.3557
▁imagery	-11.3558
resistant	-11.3559
▁crossing	-11.3559
▁ions	-11.3561
▁tale	-11.3563
▁Too	-11.3563
▁pride	-11.3564
▁Antarctica	-11.3565
23	-11.3565
▁Creating	-11.3566
▁twentieth	-11.3567
▁1995	-11.3568
▁lenses	-11.357
▁CT	-11.3572
▁compact	-11.3573
▁solely	-11.3575
▁17,	-11.3576
▁confident	-11.3578
▁spotted	-11.3579
▁nurses	-11.3581
▁limiting	-11.3581
▁toilet	-11.3583
-17	-11.3583
▁Philippines	-11.3586
▁Wi	-11.3587
▁meets	-11.3594
▁repeatedly	-11.3596
▁reserve	-11.3597
▁sensation	-11.36
▁12,	-11.3603
▁Urban	-11.3604
que	-11.3604
▁trips	-11.3606
high	-11.3606
▁portions	-11.3607
▁Aug	-11.3608
▁appliances	-11.3611
▁volumes	-11.3612
▁u	-11.3614
▁viable	-11.3615
▁pushing	-11.3616
▁founding	-11.3617
▁advertising	-11.362
▁pigs	-11.362
▁Case	-11.3621
right	-11.3624
▁overwhelming	-11.3624
▁Buddhism	-11.3627
▁Impact	-11.3627
▁Print	-11.3627
ini	-11.3628
ang	-11.3629
▁documentation	-11.3632
▁hero	-11.3637
▁Additional	-11.3637
▁resilience	-11.3642
▁compiled	-11.3645
▁intestine	-11.3647
powered	-11.3647
▁revolutionary	-11.3648
▁rear	-11.3648
▁tick	-11.365
▁Jean	-11.365
▁cook	-11.3653
▁Basin	-11.3654
▁worms	-11.3656
‘	-11.3656
▁mainstream	-11.3657
▁extracted	-11.3657
third	-11.3658
▁arrangement	-11.3659
law	-11.366
▁Lu	-11.3662
▁info	-11.3663
▁1/2	-11.3663
17	-11.3664
▁cubic	-11.3664
http	-11.3668
▁reefs	-11.3668
▁mask	-11.3671
▁Never	-11.3673
▁impaired	-11.3674
▁ecology	-11.3674
▁Zoo	-11.3675
▁passengers	-11.3677
▁Ex	-11.3677
▁omega	-11.3677
▁descriptions	-11.3681
▁Upper	-11.3682
ut	-11.3684
▁ignore	-11.3684
▁hazard	-11.3687
▁treaty	-11.3689
▁mysterious	-11.3693
▁40%	-11.3699
▁bridges	-11.37
▁hardly	-11.3701
▁Poor	-11.3703
▁Inter	-11.3704
▁Norway	-11.3708
▁cows	-11.3709
▁Maybe	-11.3711
▁Nile	-11.3712
IP	-11.3713
▁edit	-11.3714
▁File	-11.3717
▁Clark	-11.372
▁Castle	-11.3721
ification	-11.3725
▁slope	-11.3726
▁vapor	-11.3727
▁licensed	-11.3732
ological	-11.3733
▁hepatitis	-11.3736
▁Arthur	-11.3742
▁Signs	-11.3745
▁mounted	-11.3747
▁traces	-11.3749
▁Freedom	-11.375
▁impairment	-11.3751
▁mail	-11.3751
▁Apollo	-11.3752
▁obviously	-11.3753
▁sequences	-11.3758
▁shortly	-11.3759
▁saturated	-11.376
▁brick	-11.3761
▁Ku	-11.3761
▁electromagnetic	-11.3766
▁hills	-11.377
▁swim	-11.3774
▁Smart	-11.3775
▁birthday	-11.3777
▁Lead	-11.3778
date	-11.3778
top	-11.3778
▁Universe	-11.3787
▁supplied	-11.3789
▁practitioners	-11.379
▁keyboard	-11.3791
▁Images	-11.3791
▁charts	-11.3792
▁frequencies	-11.3796
▁du	-11.3803
▁crust	-11.3806
▁Ad	-11.3806
▁gasoline	-11.3809
▁subtle	-11.3811
▁skilled	-11.3813
ber	-11.3815
▁combining	-11.3818
▁expenses	-11.3821
▁Size	-11.3822
▁Victorian	-11.3828
▁trash	-11.383
▁Einstein	-11.3832
▁critically	-11.3834
▁textbook	-11.3836
▁considerably	-11.3836
IC	-11.3838
▁ceremony	-11.3842
▁neighbors	-11.3845
▁Identify	-11.3845
▁unemployment	-11.3845
1.	-11.3847
▁te	-11.3852
▁pitch	-11.3853
▁binary	-11.3856
▁prototype	-11.3856
▁Prior	-11.3862
▁packed	-11.3863
▁afraid	-11.3863
▁beef	-11.3864
▁correlation	-11.3866
▁briefly	-11.3867
ER	-11.3867
▁weren	-11.3868
▁cervical	-11.3868
▁folk	-11.3869
▁checking	-11.3869
ola	-11.3873
▁piano	-11.3873
▁relies	-11.3873
▁Electric	-11.3879
esteem	-11.3879
▁proud	-11.3879
▁Reference	-11.3882
▁blockchain	-11.3882
▁Six	-11.3884
▁Sign	-11.3884
▁magic	-11.3885
▁breakdown	-11.3886
▁terrain	-11.3889
▁mo	-11.3889
▁coloring	-11.3889
▁patches	-11.3896
▁Always	-11.3897
▁Southeast	-11.3898
▁impression	-11.3899
▁oak	-11.39
▁Jane	-11.391
▁cheaper	-11.391
▁practicing	-11.3913
fi	-11.3915
▁Tell	-11.3916
▁divine	-11.3918
Do	-11.3919
▁automatic	-11.392
▁explanations	-11.3922
▁Polish	-11.3923
▁sees	-11.3923
▁Country	-11.3923
grade	-11.3924
▁monument	-11.3924
▁potato	-11.3926
▁colleges	-11.3928
▁countless	-11.3933
▁Lakes	-11.3937
▁loans	-11.3938
▁tens	-11.3941
▁relates	-11.3942
▁identifies	-11.3944
▁Bi	-11.3945
threatening	-11.3947
▁angry	-11.3956
▁staying	-11.396
▁Population	-11.3962
▁assumptions	-11.3965
fer	-11.3966
▁ethics	-11.3966
▁jet	-11.3966
▁adulthood	-11.3966
▁Traditional	-11.3966
▁coin	-11.3969
▁directory	-11.397
▁Ko	-11.3972
▁approval	-11.3976
▁editing	-11.398
▁wires	-11.3983
key	-11.3985
▁replacing	-11.3987
▁trap	-11.3988
▁interviews	-11.3992
▁guarantee	-11.3993
▁philosophical	-11.3996
▁affairs	-11.3997
port	-11.3998
▁methodology	-11.3999
One	-11.4002
▁outbreaks	-11.4003
▁friction	-11.4004
▁burns	-11.4005
▁Jacob	-11.4006
pro	-11.4007
▁dish	-11.4008
▁qualified	-11.4012
▁ritual	-11.4015
▁bug	-11.4015
▁surroundings	-11.4017
▁Chronic	-11.4017
New	-11.4019
▁volunteer	-11.4022
▁frost	-11.4026
▁entertainment	-11.4028
▁arch	-11.403
▁Planet	-11.4032
▁representatives	-11.4033
▁survivors	-11.4037
▁Previous	-11.4041
▁similarities	-11.4043
▁generates	-11.4046
▁worried	-11.4047
▁animation	-11.405
▁Explore	-11.4051
▁Literacy	-11.406
▁Stage	-11.4062
Con	-11.4065
▁answered	-11.4065
▁node	-11.4066
▁releases	-11.407
▁layout	-11.4071
▁Tri	-11.4073
hr	-11.4074
▁integrate	-11.4077
▁acidic	-11.4077
ase	-11.4077
▁comprises	-11.4083
▁entity	-11.4088
▁parasites	-11.409
▁Dakota	-11.4091
zo	-11.4092
▁Grant	-11.4094
ji	-11.4098
▁restored	-11.4098
page	-11.4103
▁trapped	-11.4103
▁Ch	-11.4104
ure	-11.4105
▁execution	-11.4106
even	-11.4107
▁mutation	-11.4107
▁destructive	-11.4109
▁shells	-11.411
▁cooler	-11.4111
▁85	-11.4111
▁18,	-11.4112
▁olive	-11.4113
▁raises	-11.4114
gar	-11.4115
▁apnea	-11.4116
▁tired	-11.4119
▁rash	-11.4125
▁OS	-11.4126
▁workshops	-11.4128
▁caring	-11.4129
▁cement	-11.4137
▁weapon	-11.414
▁sits	-11.4141
▁Columbus	-11.4145
▁43	-11.415
▁weeds	-11.415
▁2015,	-11.4153
ker	-11.4155
▁inquiry	-11.4157
▁shrubs	-11.4158
▁witness	-11.4165
▁standardized	-11.4167
▁Williams	-11.4169
▁resident	-11.4169
▁attempting	-11.417
▁Vol	-11.4171
▁Less	-11.4172
▁submit	-11.4173
▁determination	-11.4173
▁trick	-11.4173
▁incidents	-11.4174
▁Awareness	-11.4174
So	-11.4175
▁shark	-11.4178
▁16,	-11.4179
▁consult	-11.4182
▁yoga	-11.4183
▁Peninsula	-11.4183
▁dozens	-11.4185
▁predictions	-11.4186
▁stretching	-11.4186
depth	-11.4188
▁demonstration	-11.4188
▁sing	-11.4188
▁butterflies	-11.4189
▁Philip	-11.4191
▁infrared	-11.4191
▁sharks	-11.4195
▁irregular	-11.4198
▁undergo	-11.4212
▁thrown	-11.4215
▁compete	-11.422
That	-11.4221
▁license	-11.4222
-10	-11.4223
▁z	-11.4224
▁Salt	-11.4225
22	-11.4227
▁fifty	-11.423
▁Total	-11.4231
author	-11.4235
▁mechanics	-11.4237
▁departments	-11.424
▁glasses	-11.4245
▁Patrick	-11.4246
▁uncertainty	-11.4256
▁sixth	-11.4256
▁soda	-11.4259
▁intestinal	-11.4262
▁gains	-11.4264
▁accumulation	-11.4264
▁Multi	-11.4264
▁Lady	-11.4265
aka	-11.4266
▁uncommon	-11.4266
▁judgment	-11.4268
▁strengths	-11.4268
▁bowl	-11.4274
▁offspring	-11.4276
▁tomatoes	-11.4278
▁AC	-11.4278
▁railroad	-11.4279
▁Diseases	-11.4281
▁Taylor	-11.4284
▁Yellow	-11.4286
▁quiz	-11.4286
▁statue	-11.4291
▁chains	-11.4297
▁vocal	-11.4297
▁sq	-11.4302
nt	-11.4311
▁Biological	-11.4312
300	-11.4313
▁Greeks	-11.4313
▁13,	-11.4314
▁Testing	-11.4316
▁extending	-11.4317
▁Emergency	-11.4318
▁berries	-11.4319
▁intention	-11.432
▁invisible	-11.4321
▁behave	-11.4323
▁spiral	-11.4323
▁generator	-11.4324
▁regulated	-11.4326
▁operators	-11.4327
▁boats	-11.4329
▁Dogs	-11.4329
▁religions	-11.433
▁retina	-11.4331
▁Could	-11.4332
▁sacrifice	-11.4333
▁programmes	-11.4333
▁Rio	-11.4335
45	-11.4337
▁Regional	-11.4339
▁recovered	-11.4342
tion	-11.4343
▁negatively	-11.4345
▁patch	-11.4349
▁clues	-11.435
▁Connecticut	-11.4352
My	-11.4357
▁scheduled	-11.4361
▁medicinal	-11.4363
▁9.	-11.4363
▁autonomous	-11.4369
▁segments	-11.437
▁acquisition	-11.4372
mar	-11.4374
▁Observatory	-11.4375
▁des	-11.4379
▁imported	-11.4383
▁crystals	-11.4383
▁foundations	-11.4384
IT	-11.4386
▁Nuclear	-11.4387
▁Syria	-11.4388
▁attending	-11.439
▁monitored	-11.4391
▁Portuguese	-11.4391
▁slower	-11.4391
▁substitute	-11.4395
▁passion	-11.4395
▁wellbeing	-11.4397
▁politicians	-11.4398
▁Lawrence	-11.4399
▁Overall	-11.4402
▁Trans	-11.4404
▁elephant	-11.4405
▁Contents	-11.4407
▁pumps	-11.4408
▁spider	-11.4408
▁achievements	-11.4409
▁chemotherapy	-11.4411
▁Multiple	-11.4411
▁bay	-11.4411
▁Switzerland	-11.4415
▁lets	-11.4416
▁inclusive	-11.4418
▁hosts	-11.4418
ell	-11.4418
▁transit	-11.442
▁Afghanistan	-11.442
▁ignored	-11.4422
what	-11.4422
▁hydro	-11.4424
▁astronauts	-11.4425
▁blocked	-11.4427
▁Range	-11.443
▁Protocol	-11.4437
▁Executive	-11.4438
ites	-11.4438
fold	-11.444
▁Olympic	-11.444
▁distress	-11.444
ile	-11.4443
▁investigating	-11.4443
han	-11.4445
▁tab	-11.4447
▁liberal	-11.4447
▁Mercury	-11.4449
▁reproduce	-11.4452
▁Similar	-11.4453
▁dimension	-11.4453
▁beaches	-11.4456
▁UC	-11.4457
▁murder	-11.4457
▁challenged	-11.446
21	-11.4462
source	-11.4462
▁consisted	-11.4464
▁networking	-11.4467
▁brushing	-11.4467
▁consensus	-11.447
▁gravitational	-11.4472
▁sanitation	-11.4473
cell	-11.4475
▁unnecessary	-11.4476
▁Northwest	-11.4477
▁22,	-11.448
▁connects	-11.4481
▁Methods	-11.4483
▁Animals	-11.4483
▁mixing	-11.4484
cal	-11.4496
▁tries	-11.4499
▁Region	-11.4499
▁threatening	-11.45
▁wheels	-11.4501
style	-11.4505
▁voices	-11.4505
▁Chile	-11.4506
▁depicted	-11.4508
▁mines	-11.4509
▁premature	-11.4509
▁Period	-11.4509
▁2008,	-11.4513
▁Extension	-11.4515
▁headed	-11.4517
▁weekend	-11.4518
▁portable	-11.452
▁Save	-11.4523
▁labeled	-11.4523
▁guard	-11.4523
▁drama	-11.4524
▁maternal	-11.4525
▁bomb	-11.4525
▁Vi	-11.4525
▁acceptance	-11.4527
▁Elementary	-11.4527
▁watched	-11.4531
▁cavities	-11.4533
▁settle	-11.4533
▁grasp	-11.4533
▁checked	-11.4534
▁Method	-11.4534
▁protocols	-11.4538
site	-11.4543
▁Process	-11.4545
▁decreasing	-11.4546
▁Austria	-11.4547
▁28,	-11.4547
▁Treaty	-11.4549
▁functionality	-11.4552
▁presenting	-11.4555
▁Telescope	-11.4555
▁Guinea	-11.4561
▁modify	-11.4561
▁emergence	-11.4565
▁reef	-11.4565
▁riding	-11.4569
▁forgotten	-11.457
▁unclear	-11.4572
▁21,	-11.4573
town	-11.4579
▁rolling	-11.4581
▁Berkeley	-11.4584
▁scattered	-11.4589
▁fragments	-11.459
▁fate	-11.4592
▁Fe	-11.4592
aw	-11.4593
▁Max	-11.4593
▁concentrate	-11.4594
▁railway	-11.4597
▁pulse	-11.4599
▁tonnes	-11.4599
▁trunk	-11.4605
▁Geographic	-11.4605
▁contexts	-11.4608
▁diamond	-11.461
▁drilling	-11.461
human	-11.4613
▁microscope	-11.4615
▁prisoners	-11.4617
▁warned	-11.4622
▁charges	-11.4624
▁transported	-11.463
good	-11.4631
▁fears	-11.4632
ori	-11.4632
▁intent	-11.4633
▁designer	-11.4634
▁eruption	-11.4635
▁nasal	-11.4636
ada	-11.4636
▁Ba	-11.4639
▁Overview	-11.4643
▁convey	-11.4645
▁dreams	-11.4646
▁succeeded	-11.4647
▁initiated	-11.4649
▁Written	-11.4655
▁bloodstream	-11.4656
▁council	-11.4656
▁Th	-11.4657
▁assessing	-11.4661
pre	-11.4662
▁strings	-11.4665
▁3,000	-11.4665
▁motivated	-11.4666
tz	-11.4669
OR	-11.467
▁Captain	-11.467
▁socially	-11.467
▁presentations	-11.4673
▁Persian	-11.4674
▁cups	-11.4675
▁workforce	-11.4677
▁Mc	-11.4678
▁Par	-11.4679
▁Swedish	-11.468
▁cartilage	-11.4681
ding	-11.4682
▁Software	-11.4683
▁combines	-11.4684
▁peoples	-11.4685
▁Su	-11.4689
▁verse	-11.469
▁nationwide	-11.4692
▁introduces	-11.4694
▁delicate	-11.4694
▁Adams	-11.4696
▁innovations	-11.47
▁astronomy	-11.4707
▁foliage	-11.4708
▁residence	-11.4708
▁pencil	-11.4715
▁von	-11.4716
▁kilometres	-11.4717
▁pan	-11.4718
▁Spirit	-11.4718
▁harvested	-11.4719
▁grave	-11.4721
ja	-11.4726
▁Simply	-11.4726
ane	-11.4729
▁curiosity	-11.4731
▁lean	-11.4734
▁hurricane	-11.4735
▁hungry	-11.4736
▁Important	-11.4737
AL	-11.4738
▁comparable	-11.4739
▁Defense	-11.474
▁posture	-11.4742
▁4:	-11.4743
▁tribal	-11.4744
▁purchasing	-11.4745
▁ed	-11.4748
▁promoted	-11.4749
▁placement	-11.4751
▁loads	-11.4753
Fi	-11.4755
▁sore	-11.4756
inflammatory	-11.4756
▁ruler	-11.4757
▁foam	-11.4758
▁Bitcoin	-11.4758
▁Autism	-11.476
▁geological	-11.4762
▁peripheral	-11.4763
▁asset	-11.4765
▁confusing	-11.4765
▁arc	-11.4766
ara	-11.4766
▁Hong	-11.4766
▁64	-11.4771
▁smile	-11.4774
▁Singapore	-11.4783
▁forecast	-11.4783
▁applicable	-11.4786
▁printer	-11.4787
▁primitive	-11.4788
▁mono	-11.4789
▁wages	-11.479
▁Nevada	-11.4792
▁inadequate	-11.4793
▁abroad	-11.4794
▁HPV	-11.4794
▁microorganisms	-11.4794
▁writings	-11.48
▁symbolic	-11.4802
▁equity	-11.4804
▁freezing	-11.4805
▁Machine	-11.4807
five	-11.4808
▁controversy	-11.4809
▁template	-11.4811
▁suited	-11.4812
▁Eventually	-11.4812
▁promotion	-11.4812
▁lightning	-11.4813
▁handful	-11.4815
▁selecting	-11.4817
▁lasted	-11.4817
De	-11.4819
▁appointment	-11.4822
▁Plus	-11.4824
▁inability	-11.4829
▁silk	-11.483
▁1850	-11.4834
▁marker	-11.4834
▁operator	-11.4835
▁Ann	-11.4835
▁urinary	-11.4836
▁permit	-11.4837
▁Loss	-11.4837
▁soldier	-11.4839
▁uterus	-11.4843
▁sphere	-11.4844
▁automated	-11.4845
▁flesh	-11.4847
▁sweat	-11.4849
most	-11.4851
ver	-11.4852
▁Hi	-11.4853
▁lesser	-11.4853
▁10,	-11.4855
▁Want	-11.4855
▁Corporation	-11.4856
▁Benjamin	-11.4857
▁banned	-11.486
▁ion	-11.4861
▁pathway	-11.4864
▁UNESCO	-11.4864
▁1997	-11.4867
▁balls	-11.4871
▁Col	-11.4873
▁ate	-11.4877
▁sends	-11.4881
60	-11.4884
▁brilliant	-11.4887
▁payments	-11.489
read	-11.4892
especially	-11.4892
▁Si	-11.4894
▁Denmark	-11.4895
▁exceed	-11.49
▁undertaken	-11.4902
▁Certain	-11.4907
▁Beach	-11.4911
▁journals	-11.4914
▁ambitious	-11.4914
▁matching	-11.4915
iness	-11.4919
▁obstacles	-11.492
▁necessity	-11.4921
▁shifts	-11.4923
▁truck	-11.4924
▁sexually	-11.4925
▁Jo	-11.4926
▁Financial	-11.4926
▁outstanding	-11.4926
▁passenger	-11.4927
▁fastest	-11.4929
31	-11.4933
who	-11.494
▁Count	-11.494
▁Updated	-11.4948
▁lesions	-11.4948
▁CE	-11.4948
▁assumption	-11.4953
▁interfere	-11.4962
ud	-11.4966
ong	-11.497
▁95	-11.4977
they	-11.4978
▁gifts	-11.4979
▁AP	-11.498
▁counterparts	-11.4981
▁evaluating	-11.4983
▁investors	-11.4983
▁tablets	-11.4985
▁unwanted	-11.4993
▁mankind	-11.4994
▁instant	-11.4996
hu	-11.4996
▁recognised	-11.5003
▁fluoride	-11.5003
▁enamel	-11.5003
▁alternate	-11.5014
▁apples	-11.5018
▁sole	-11.5019
▁ISBN	-11.502
500	-11.5023
▁intermediate	-11.5024
▁presidential	-11.5025
▁courage	-11.5025
ko	-11.5029
▁Abstract	-11.5035
▁entities	-11.5041
dia	-11.5042
▁ultra	-11.5043
▁CA	-11.5048
▁extensively	-11.5049
▁wondering	-11.5055
▁combinations	-11.5055
▁Sierra	-11.5055
▁intact	-11.5055
▁traced	-11.5059
▁export	-11.506
cha	-11.506
▁witnessed	-11.5061
▁2013,	-11.5063
▁YouTube	-11.5065
iz	-11.5068
▁instructor	-11.5073
▁cultivation	-11.5073
▁employ	-11.5073
95	-11.5073
▁socio	-11.5073
▁gay	-11.5074
person	-11.5075
▁commissioned	-11.5077
month	-11.5079
▁storing	-11.508
▁Germans	-11.508
▁vulnerability	-11.5087
▁carved	-11.5087
▁46	-11.5089
▁counts	-11.5089
oid	-11.5092
By	-11.5092
▁beverages	-11.5097
▁Bad	-11.51
▁strikes	-11.5101
▁Kong	-11.5103
▁battles	-11.5109
▁darkness	-11.5109
▁pronounced	-11.5111
▁poses	-11.5113
po	-11.5113
▁wounds	-11.5116
▁remembered	-11.5116
▁customs	-11.5121
ski	-11.5121
▁drag	-11.5124
▁forty	-11.5125
▁Enter	-11.5125
▁peaceful	-11.5127
▁substantially	-11.5128
▁interpreted	-11.5128
▁firms	-11.513
▁pole	-11.5131
▁Republican	-11.5134
▁Allen	-11.5137
▁1994	-11.5145
▁antioxidant	-11.5145
▁illustration	-11.5147
▁harvesting	-11.515
▁70%	-11.5151
▁gross	-11.5154
▁thumb	-11.5155
▁titles	-11.5157
▁enterprise	-11.5158
▁bitter	-11.5158
▁Parks	-11.5159
▁Describe	-11.5162
nes	-11.5163
▁weed	-11.5164
▁cookies	-11.5168
!"	-11.5168
▁drew	-11.5171
▁contaminants	-11.5171
▁campaigns	-11.5171
▁documentary	-11.5172
▁urgent	-11.5174
ari	-11.5177
▁associations	-11.5177
▁horizon	-11.5178
two	-11.5178
▁23,	-11.518
▁fleet	-11.5184
▁resist	-11.5185
35	-11.5185
borne	-11.5186
aged	-11.519
size	-11.5193
▁priest	-11.5194
▁Sydney	-11.5196
▁700	-11.5198
▁notably	-11.52
▁Active	-11.5205
▁petroleum	-11.5206
ria	-11.5207
AD	-11.5208
▁missed	-11.5208
▁holidays	-11.521
▁surveillance	-11.521
▁metric	-11.5212
▁enemies	-11.5213
▁drill	-11.5213
▁tags	-11.5214
▁Military	-11.5215
▁glaciers	-11.5216
form	-11.5216
▁Used	-11.5219
▁gentle	-11.5222
ena	-11.5224
sky	-11.5225
▁Upon	-11.5228
▁Dam	-11.5228
▁ventilation	-11.5228
▁bars	-11.5229
▁lectures	-11.523
▁2010.	-11.5231
power	-11.5232
▁Notes	-11.5235
▁loaded	-11.5235
▁temples	-11.5239
▁updates	-11.5239
▁factories	-11.524
▁recreational	-11.524
ay	-11.5241
ran	-11.5242
▁simplest	-11.5243
▁stimulation	-11.5245
▁calculation	-11.5245
sis	-11.5249
▁crowd	-11.525
26	-11.5254
▁Cloud	-11.5255
▁easiest	-11.5258
▁perceive	-11.5259
▁Clinic	-11.5262
▁Rose	-11.5265
▁25%	-11.5268
▁closing	-11.5269
▁irritation	-11.5269
-20	-11.5271
▁informal	-11.5273
▁trains	-11.5274
▁Political	-11.5275
▁draws	-11.5275
▁robotic	-11.5276
▁refined	-11.528
▁spectacular	-11.528
▁Ro	-11.528
▁nests	-11.5282
▁operates	-11.5286
▁;	-11.5292
▁delivering	-11.5294
▁edible	-11.5294
space	-11.5298
▁touching	-11.53
▁Dog	-11.5301
▁burial	-11.5303
▁Bangladesh	-11.5307
▁margin	-11.5307
pm	-11.531
▁saliva	-11.5317
▁indirect	-11.5317
▁prompt	-11.5323
▁recipe	-11.5326
ik	-11.5328
▁Birds	-11.533
▁App	-11.5333
tis	-11.5334
▁Sarah	-11.5334
first	-11.5334
▁bases	-11.5335
▁balloon	-11.5342
oma	-11.5344
▁Artificial	-11.5346
room	-11.5349
ou	-11.5352
▁learner	-11.5354
▁throne	-11.5355
▁municipal	-11.5355
▁portrait	-11.5359
ano	-11.5362
▁lacking	-11.5363
▁emperor	-11.5366
▁codes	-11.5366
▁Beyond	-11.5369
▁advocates	-11.5372
▁tourist	-11.5372
▁lymph	-11.5374
▁comet	-11.5377
▁pneumonia	-11.5379
▁museums	-11.5379
▁surprisingly	-11.5382
▁pulp	-11.5382
▁currents	-11.5382
rum	-11.5384
▁accessed	-11.5384
▁heading	-11.5385
▁bell	-11.5387
▁Newton	-11.5387
▁VI	-11.5388
▁Mind	-11.5389
▁companion	-11.5389
▁courtesy	-11.5389
▁Ebola	-11.539
▁grocery	-11.5394
▁limbs	-11.5403
▁bold	-11.5404
▁fracture	-11.5405
▁mutual	-11.5405
▁translate	-11.5408
▁expense	-11.5411
▁Waste	-11.5411
▁lateral	-11.5411
▁uncomfortable	-11.5412
▁compliance	-11.5412
▁Authority	-11.5413
▁Square	-11.5414
▁nesting	-11.5414
▁crossed	-11.5415
▁conserve	-11.5419
▁Anglo	-11.542
AP	-11.5421
▁import	-11.5422
▁26,	-11.5426
▁interval	-11.5428
sch	-11.5429
▁butterfly	-11.543
▁Ke	-11.5431
▁5,000	-11.5432
ice	-11.5434
▁kings	-11.5435
▁turbines	-11.5438
AI	-11.5438
▁turbine	-11.5439
▁watershed	-11.5446
▁microscopic	-11.5446
▁criticism	-11.545
▁Jordan	-11.5453
▁formats	-11.5453
▁melt	-11.5456
▁landed	-11.5457
▁(6	-11.5463
▁2016,	-11.5468
ck	-11.5471
▁Would	-11.5474
▁joining	-11.5475
▁maximize	-11.548
▁Ra	-11.5482
▁pile	-11.5484
home	-11.5484
▁Fact	-11.5485
▁behalf	-11.5485
▁multiply	-11.5485
▁hall	-11.5486
▁silent	-11.5486
ci	-11.5489
▁crack	-11.5489
▁drying	-11.5492
▁shooting	-11.5493
▁min	-11.5494
▁guns	-11.5494
▁contrary	-11.5495
du	-11.5497
▁anatomy	-11.5502
▁Har	-11.5502
▁geo	-11.5506
▁Simon	-11.5507
▁wondered	-11.5508
▁ultrasound	-11.5509
▁perennial	-11.551
pur	-11.5513
▁seizures	-11.5514
▁Technical	-11.5517
▁elephants	-11.5518
▁clicking	-11.5519
▁1880	-11.5523
▁fusion	-11.5523
▁Discovery	-11.5525
▁Challenge	-11.5527
▁Behavior	-11.5527
)||	-11.5531
▁indication	-11.5532
▁hasn	-11.5534
▁advocate	-11.5534
▁scans	-11.5535
tin	-11.5535
▁boom	-11.5536
▁dinosaur	-11.5537
▁macro	-11.5537
▁inputs	-11.554
▁planetary	-11.554
▁bites	-11.5542
▁eliminating	-11.5542
▁Teach	-11.5543
▁Evidence	-11.5544
▁Miller	-11.5545
▁advised	-11.5545
▁pointing	-11.5547
▁2014,	-11.5548
driven	-11.5549
▁Various	-11.5549
▁inherent	-11.5557
ica	-11.556
mile	-11.5564
▁Alliance	-11.5564
END	-11.5564
▁confined	-11.5566
▁Memory	-11.5566
Co	-11.5566
ball	-11.5567
▁blade	-11.557
▁shelf	-11.5571
▁watering	-11.5573
▁coronavirus	-11.5578
▁failing	-11.5579
▁odds	-11.5579
▁tourists	-11.5581
▁steep	-11.5581
▁Organic	-11.5581
▁MRI	-11.5584
▁median	-11.5588
py	-11.559
▁respective	-11.5591
▁appreciation	-11.5593
▁races	-11.5595
▁41	-11.5595
▁chromosome	-11.5595
▁fibre	-11.5598
▁Cuba	-11.5599
▁dated	-11.5601
▁hate	-11.5601
ably	-11.5601
▁surgeon	-11.5606
▁na	-11.5606
▁club	-11.5608
tal	-11.5611
▁Effects	-11.5612
▁communicating	-11.5615
▁climb	-11.5615
▁evolve	-11.5619
gastrointestinal	-11.5619
▁tears	-11.5623
▁19,	-11.5625
▁Mal	-11.5626
cut	-11.5628
▁analytical	-11.5629
ever	-11.5629
▁Draw	-11.563
▁intervals	-11.5631
▁fantastic	-11.5631
▁dissolved	-11.5633
▁Ever	-11.5635
▁episodes	-11.5637
▁protest	-11.5638
minute	-11.5638
▁Cook	-11.5639
▁True	-11.564
▁attribute	-11.5641
▁anxious	-11.5641
▁terrible	-11.5642
▁Imperial	-11.5642
▁blooms	-11.5642
Read	-11.5644
▁summit	-11.5647
▁settlements	-11.5649
▁individually	-11.5651
▁positively	-11.5651
▁24,	-11.5653
▁Toronto	-11.5653
▁para	-11.5655
▁cosmic	-11.5656
▁fails	-11.5656
▁citizenship	-11.5656
▁Trump	-11.5657
▁2011.	-11.5658
▁plug	-11.5659
▁Dark	-11.566
▁garbage	-11.5661
▁pressures	-11.5662
▁Hard	-11.5664
▁upset	-11.567
▁insufficient	-11.5673
▁Mill	-11.5673
ea	-11.5677
▁specially	-11.5678
▁terrestrial	-11.5681
pp	-11.5681
▁reliability	-11.5681
▁illustrates	-11.5682
▁Late	-11.5685
▁continually	-11.5686
▁nutritious	-11.5689
▁northeast	-11.569
▁Agreement	-11.5693
▁Framework	-11.5693
ram	-11.5698
▁4)	-11.57
▁BCE	-11.5704
▁dive	-11.5705
▁Alcohol	-11.5706
▁actors	-11.5709
▁abnormalities	-11.5711
▁solved	-11.5712
▁prize	-11.5713
▁conditioning	-11.5713
34	-11.5715
▁inserted	-11.5715
ita	-11.5716
▁hay	-11.5719
▁Economics	-11.5719
ua	-11.572
▁rejected	-11.5725
▁valued	-11.5726
▁processor	-11.573
▁Torah	-11.5732
▁turtle	-11.5732
▁arrest	-11.5732
ery	-11.5734
▁biblical	-11.5736
▁fractures	-11.5742
▁le	-11.5742
▁highway	-11.5743
▁pediatric	-11.5743
▁Industry	-11.5746
▁Hurricane	-11.5749
▁reservoir	-11.5751
▁radius	-11.5752
▁elaborate	-11.5752
tor	-11.5752
meter	-11.5753
▁alarm	-11.5753
▁Philosophy	-11.5753
▁cargo	-11.5754
▁Tar	-11.5755
▁walked	-11.5756
▁shortage	-11.5757
▁relax	-11.5757
ek	-11.576
▁pressing	-11.5762
▁eligible	-11.5763
▁agenda	-11.5767
▁grasses	-11.5769
▁bath	-11.5769
▁Nigeria	-11.5778
▁economically	-11.5781
▁accommodate	-11.5785
▁commit	-11.5785
ki	-11.5788
▁Christopher	-11.5791
▁2012.	-11.5793
▁activists	-11.5796
▁broadcast	-11.5797
▁Thanksgiving	-11.5799
▁47	-11.5801
▁composite	-11.5803
▁specimen	-11.5804
▁runoff	-11.5804
▁admitted	-11.5805
▁fertile	-11.5807
▁descendants	-11.5807
▁29,	-11.5807
▁dynasty	-11.5808
▁disabled	-11.5809
▁folks	-11.5815
▁commission	-11.5816
▁pig	-11.5817
▁southwest	-11.5817
▁sculpture	-11.5819
▁deforestation	-11.5819
▁Walter	-11.582
▁Hispanic	-11.5821
▁Adult	-11.5823
▁carrier	-11.5825
▁Again	-11.5828
▁Pages	-11.583
▁yesterday	-11.583
▁autoimmune	-11.583
▁remind	-11.5834
▁tragedy	-11.5834
▁Wright	-11.5835
▁coupled	-11.5836
▁dots	-11.5836
▁grants	-11.5839
▁governance	-11.584
▁constraints	-11.5841
▁wilderness	-11.5843
▁phosphorus	-11.5843
▁Virtual	-11.5849
▁depressed	-11.585
▁Individuals	-11.585
▁inexpensive	-11.5854
▁anemia	-11.5856
▁lithium	-11.5856
▁Everything	-11.5859
▁aerial	-11.586
▁rehabilitation	-11.5865
START	-11.5865
▁conservative	-11.5868
▁Celsius	-11.5871
▁Beginning	-11.5873
▁fans	-11.5875
▁queen	-11.5875
▁2-	-11.5875
▁Net	-11.5875
▁attach	-11.5877
▁recipes	-11.5877
▁provinces	-11.5878
▁defeated	-11.5881
▁struggles	-11.5884
ris	-11.5884
86	-11.5884
ala	-11.5885
▁investigations	-11.5887
▁Turkish	-11.5887
cent	-11.5889
▁certified	-11.589
▁revised	-11.5893
▁formerly	-11.5896
▁strongest	-11.5897
▁corrosion	-11.59
▁Night	-11.5901
▁Douglas	-11.5904
▁tomb	-11.5905
▁2007,	-11.5905
▁systemic	-11.5906
▁publicly	-11.591
▁spiders	-11.5911
▁underneath	-11.5913
▁constitute	-11.5913
▁blank	-11.5913
▁conceptual	-11.5913
▁10-	-11.5914
MA	-11.5915
▁modes	-11.5915
ons	-11.5917
▁responded	-11.5922
▁Swiss	-11.5923
▁frames	-11.5926
▁sink	-11.5927
▁BMI	-11.5927
▁blindness	-11.5929
▁Annual	-11.593
▁tales	-11.593
▁4-	-11.5934
▁reinforce	-11.5936
▁dependence	-11.5937
▁assault	-11.5938
▁wax	-11.5938
▁declining	-11.5939
▁rounded	-11.594
usually	-11.5943
▁permanently	-11.5943
▁germs	-11.5943
▁trucks	-11.5944
▁Tim	-11.5945
▁induced	-11.5946
▁25,	-11.595
▁planes	-11.5953
▁IBM	-11.5954
▁membranes	-11.5959
▁visually	-11.5962
▁Knowing	-11.5963
▁hang	-11.5969
osis	-11.597
▁Israeli	-11.5971
rus	-11.5972
ru	-11.5976
▁Tools	-11.5976
▁hanging	-11.5976
▁Ethiopia	-11.5978
▁conclude	-11.5978
▁readings	-11.598
▁Frederick	-11.598
▁legislative	-11.5981
▁Ga	-11.5983
▁beetles	-11.5985
▁Ta	-11.599
▁del	-11.5992
▁Fahrenheit	-11.5994
▁gauge	-11.5995
▁accordance	-11.5996
▁1996	-11.6
75	-11.6001
▁corporations	-11.6001
▁Europeans	-11.6002
▁prosperity	-11.6004
▁deemed	-11.6005
▁Electronic	-11.6008
▁repetitive	-11.6008
▁tide	-11.601
▁Houston	-11.6013
▁numerical	-11.6017
▁exotic	-11.602
▁Argentina	-11.6021
▁transplant	-11.6021
van	-11.6025
tel	-11.6025
▁rover	-11.6026
▁Welcome	-11.6027
▁twin	-11.6028
▁considerations	-11.6031
▁dwarf	-11.6034
▁shield	-11.6034
▁cylinder	-11.6035
▁Geography	-11.6037
▁flora	-11.6037
▁Growth	-11.6037
▁eliminated	-11.6038
rin	-11.6041
▁27,	-11.6045
▁threshold	-11.6047
▁barely	-11.6049
ati	-11.6052
▁legally	-11.6052
thirds	-11.6056
▁smartphone	-11.6056
▁Greenland	-11.6057
▁Ken	-11.6061
▁painter	-11.6061
▁luck	-11.6061
▁chewing	-11.6062
▁Carl	-11.6063
09	-11.6066
▁seats	-11.6069
▁periodic	-11.6071
▁icon	-11.6072
▁bush	-11.6073
▁Discuss	-11.6074
▁Mon	-11.6074
▁MA	-11.6075
ken	-11.6075
▁Critical	-11.6078
▁RE	-11.6079
▁coordinate	-11.608
▁Vision	-11.6081
▁Articles	-11.6082
▁potent	-11.6082
▁gate	-11.6083
▁fits	-11.6085
▁asleep	-11.6091
▁heaven	-11.6094
▁charter	-11.6096
▁voters	-11.6097
▁rocky	-11.6099
▁Hubble	-11.61
tri	-11.6101
▁49	-11.6102
▁certificate	-11.6103
profit	-11.6103
▁gently	-11.6104
▁northwest	-11.6107
▁naval	-11.6108
▁dual	-11.6111
▁dies	-11.6112
▁exceptional	-11.6112
▁descent	-11.6114
▁60%	-11.6115
▁delayed	-11.6119
get	-11.6119
▁Desert	-11.6119
▁overlooked	-11.6119
▁Nepal	-11.6121
▁doctrine	-11.6122
▁1890	-11.6123
▁shower	-11.6123
▁candy	-11.6125
▁bare	-11.6129
▁chromosomes	-11.6129
▁Higher	-11.6132
▁variants	-11.6135
80	-11.6136
▁resting	-11.6137
▁receptor	-11.6138
▁landmark	-11.614
▁Margaret	-11.614
▁praise	-11.6142
▁pronunciation	-11.6142
▁pipeline	-11.6147
▁Chris	-11.6148
▁Rule	-11.6149
▁liberty	-11.6151
▁provisions	-11.6152
▁pound	-11.6154
▁crude	-11.6155
▁resemble	-11.6157
▁snack	-11.6159
▁charging	-11.6159
▁spill	-11.616
▁Disorders	-11.6161
▁Growing	-11.6162
▁Sal	-11.6162
▁speaks	-11.6162
▁lion	-11.6163
▁limestone	-11.6166
gi	-11.6166
▁hoping	-11.6169
▁ranks	-11.6173
illa	-11.6174
▁Manual	-11.6177
▁Editor	-11.6178
▁Tu	-11.6179
▁Bob	-11.6179
▁Seven	-11.618
▁rating	-11.618
▁Hamilton	-11.6183
▁Trail	-11.6184
▁empathy	-11.6185
▁baseball	-11.6186
▁continental	-11.619
▁harmony	-11.6193
▁straightforward	-11.6197
▁interference	-11.6197
HS	-11.6198
▁Location	-11.6201
▁alien	-11.6203
▁reads	-11.6205
▁Starting	-11.6207
▁registration	-11.621
▁fisheries	-11.6212
▁variant	-11.6213
▁ma	-11.6217
▁disappear	-11.6218
▁72	-11.622
▁norms	-11.6225
▁southeast	-11.6226
▁banking	-11.6226
bed	-11.623
▁tin	-11.623
▁coronary	-11.6233
ani	-11.6235
▁stopping	-11.6237
▁compressed	-11.6237
▁Geological	-11.6238
▁approaching	-11.6239
lar	-11.624
▁voluntary	-11.624
▁considers	-11.624
▁Speech	-11.6241
▁activated	-11.6243
▁Him	-11.6244
▁OR	-11.6246
ene	-11.6246
▁stayed	-11.6248
▁exercising	-11.6251
▁followers	-11.6252
▁lava	-11.6252
▁Doctors	-11.6255
ow	-11.6255
▁bin	-11.6257
▁ports	-11.6258
▁Capital	-11.6261
▁rituals	-11.6262
▁dawn	-11.6263
▁warfare	-11.6263
At	-11.6264
▁needles	-11.6265
▁Complete	-11.6267
▁kills	-11.6268
ag	-11.627
▁outlined	-11.6271
▁surveyed	-11.6272
▁Moore	-11.6273
▁Son	-11.6274
▁personally	-11.6275
▁neighboring	-11.6276
where	-11.6277
▁bronze	-11.6278
▁laptop	-11.628
▁Front	-11.6282
▁sticks	-11.6282
▁manure	-11.6283
par	-11.6286
▁Thailand	-11.6287
▁permitted	-11.6287
▁marking	-11.6287
▁pit	-11.6289
▁Humans	-11.629
▁stigma	-11.629
▁renowned	-11.629
On	-11.6291
vo	-11.6291
▁hydraulic	-11.6292
▁welding	-11.6293
▁deployed	-11.6297
▁refuge	-11.6301
▁101	-11.6302
che	-11.6308
aria	-11.6312
▁dehydration	-11.6314
▁Highway	-11.6314
▁differs	-11.6316
▁entries	-11.6318
▁upcoming	-11.6318
▁emphasize	-11.632
▁populated	-11.6321
▁monuments	-11.6326
▁Baby	-11.6328
▁5%	-11.6329
▁certification	-11.6331
▁philosopher	-11.6332
▁Ross	-11.6333
learning	-11.6333
▁Meaning	-11.6334
▁Approximately	-11.6334
▁Thinking	-11.6334
▁meta	-11.6334
La	-11.6335
▁seas	-11.6336
▁vein	-11.6336
▁deficit	-11.6337
▁Sh	-11.6339
▁newborn	-11.634
▁neglect	-11.634
▁vascular	-11.6342
ren	-11.6342
lic	-11.6342
▁flame	-11.6343
▁gluten	-11.6344
▁inventory	-11.6344
▁Presentation	-11.6344
▁Ukraine	-11.6347
▁linguistic	-11.6348
▁alignment	-11.6349
▁Consequently	-11.6349
▁reactor	-11.635
▁muscular	-11.6352
▁Fun	-11.6353
▁variability	-11.6353
▁dirty	-11.6353
▁Trees	-11.6355
▁utilizing	-11.6357
body	-11.6359
▁1860	-11.6361
▁collision	-11.6365
▁Montana	-11.6365
SC	-11.6366
▁scholar	-11.6368
▁Genesis	-11.6369
▁Participants	-11.6369
▁emitted	-11.6369
▁quantitative	-11.6372
tan	-11.6372
▁preserving	-11.6373
oriented	-11.6376
▁NC	-11.6378
▁Evolution	-11.638
▁Hot	-11.6381
▁Run	-11.6382
▁disappeared	-11.6382
▁limb	-11.6382
gan	-11.6383
▁somehow	-11.6384
▁Hopkins	-11.6385
▁immense	-11.6386
▁NOAA	-11.6388
rate	-11.6388
▁profits	-11.6388
▁manipulate	-11.6388
▁edited	-11.6389
▁Live	-11.6389
tus	-11.639
▁pesticide	-11.639
▁specify	-11.639
▁formally	-11.6396
har	-11.64
▁passages	-11.6402
▁crater	-11.6403
▁withstand	-11.6403
AIDS	-11.6405
tro	-11.6406
▁Canal	-11.6406
▁(16	-11.6411
▁54	-11.6416
▁stressful	-11.6417
▁artwork	-11.6418
▁Specifically	-11.6421
▁hemisphere	-11.6424
round	-11.6425
▁preliminary	-11.6425
▁scratch	-11.6426
▁Mid	-11.6427
▁sequencing	-11.6431
▁2013.	-11.6433
▁Continue	-11.6435
▁picking	-11.6435
▁Goals	-11.6437
▁lowering	-11.6439
▁1870	-11.644
▁Orleans	-11.6444
▁mate	-11.6445
▁occasions	-11.6446
▁1.2	-11.645
▁preferences	-11.6455
▁desirable	-11.6455
▁sulfur	-11.6456
▁microbial	-11.6458
energy	-11.6458
ric	-11.6458
▁separately	-11.6461
MP	-11.6464
▁endemic	-11.6465
▁responding	-11.6465
▁fin	-11.6468
▁pools	-11.6468
▁wolf	-11.6468
▁Construction	-11.647
▁exhibits	-11.6472
▁pancreas	-11.6472
▁commercially	-11.6473
▁acceleration	-11.6473
▁Han	-11.6474
▁absent	-11.6476
▁expectancy	-11.6477
▁textbooks	-11.6479
used	-11.6481
▁publishing	-11.6483
▁Soon	-11.6483
▁appearing	-11.6485
▁palace	-11.6488
▁Near	-11.6488
-5	-11.649
▁Award	-11.649
▁woods	-11.6491
▁predominantly	-11.6491
▁Harry	-11.6492
▁valves	-11.6495
▁exclusive	-11.6497
▁simulations	-11.6497
ID	-11.6497
▁subjected	-11.6498
▁mitigate	-11.65
▁pots	-11.65
▁Sports	-11.65
▁mythology	-11.6505
ions	-11.6508
▁pulling	-11.6509
▁darker	-11.651
▁frogs	-11.6511
▁Lack	-11.6511
PDF	-11.6512
▁climbing	-11.6514
▁Snow	-11.6515
▁Changes	-11.6516
▁Ki	-11.6519
mes	-11.6521
kg	-11.6522
▁Mu	-11.6526
ties	-11.6526
▁52	-11.6527
▁signature	-11.6528
▁stresses	-11.653
▁Production	-11.6531
▁hosted	-11.6534
makers	-11.6537
▁problematic	-11.6538
▁tender	-11.6539
▁thinks	-11.6541
▁Gender	-11.6541
▁lips	-11.6542
▁researching	-11.6546
29	-11.6548
36	-11.6549
▁backgrounds	-11.6551
uri	-11.6555
▁ponds	-11.6556
▁Price	-11.6562
▁lock	-11.6562
▁Province	-11.6563
▁Link	-11.6564
▁spell	-11.6565
▁uncovered	-11.6568
▁votes	-11.6571
▁Seattle	-11.6573
▁inspection	-11.6577
BC	-11.6582
▁Pet	-11.6582
▁cleaner	-11.6584
▁CEO	-11.6586
▁Harbor	-11.6586
▁reminder	-11.6588
▁archive	-11.6589
▁Susan	-11.6592
▁Ground	-11.6593
▁worm	-11.6595
▁calorie	-11.6597
▁Side	-11.6597
▁histories	-11.6597
tes	-11.6598
▁Ash	-11.66
▁Understand	-11.6601
▁lottery	-11.6601
CT	-11.6601
▁Thank	-11.6603
▁herb	-11.6604
▁desktop	-11.661
▁(15	-11.6611
▁authentic	-11.6611
▁iconic	-11.6611
▁Joint	-11.6612
▁paste	-11.6613
SA	-11.6614
▁Cost	-11.6615
▁diabetic	-11.6618
▁Geo	-11.6618
▁estrogen	-11.6619
▁momentum	-11.662
▁Sept	-11.662
-16	-11.6623
▁strokes	-11.6623
▁quest	-11.6625
ified	-11.6628
▁genre	-11.6628
▁competing	-11.6634
▁Anyone	-11.6634
▁odor	-11.6636
▁convinced	-11.6637
▁ch	-11.6641
▁Alberta	-11.6642
▁promised	-11.6642
▁nail	-11.6645
▁preventive	-11.665
▁ceiling	-11.6655
▁digest	-11.6657
flow	-11.6657
▁1991	-11.6658
ff	-11.666
▁uncertain	-11.6662
▁contagious	-11.6663
▁veterans	-11.6664
▁Us	-11.6665
▁proximity	-11.6666
▁spite	-11.6668
▁Luke	-11.6668
▁Fa	-11.667
▁buffer	-11.6672
▁ruins	-11.6672
▁evolving	-11.6674
▁acne	-11.6675
▁Sand	-11.6678
▁migrate	-11.6678
▁ties	-11.6679
▁chord	-11.6681
▁osteoporosis	-11.6684
-6	-11.6684
▁1993	-11.6685
▁inhabited	-11.6686
economic	-11.6691
▁tomorrow	-11.6692
▁ought	-11.6692
▁fungal	-11.6692
▁restaurants	-11.6695
▁adventure	-11.6696
200	-11.67
▁reuse	-11.6703
▁fragile	-11.6703
▁feast	-11.6707
▁electro	-11.6707
effective	-11.6712
Ref	-11.6713
▁caregivers	-11.6714
▁tire	-11.6717
▁dye	-11.6717
.3	-11.6723
jo	-11.6723
▁compelling	-11.6723
▁prompted	-11.6725
▁acknowledge	-11.6732
▁similarly	-11.6734
▁hollow	-11.6739
▁inevitable	-11.674
▁cortex	-11.674
ations	-11.674
▁Sp	-11.6741
▁Guard	-11.6742
▁spreads	-11.6744
▁assembled	-11.6744
▁aligned	-11.6745
▁feeds	-11.6745
01	-11.6746
▁centered	-11.6749
▁Tower	-11.675
▁imbalance	-11.675
▁delicious	-11.6752
▁monetary	-11.6754
▁hoped	-11.6754
▁2015.	-11.6755
▁liquids	-11.6756
▁centres	-11.6757
▁hat	-11.6759
▁producer	-11.6759
name	-11.6763
▁passwords	-11.6765
▁clinic	-11.6767
▁Inside	-11.6769
▁withdrawal	-11.6769
▁tomato	-11.677
▁cables	-11.6771
▁Yale	-11.6772
▁wool	-11.6773
▁exit	-11.6773
▁embryo	-11.6774
▁bicycle	-11.6775
▁undergraduate	-11.6776
▁stack	-11.6779
▁novels	-11.678
▁Cor	-11.678
▁Childhood	-11.6781
▁Focus	-11.6783
▁maturity	-11.6783
▁Finland	-11.6785
▁Turn	-11.6785
▁reflecting	-11.6787
▁stunning	-11.6789
▁encryption	-11.6789
▁ethanol	-11.6789
▁aggression	-11.679
33	-11.6791
▁ultraviolet	-11.6793
▁blend	-11.6793
▁poison	-11.6794
▁requests	-11.6796
▁hits	-11.6797
▁incorrect	-11.6799
Ex	-11.6799
▁efficacy	-11.6801
▁nearest	-11.6801
▁aesthetic	-11.6802
▁letting	-11.6805
▁laying	-11.6806
▁altogether	-11.6806
▁Individual	-11.6806
▁sewage	-11.681
▁rigid	-11.681
▁linking	-11.681
▁Channel	-11.6812
ps	-11.6814
▁priorities	-11.6815
▁Form	-11.6815
induced	-11.6815
▁menstrual	-11.6817
▁dysfunction	-11.6818
▁Foreign	-11.682
▁Canyon	-11.6822
▁honour	-11.6825
▁imperative	-11.6826
▁marijuana	-11.6826
▁Forum	-11.6832
▁polymer	-11.6833
only	-11.6839
▁Howard	-11.684
▁Fox	-11.6843
solving	-11.6852
▁screens	-11.6855
▁climates	-11.6856
▁strictly	-11.6856
▁Architecture	-11.6859
▁appropriately	-11.686
▁fractions	-11.6862
▁Role	-11.6862
when	-11.6868
box	-11.6869
▁Android	-11.6869
▁exploitation	-11.6869
▁lifelong	-11.687
▁Magazine	-11.6872
▁Server	-11.6877
ants	-11.688
▁towers	-11.688
▁retention	-11.688
ator	-11.6883
▁Federation	-11.6884
▁caves	-11.6886
▁unity	-11.6887
▁implants	-11.6888
▁terminology	-11.6889
▁Value	-11.6889
▁2017,	-11.689
▁adolescent	-11.6891
gy	-11.6892
▁imposed	-11.6892
▁Delta	-11.6893
▁celebrating	-11.6893
▁manipulation	-11.6893
building	-11.6894
▁termed	-11.6894
▁forcing	-11.6898
▁differential	-11.6899
▁washed	-11.6905
▁clarity	-11.6905
▁logging	-11.6905
▁airplane	-11.6906
▁prediction	-11.6906
sub	-11.6908
▁Baltimore	-11.691
▁tsunami	-11.6912
▁fled	-11.6913
view	-11.6914
ade	-11.6914
▁Silver	-11.6915
▁Ray	-11.6915
▁verbs	-11.6916
▁0.5	-11.6918
▁Steve	-11.6919
▁treats	-11.6923
90	-11.6924
▁recognise	-11.6926
▁51	-11.6927
▁180	-11.6928
▁Puerto	-11.693
▁Affairs	-11.6932
▁grazing	-11.6932
▁marrow	-11.6935
▁Issue	-11.6938
ches	-11.6938
▁20,000	-11.6939
▁databases	-11.694
▁lifespan	-11.694
▁breakthrough	-11.6943
▁shoulders	-11.6944
▁investing	-11.6944
▁possession	-11.6944
▁Ge	-11.6945
list	-11.6946
ix	-11.6946
▁multiplication	-11.6947
▁cracks	-11.6947
▁Staff	-11.695
▁biologist	-11.6952
▁featuring	-11.6955
▁Neuro	-11.6957
▁lit	-11.6958
▁nonprofit	-11.6958
code	-11.6959
▁Finding	-11.6964
test	-11.6965
▁satisfaction	-11.6965
MC	-11.6966
▁occasional	-11.6967
▁Portugal	-11.6978
64	-11.6981
eh	-11.6982
▁rot	-11.6987
su	-11.6988
▁complement	-11.699
▁Available	-11.6992
▁strengthening	-11.6992
▁differentiate	-11.6998
400	-11.6998
▁Muhammad	-11.6999
▁matches	-11.6999
▁editors	-11.7005
▁Para	-11.7006
▁Fourth	-11.7007
zi	-11.701
▁baseline	-11.7013
▁scarce	-11.7013
▁unfortunately	-11.7013
▁advent	-11.7014
▁neighborhoods	-11.7016
▁suspended	-11.7017
lay	-11.7019
▁ON	-11.7021
▁fired	-11.7025
▁parasite	-11.7026
▁bodily	-11.7031
▁Fast	-11.7033
▁lucky	-11.7034
▁defect	-11.7037
▁deck	-11.7039
RESPONSE	-11.704
▁farther	-11.7041
cost	-11.7042
▁Register	-11.7042
range	-11.7043
▁harmless	-11.7044
▁Marshall	-11.7047
▁exhaust	-11.705
yn	-11.7052
▁killer	-11.7052
▁Anna	-11.7052
▁realm	-11.7052
▁recycle	-11.7057
▁toxicity	-11.7057
▁sp	-11.706
▁societal	-11.7061
▁seventh	-11.7062
▁honest	-11.7064
east	-11.7066
lands	-11.7068
▁aboard	-11.7071
▁prehistoric	-11.7074
▁transaction	-11.7074
▁kick	-11.7075
growing	-11.7075
▁pharmaceutical	-11.7076
▁trait	-11.7076
▁Palace	-11.7078
▁Pass	-11.708
▁sensing	-11.7081
▁administrators	-11.7081
▁Cap	-11.7084
▁Ottoman	-11.7084
▁Mobile	-11.7086
▁demanding	-11.7087
▁surely	-11.7093
▁thrust	-11.7094
▁tragic	-11.7094
▁favourite	-11.7096
▁surge	-11.7096
▁preference	-11.7097
NA	-11.7097
om	-11.71
▁000	-11.7102
▁adjusted	-11.7105
▁fulfill	-11.7105
▁AS	-11.7106
▁shifting	-11.7107
▁diagrams	-11.7107
▁Nelson	-11.7108
speed	-11.7108
▁corruption	-11.7111
▁Subject	-11.7115
▁displaced	-11.7117
▁Rev	-11.7117
ika	-11.7122
▁pocket	-11.7123
▁convention	-11.7124
▁posed	-11.7125
▁dispute	-11.7131
▁seals	-11.7131
▁boiling	-11.7133
▁swollen	-11.7133
▁Sky	-11.7135
▁tense	-11.7136
▁denied	-11.7137
▁fraud	-11.7137
▁float	-11.7138
▁pr	-11.714
▁Railroad	-11.7142
▁Athens	-11.7142
▁Anxiety	-11.7143
TH	-11.7146
▁publish	-11.7148
▁pursuit	-11.7148
▁poles	-11.715
("	-11.7151
▁simpler	-11.7151
▁broadly	-11.7152
Me	-11.7157
▁weakened	-11.7158
▁releasing	-11.7158
42	-11.716
▁rat	-11.7162
▁cigarettes	-11.7162
▁ABC	-11.7163
▁tablet	-11.7164
▁rigorous	-11.7164
AT	-11.7171
▁Lyme	-11.7172
▁MP	-11.7174
log	-11.7174
▁Eric	-11.7176
▁internationally	-11.7177
▁tie	-11.7182
▁vaccinated	-11.7183
▁aviation	-11.7184
▁biologists	-11.7185
▁attachment	-11.7186
▁endless	-11.7188
▁slopes	-11.7188
▁durable	-11.7189
▁Ne	-11.7194
▁Allah	-11.7197
▁grace	-11.7198
▁Breast	-11.72
▁decorated	-11.7202
▁Ban	-11.7203
▁Present	-11.7204
▁attraction	-11.7205
▁Dynasty	-11.7206
▁frog	-11.721
▁geology	-11.721
▁Category	-11.7211
▁sword	-11.7211
br	-11.7212
OS	-11.7214
▁everybody	-11.7218
ky	-11.7218
▁curved	-11.7219
▁Orange	-11.722
eo	-11.7224
eye	-11.7224
▁Programs	-11.7225
▁collectively	-11.7225
▁contracts	-11.7226
▁reptiles	-11.7226
ez	-11.723
▁occupational	-11.7232
▁Command	-11.7232
1)	-11.7233
▁Hudson	-11.7233
▁memorial	-11.7234
▁architects	-11.7235
▁incorporating	-11.7236
▁Zika	-11.7237
▁teachings	-11.7237
▁radicals	-11.7244
▁Past	-11.7244
▁Arkansas	-11.7245
▁ancestor	-11.7248
▁infect	-11.725
▁sickness	-11.7251
▁tuberculosis	-11.7251
▁Response	-11.7251
control	-11.7254
▁Malaysia	-11.7258
▁schooling	-11.7259
▁drum	-11.726
▁140	-11.7265
▁30,	-11.7268
▁enrolled	-11.7268
▁printable	-11.727
▁arises	-11.7271
▁poster	-11.7272
▁1500	-11.7273
▁Apart	-11.7274
ai	-11.7274
PC	-11.7275
▁stays	-11.7279
▁equilibrium	-11.7282
▁Developing	-11.7283
▁randomly	-11.7284
▁Corn	-11.7284
▁degeneration	-11.7285
▁enhancing	-11.7285
▁recognizing	-11.7288
▁silence	-11.7288
▁celebrations	-11.7288
▁Milky	-11.729
wing	-11.7291
▁Say	-11.7291
week	-11.7296
▁cry	-11.7296
▁deposit	-11.7297
▁maintains	-11.7297
lu	-11.7297
▁gradual	-11.7298
▁march	-11.7299
▁mentally	-11.7303
▁bow	-11.7303
▁Money	-11.7305
▁scanning	-11.7306
▁offset	-11.7309
▁Member	-11.731
▁130	-11.7311
▁insert	-11.7311
▁timeline	-11.7314
▁Genetic	-11.7314
▁timely	-11.7315
▁(4)	-11.7316
▁magnet	-11.7316
▁2005,	-11.7318
▁temporarily	-11.7318
ble	-11.7319
tra	-11.7321
ue	-11.7322
▁cycling	-11.7322
▁implant	-11.7324
▁Bishop	-11.7325
▁Territory	-11.7327
▁deciding	-11.7327
▁coping	-11.7329
▁computational	-11.7329
▁humanitarian	-11.7332
▁pulmonary	-11.7333
▁Tea	-11.7335
▁Known	-11.7336
▁obtaining	-11.7338
PS	-11.7338
▁citation	-11.7339
▁font	-11.7343
▁precautions	-11.7343
▁landfill	-11.7346
-8	-11.7347
▁Congo	-11.7347
▁wherever	-11.7347
▁shuttle	-11.7349
▁Sar	-11.735
lon	-11.7353
▁Plastic	-11.7353
▁Panel	-11.7353
▁lamp	-11.7354
▁IoT	-11.7356
▁Americas	-11.7356
▁modifications	-11.7357
pin	-11.7357
mat	-11.7361
▁recommendation	-11.7364
3,	-11.7365
▁Ms	-11.7366
▁Object	-11.7367
▁Eco	-11.737
▁56	-11.7371
▁juvenile	-11.7373
▁Penn	-11.7374
carbon	-11.7378
just	-11.7382
▁depths	-11.7382
▁upward	-11.7384
▁Ali	-11.7387
▁anyway	-11.7387
▁yards	-11.7389
▁recession	-11.7391
▁supportive	-11.7392
▁damages	-11.7393
ates	-11.7393
▁Tokyo	-11.7394
▁stretches	-11.7397
";	-11.7397
▁fifteen	-11.7398
70	-11.7398
uff	-11.74
St	-11.74
▁conception	-11.7403
▁epic	-11.7404
▁stocks	-11.7405
▁baking	-11.7406
▁handy	-11.7409
▁lip	-11.7413
▁respected	-11.7414
▁Virgin	-11.7417
▁wolves	-11.7418
▁retained	-11.7419
was	-11.742
▁substrate	-11.742
▁Background	-11.7422
▁Universal	-11.7426
▁spark	-11.743
▁2023	-11.743
▁bend	-11.7431
▁constipation	-11.7432
▁Gallery	-11.7432
▁cannabis	-11.7437
▁perceptions	-11.7443
▁Principles	-11.7445
▁demographic	-11.745
lam	-11.7459
▁destroying	-11.7459
▁goddess	-11.7463
▁converting	-11.7464
▁educator	-11.7464
▁veterinarian	-11.7465
▁hunters	-11.7467
▁tolerate	-11.7468
yan	-11.7469
▁embrace	-11.7469
▁membership	-11.7469
▁lasts	-11.7471
than	-11.7471
▁heavier	-11.7472
▁Adults	-11.7472
▁engineered	-11.7473
▁dams	-11.7473
▁automobile	-11.7473
▁behaviours	-11.7475
Be	-11.7476
▁legitimate	-11.7478
food	-11.7479
▁ticks	-11.748
▁accessibility	-11.748
▁practically	-11.7481
▁ulcers	-11.7482
▁NO	-11.7483
▁guest	-11.7487
len	-11.7488
bound	-11.7488
▁mating	-11.7488
▁Left	-11.7489
▁eclipse	-11.7489
▁Kar	-11.7491
▁Kim	-11.7491
science	-11.7495
▁Remove	-11.7495
▁deaf	-11.7496
aries	-11.7496
▁mandatory	-11.7498
▁alarming	-11.7503
▁calculator	-11.7505
▁pepper	-11.7507
▁shots	-11.7507
▁2006,	-11.7508
je	-11.7509
▁commerce	-11.751
bin	-11.7511
▁Delhi	-11.7512
▁Reports	-11.7512
Why	-11.7513
▁malware	-11.7515
▁squares	-11.7516
▁Stay	-11.7516
▁Internal	-11.7518
▁musicians	-11.7519
▁j	-11.752
▁analog	-11.752
▁execute	-11.7521
▁Endangered	-11.7522
▁treasure	-11.7526
▁Sources	-11.7526
▁Cognitive	-11.7527
▁advancement	-11.7528
▁ankle	-11.7528
▁Isaac	-11.7529
▁whites	-11.7531
▁Nor	-11.7534
▁leak	-11.7536
▁License	-11.7536
▁psychologist	-11.7536
▁Stories	-11.7539
▁mainland	-11.754
▁noble	-11.754
▁Juan	-11.754
▁Bear	-11.7541
▁athlete	-11.7542
▁Scientist	-11.7542
▁alleviate	-11.7543
▁Ab	-11.7544
UN	-11.7545
▁slides	-11.7545
▁demonstrating	-11.7547
▁cigarette	-11.755
▁digits	-11.7551
▁fertilizers	-11.7551
▁marble	-11.7552
▁encompasses	-11.7552
▁Zone	-11.7553
▁therapist	-11.7553
black	-11.7555
▁Religion	-11.7558
ATION	-11.7559
▁failures	-11.7562
▁comprise	-11.7563
row	-11.7563
▁organizing	-11.7565
▁(10	-11.7566
▁Aristotle	-11.7567
af	-11.7571
wan	-11.7572
sea	-11.7573
▁relevance	-11.7574
▁Ecology	-11.7574
▁Habitat	-11.7575
▁adaptive	-11.7575
▁regards	-11.7576
▁Tax	-11.7579
▁Band	-11.7581
99	-11.7583
▁coli	-11.7584
under	-11.7586
▁prints	-11.7587
▁straw	-11.7587
▁growers	-11.759
▁Base	-11.7591
▁reforms	-11.7591
AM	-11.7591
▁trails	-11.7593
▁divisions	-11.7596
▁Mi	-11.7597
▁excitement	-11.7601
▁smokers	-11.7601
-15	-11.7607
▁displacement	-11.7607
▁motors	-11.7607
▁Joe	-11.7609
▁Ridge	-11.761
▁recreation	-11.7611
▁Village	-11.7614
▁commander	-11.7617
▁antenna	-11.7617
▁Med	-11.7619
▁plains	-11.7621
▁01	-11.7624
▁risen	-11.7625
▁verify	-11.7626
▁Ball	-11.7627
▁temporal	-11.7628
▁critics	-11.7628
CDC	-11.763
▁Discover	-11.7631
▁Pay	-11.7632
▁Leave	-11.7633
▁secular	-11.7636
▁debates	-11.7636
▁sunny	-11.7638
▁stimulus	-11.7641
▁utilities	-11.7641
▁institutional	-11.7641
▁Picture	-11.7642
▁microwave	-11.7645
▁Eve	-11.7648
▁lifting	-11.7649
▁couples	-11.7652
ground	-11.7653
▁plague	-11.7654
▁exterior	-11.7654
▁laboratories	-11.7654
▁remedy	-11.7654
▁fake	-11.7655
▁pm	-11.7656
▁inventor	-11.7657
▁erected	-11.7658
▁talent	-11.7658
▁Nicholas	-11.7659
vin	-11.766
▁arrested	-11.766
▁heel	-11.7665
▁catastrophic	-11.7665
▁bull	-11.7667
ES	-11.7668
▁Senior	-11.767
▁graders	-11.7672
▁Glass	-11.7673
▁grapes	-11.7674
▁contest	-11.7674
act	-11.7675
▁measles	-11.7682
▁Listen	-11.7682
▁rope	-11.7682
▁routinely	-11.7683
▁hub	-11.7684
▁strips	-11.7684
▁hitting	-11.7686
▁Matt	-11.7688
▁Race	-11.7688
▁Fruit	-11.769
▁poisonous	-11.7691
▁rains	-11.7692
pdf	-11.7692
▁Applied	-11.7695
▁united	-11.7696
▁Normal	-11.7699
ned	-11.77
▁Made	-11.7702
▁skeleton	-11.7702
▁photosynthesis	-11.7704
▁Assistant	-11.7704
▁credited	-11.7705
▁graphs	-11.7705
▁coil	-11.7706
▁Falls	-11.7707
▁walks	-11.7707
▁daylight	-11.7709
▁schemes	-11.771
▁compensation	-11.771
ST	-11.7711
ob	-11.7712
▁Belgium	-11.7713
▁overhead	-11.7714
west	-11.7717
▁Quebec	-11.7718
▁accelerate	-11.7718
▁Sudan	-11.7719
ora	-11.7719
▁Hope	-11.7719
▁Structure	-11.772
band	-11.772
▁Norman	-11.7721
▁Generation	-11.7722
▁informative	-11.7722
▁Solomon	-11.7724
▁Hearing	-11.7724
▁volcanoes	-11.7725
▁archaeologists	-11.7727
▁reconstruction	-11.7728
▁shrub	-11.7728
▁coordinates	-11.7728
tur	-11.773
▁aquarium	-11.7731
▁Cal	-11.7734
▁CH	-11.7736
▁convenience	-11.7736
▁tightly	-11.7736
post	-11.7737
text	-11.7739
▁Version	-11.7743
▁Increased	-11.7744
face	-11.7744
▁bind	-11.7745
there	-11.7745
▁Evaluation	-11.7747
cy	-11.7747
▁gravel	-11.7748
▁Police	-11.7749
▁Few	-11.775
▁Programming	-11.775
▁5:	-11.7752
SS	-11.7753
▁naked	-11.7754
▁telescopes	-11.7754
▁permits	-11.7754
▁segregation	-11.7756
ical	-11.7756
....	-11.7757
▁regulating	-11.7759
▁alpha	-11.776
▁PA	-11.776
AC	-11.7762
▁noticeable	-11.7762
▁GIS	-11.7763
table	-11.7763
▁hiding	-11.7765
▁cone	-11.7766
▁110	-11.7767
▁expose	-11.7768
▁shoot	-11.7768
▁vibrant	-11.7772
▁decorative	-11.7772
▁Czech	-11.7775
▁Store	-11.7775
ose	-11.7777
ett	-11.7777
lastname	-11.7779
▁Era	-11.7779
▁66	-11.7781
▁parental	-11.7782
▁zoo	-11.7782
ama	-11.7782
des	-11.7782
▁rod	-11.7784
color	-11.7784
▁Secondary	-11.7786
▁guitar	-11.7787
▁packet	-11.7787
▁vi	-11.7789
▁detecting	-11.7789
▁Reduce	-11.779
▁Smithsonian	-11.779
▁jurisdiction	-11.7791
▁OK	-11.7792
mus	-11.7794
▁der	-11.7802
▁PTSD	-11.7802
▁carbohydrate	-11.7804
▁Kings	-11.7806
▁hearts	-11.7806
▁housed	-11.7807
▁reddish	-11.7809
▁Effective	-11.7809
▁CPU	-11.7811
▁blades	-11.7812
▁Encourage	-11.7813
▁2020.	-11.7814
▁agreements	-11.7817
▁voyage	-11.7819
▁Flu	-11.782
▁Phase	-11.782
▁1992	-11.7821
▁pioneer	-11.7823
▁Dead	-11.7824
▁dancing	-11.7827
▁Application	-11.7828
▁Nano	-11.7829
▁Poly	-11.7829
▁counted	-11.7829
▁sponsored	-11.783
Al	-11.783
▁Baptist	-11.7831
▁Queensland	-11.7832
▁fitted	-11.7832
▁monkeys	-11.7833
▁Room	-11.7833
General	-11.7834
▁Factors	-11.7835
▁modification	-11.7837
▁Song	-11.7838
▁descriptive	-11.7841
▁Halloween	-11.7847
▁Flag	-11.7847
▁Nebraska	-11.7848
▁herd	-11.7849
▁offshore	-11.7851
▁persist	-11.7851
▁compromise	-11.7852
▁Delaware	-11.7854
▁Issues	-11.7854
int	-11.7856
▁1%	-11.7856
▁20,	-11.7856
▁emit	-11.7856
▁installing	-11.7856
▁receiver	-11.7859
NET	-11.786
burg	-11.786
its	-11.7861
▁dignity	-11.7861
▁Obesity	-11.7866
▁inland	-11.7868
▁pigment	-11.7869
▁revision	-11.7869
▁Members	-11.7869
▁Specific	-11.7869
▁breastfeeding	-11.787
▁Foods	-11.787
▁retail	-11.7875
▁snacks	-11.7878
osa	-11.7879
▁query	-11.7881
Mo	-11.7884
48	-11.7887
▁rotating	-11.7889
▁charity	-11.7892
▁promises	-11.7894
▁accounted	-11.7894
▁Hyper	-11.7895
▁Ram	-11.7895
▁Earlier	-11.7897
▁dolphins	-11.7898
▁Miss	-11.7901
▁Associate	-11.7901
▁freeze	-11.7904
▁Anderson	-11.7905
▁wounded	-11.7905
▁flip	-11.7906
▁sunscreen	-11.7908
▁magnificent	-11.791
▁belly	-11.7912
06	-11.7913
▁Truth	-11.7914
Learn	-11.7916
▁accompanying	-11.7919
▁compassion	-11.7921
▁Half	-11.7922
▁steadily	-11.7923
▁focal	-11.7923
ick	-11.7926
▁cooperative	-11.7928
▁uranium	-11.7928
bad	-11.7929
▁tires	-11.7937
▁router	-11.7938
LE	-11.7938
▁injected	-11.794
▁purely	-11.7942
▁discovering	-11.7942
▁hectares	-11.7944
▁Crown	-11.7947
▁backyard	-11.7947
▁lo	-11.7947
▁eighth	-11.7948
▁wellness	-11.7949
▁Numbers	-11.7949
▁Communications	-11.795
filled	-11.795
▁5-	-11.7951
▁secured	-11.7951
▁Blog	-11.7955
▁2000,	-11.7955
▁waterways	-11.7958
▁dividing	-11.7958
AS	-11.7958
▁DO	-11.7962
real	-11.7963
▁crashes	-11.7963
▁technically	-11.7964
▁insomnia	-11.7965
▁Cathedral	-11.7965
▁Horse	-11.7966
▁Record	-11.7966
▁desk	-11.7972
▁sticky	-11.7973
▁setup	-11.7973
28	-11.7975
▁4,000	-11.7977
▁1989	-11.7977
▁shaping	-11.7977
pan	-11.7978
▁preventable	-11.798
▁smartphones	-11.7981
▁remedies	-11.7984
aging	-11.7986
▁Surgery	-11.7988
▁bubble	-11.7989
▁seedlings	-11.7989
▁Database	-11.7992
CA	-11.7994
▁mph	-11.7995
IN	-11.7997
▁profiles	-11.7998
▁mitigation	-11.7998
▁Flash	-11.7998
ich	-11.8005
▁toddler	-11.8007
▁Morgan	-11.8007
▁Notice	-11.8008
terdisciplinary	-11.8017
▁Solutions	-11.8019
▁wavelength	-11.802
▁packages	-11.8021
▁physiology	-11.8021
▁acknowledged	-11.8021
qui	-11.8022
▁governing	-11.8022
▁Innovation	-11.8026
▁firmly	-11.8027
late	-11.8029
English	-11.8029
▁Khan	-11.8029
▁spirits	-11.8032
▁rooted	-11.8034
▁Hawaiian	-11.8036
▁voted	-11.8037
Pro	-11.8038
▁oven	-11.8039
▁Box	-11.8041
▁youngest	-11.8041
aime	-11.8042
Go	-11.8042
▁compromised	-11.8046
brown	-11.8051
▁disruption	-11.8053
ida	-11.8055
▁mimic	-11.8057
▁parish	-11.8057
▁listing	-11.8058
▁monastery	-11.8058
▁quit	-11.8062
▁converts	-11.8063
sp	-11.8064
▁Lanka	-11.8064
▁detector	-11.8064
▁geometric	-11.8066
▁burst	-11.8066
▁tar	-11.8066
▁civic	-11.8068
lock	-11.8069
▁Drawing	-11.8071
ids	-11.8072
▁fauna	-11.8072
▁Regardless	-11.8072
▁shaft	-11.8073
nic	-11.8074
▁Pen	-11.8081
▁Hampshire	-11.8082
▁cemetery	-11.8082
▁monitors	-11.8083
▁continents	-11.8085
▁shoe	-11.8086
▁Vermont	-11.8087
▁reflux	-11.8087
▁URL	-11.8089
▁Val	-11.809
▁nectar	-11.8091
▁targeting	-11.8092
▁1961	-11.8093
▁explicitly	-11.8094
▁corners	-11.8095
▁virtue	-11.8095
▁donated	-11.8096
▁Wars	-11.8098
▁Barbara	-11.8101
▁”	-11.8101
▁relied	-11.8101
▁Festival	-11.8102
▁strive	-11.8102
second	-11.8102
▁Palestine	-11.8103
▁robotics	-11.8104
▁generic	-11.8105
▁syntax	-11.8105
▁physicist	-11.8108
edge	-11.8111
▁quotes	-11.8112
▁metallic	-11.8114
▁masks	-11.8115
▁restaurant	-11.8115
▁cons	-11.8117
▁distribute	-11.8119
▁scholarship	-11.8119
▁shrimp	-11.8119
▁Iceland	-11.812
▁expressing	-11.812
▁neighbor	-11.8121
▁BY	-11.8121
▁bacterium	-11.8124
▁2.0	-11.8126
▁pleasant	-11.8128
▁unpleasant	-11.8129
▁friendship	-11.8129
▁doubled	-11.813
▁Lessons	-11.8131
▁domains	-11.8132
▁parking	-11.8135
▁Links	-11.8137
▁rulers	-11.814
▁fo	-11.814
▁staple	-11.8143
▁digging	-11.8143
▁stretched	-11.8145
ments	-11.8147
▁2009.	-11.8149
▁blocking	-11.8151
▁Direct	-11.8153
▁Judaism	-11.8154
▁wavelengths	-11.8154
▁venture	-11.8157
▁1.1	-11.8157
▁Prophet	-11.8162
colored	-11.8165
▁cite	-11.8166
▁accelerated	-11.8166
▁overseas	-11.8167
▁imperial	-11.8171
fe	-11.8171
▁bass	-11.8173
▁instrumental	-11.8173
▁translates	-11.8173
yo	-11.8174
▁Bre	-11.8174
-11	-11.8176
▁garlic	-11.8176
▁tactics	-11.8181
cho	-11.8182
▁shifted	-11.8182
▁civilian	-11.8184
▁Gene	-11.8189
▁plots	-11.8189
▁chloride	-11.8191
▁Caesar	-11.8191
▁deposited	-11.8191
▁fold	-11.8192
▁yearly	-11.8194
group	-11.8197
health	-11.8198
▁emphasizes	-11.8198
▁employer	-11.8199
▁stimuli	-11.82
▁2018,	-11.8203
▁WHAT	-11.8205
▁hurricanes	-11.8206
▁accused	-11.821
ese	-11.8211
▁scholarly	-11.8213
▁ISO	-11.8213
▁immigrant	-11.8214
ado	-11.8214
▁Vienna	-11.8214
lie	-11.8216
▁grinding	-11.8217
▁Meeting	-11.8218
▁Alan	-11.8221
▁mindset	-11.8222
▁holistic	-11.8223
▁wa	-11.8225
▁sandy	-11.8226
▁bunch	-11.8228
▁deployment	-11.823
▁lime	-11.8232
▁admit	-11.8234
▁Mt	-11.8234
▁sail	-11.8234
▁jumping	-11.8238
▁53	-11.8239
▁tidal	-11.8239
▁infinite	-11.824
▁31,	-11.824
var	-11.8241
▁touched	-11.8242
▁Commonwealth	-11.8243
▁(8	-11.8244
▁pupil	-11.8245
▁Tropical	-11.8245
▁Independent	-11.8246
tar	-11.8247
▁jewelry	-11.8247
▁Alice	-11.8248
▁arrow	-11.8249
▁organizational	-11.825
▁detrimental	-11.825
▁Greater	-11.825
▁nails	-11.8251
▁loading	-11.8252
▁Gray	-11.8253
▁Ham	-11.8253
▁respondents	-11.8255
▁Mis	-11.8255
▁parameter	-11.8256
base	-11.8258
▁generators	-11.8261
▁Brian	-11.8262
▁1987	-11.8263
▁Colombia	-11.8265
▁mucus	-11.8267
speaking	-11.8268
▁Norwegian	-11.8268
▁15%	-11.827
▁Protestant	-11.8274
▁citrus	-11.8276
lis	-11.8277
▁2020,	-11.8277
▁specifications	-11.8279
▁tiles	-11.828
▁USB	-11.828
▁Pin	-11.8283
▁enjoying	-11.8285
▁newer	-11.8285
▁introductory	-11.8286
ona	-11.8287
▁Friends	-11.8288
▁resilient	-11.8289
nce	-11.8289
▁Gar	-11.829
▁philosophers	-11.8294
▁nursery	-11.8296
▁Interestingly	-11.8297
IV	-11.8298
▁Er	-11.8299
▁Keywords	-11.8301
▁flights	-11.8302
▁dull	-11.8304
▁capita	-11.8304
▁schizophrenia	-11.8305
▁temperate	-11.8305
▁Compare	-11.8307
▁Oak	-11.8307
▁0.1	-11.8308
▁buttons	-11.8314
May	-11.8318
▁biography	-11.8319
▁tendon	-11.832
▁attain	-11.8321
▁hormonal	-11.8326
▁Pediatrics	-11.8327
▁accordingly	-11.8328
▁Strategy	-11.8329
▁Hy	-11.8331
▁blacks	-11.8332
▁#1	-11.8333
▁proposals	-11.8334
▁arsenic	-11.8334
="	-11.8334
▁induce	-11.8335
▁thank	-11.8339
▁visualization	-11.8339
▁Princeton	-11.8339
▁propose	-11.8342
▁folder	-11.8344
▁donor	-11.8345
▁manuscript	-11.8345
CC	-11.8348
▁belonged	-11.8349
▁Anthony	-11.8353
▁ornamental	-11.8355
▁winner	-11.8356
▁sketch	-11.8357
▁rebellion	-11.8358
▁Exposure	-11.836
▁Basically	-11.8362
▁arose	-11.8362
grass	-11.8363
▁explicit	-11.8364
▁hosting	-11.8366
▁unaware	-11.8368
▁Tests	-11.8368
▁proceed	-11.8368
▁Atmospheric	-11.8369
▁2016.	-11.8372
▁glory	-11.8372
▁chickens	-11.8373
natural	-11.8373
▁2008.	-11.8375
▁intersection	-11.8376
▁singular	-11.8376
▁Brief	-11.8377
▁flew	-11.8377
▁Sch	-11.8378
ware	-11.838
▁traps	-11.8382
az	-11.8383
▁quoted	-11.8384
▁grab	-11.8385
▁besides	-11.8386
sel	-11.8388
▁guilty	-11.8389
▁Cleveland	-11.8392
▁Motor	-11.8393
▁Arabia	-11.8395
▁soy	-11.8395
▁Pluto	-11.8395
▁oval	-11.8396
▁epilepsy	-11.8396
▁bubbles	-11.8398
has	-11.8399
▁Letters	-11.8403
▁retired	-11.8403
▁mom	-11.8403
▁PV	-11.8403
▁airborne	-11.8404
▁unstable	-11.8406
oo	-11.8408
▁daughters	-11.8412
69	-11.8413
▁exceptions	-11.8417
▁exploit	-11.8417
ensis	-11.8418
▁Stop	-11.8422
▁Initially	-11.8423
▁accumulate	-11.8424
TE	-11.8427
▁Mike	-11.8427
▁advocacy	-11.8429
bio	-11.8429
▁interacting	-11.843
▁clip	-11.8432
▁resin	-11.8432
▁Quick	-11.8433
▁announcement	-11.8434
▁tricky	-11.8434
▁cleaned	-11.8436
▁Sha	-11.8443
▁wrist	-11.8444
With	-11.8445
▁transparency	-11.8446
▁Kit	-11.8446
cat	-11.8447
ros	-11.8447
▁favour	-11.8448
▁Letter	-11.845
▁escaped	-11.845
▁Electrical	-11.8451
▁Dar	-11.8452
▁mites	-11.8454
▁visitor	-11.8457
change	-11.8459
▁Popular	-11.8462
▁Donald	-11.8462
▁peaks	-11.8466
▁endurance	-11.8469
▁textile	-11.847
▁Publishing	-11.847
▁Connect	-11.8474
▁Catherine	-11.8476
▁territorial	-11.8477
▁Manager	-11.8477
▁constitutes	-11.8478
▁supervision	-11.8479
▁Organisation	-11.848
▁Marie	-11.848
▁springs	-11.848
▁canvas	-11.8481
▁Jun	-11.8482
EM	-11.8484
▁fence	-11.8485
▁Taiwan	-11.8486
▁sake	-11.8486
▁Cities	-11.8489
▁Egyptians	-11.849
▁intestines	-11.8494
▁1840	-11.8497
1,000	-11.8498
▁knees	-11.85
▁keen	-11.8502
▁offensive	-11.8502
▁threaten	-11.8502
▁multitude	-11.8504
▁abortion	-11.8506
PM	-11.8506
stage	-11.8506
▁valleys	-11.8507
▁leap	-11.8507
▁sa	-11.8508
▁coconut	-11.8508
▁Positive	-11.8512
ok	-11.8512
▁malicious	-11.8513
▁consistency	-11.8514
▁ka	-11.8514
▁developer	-11.8515
▁1-	-11.8515
▁Ru	-11.8515
▁ailments	-11.8518
▁rush	-11.8518
▁Sheet	-11.8519
gram	-11.8521
||1	-11.8521
▁Applications	-11.8523
▁glimpse	-11.8523
▁slip	-11.8524
▁Railway	-11.8524
▁auditory	-11.8524
▁tune	-11.8524
▁bamboo	-11.8528
▁captain	-11.8528
▁Homo	-11.8528
▁heroes	-11.8531
▁emotionally	-11.8532
anti	-11.8532
▁enacted	-11.8535
▁Style	-11.8537
▁herpes	-11.8537
▁constellation	-11.8537
▁Montessori	-11.8538
▁pi	-11.8539
▁romantic	-11.8541
▁Cornell	-11.8543
▁Revolutionary	-11.8544
nan	-11.8544
▁160	-11.8545
▁sisters	-11.8545
▁throwing	-11.8547
▁mar	-11.8548
▁fitting	-11.8549
▁graduated	-11.855
▁volatile	-11.855
▁refugee	-11.8552
▁FREE	-11.8553
RE	-11.8554
▁sufficiently	-11.8555
▁revealing	-11.8556
▁travelling	-11.8556
▁requested	-11.8558
▁1945	-11.856
▁instantly	-11.8562
▁drastically	-11.8563
▁coordinated	-11.8563
▁buildup	-11.8564
▁dot	-11.8564
▁satisfy	-11.857
54	-11.8571
▁maritime	-11.8572
▁governed	-11.8574
ip	-11.8575
▁coastline	-11.8575
SO	-11.8578
LY	-11.8579
▁disrupt	-11.858
▁AT	-11.8582
▁harassment	-11.8582
▁parenting	-11.8583
▁minorities	-11.8583
▁integer	-11.8585
▁invested	-11.8586
▁Ti	-11.8586
▁Gospel	-11.8587
▁remainder	-11.8589
▁upright	-11.8589
▁coined	-11.859
▁compatible	-11.859
▁spinning	-11.8592
self	-11.8592
▁monoxide	-11.8592
53	-11.8593
▁puzzles	-11.8594
▁studio	-11.8595
▁reductions	-11.8596
▁Wide	-11.8596
▁versatile	-11.8597
▁incomplete	-11.8598
language	-11.8604
▁Abuse	-11.8606
▁Communist	-11.8606
▁Southwest	-11.8608
▁Molecular	-11.8609
SE	-11.8609
▁protests	-11.861
▁Seed	-11.8612
▁resort	-11.8613
▁toddlers	-11.8614
▁modest	-11.8615
▁fog	-11.8616
▁ministry	-11.8617
▁shops	-11.8619
▁Mad	-11.8619
▁aerobic	-11.862
▁ceramic	-11.862
▁Plato	-11.8621
▁resembles	-11.8622
▁collaborate	-11.8622
▁pathogen	-11.8623
▁exports	-11.8624
▁seniors	-11.8624
▁lawyer	-11.8628
▁XML	-11.8628
▁frontier	-11.8629
▁vol	-11.863
▁rust	-11.863
gate	-11.8631
▁elimination	-11.8632
▁Sen	-11.8632
▁beetle	-11.8632
▁advise	-11.8634
▁benign	-11.8635
active	-11.8636
▁rabbits	-11.8636
▁apparatus	-11.8637
77	-11.8638
▁rodents	-11.864
▁50,000	-11.864
▁tan	-11.8642
▁humid	-11.8642
▁Canadians	-11.8643
▁drones	-11.8644
▁commodity	-11.8647
▁Detroit	-11.8648
sia	-11.8651
▁Florence	-11.8652
▁Technologies	-11.8657
▁theater	-11.8659
43	-11.866
▁recognizes	-11.8661
▁sooner	-11.8661
▁fiscal	-11.8661
▁elbow	-11.8662
dar	-11.8663
▁labs	-11.8663
▁reflective	-11.8665
▁Drinking	-11.8666
▁overnight	-11.8666
▁2004,	-11.8666
▁Families	-11.8666
▁2017.	-11.8667
four	-11.8667
▁Fig	-11.8667
▁wetland	-11.8669
▁maths	-11.8671
▁nowadays	-11.8671
TS	-11.8672
▁declaration	-11.8672
▁57	-11.8672
▁warn	-11.8677
▁PE	-11.8678
▁Ways	-11.8678
▁tended	-11.8681
▁parliament	-11.8682
▁mammal	-11.8682
ette	-11.8683
▁YOU	-11.8687
hood	-11.8688
▁Indo	-11.8689
▁dealt	-11.8689
▁disadvantages	-11.869
▁algebra	-11.8693
▁drift	-11.8697
00	-11.8697
▁seafood	-11.8698
▁Pearl	-11.8701
▁Cycle	-11.8701
▁republic	-11.8701
half	-11.8701
▁gel	-11.8702
▁Danish	-11.8702
▁350	-11.8702
▁Male	-11.8702
uck	-11.8703
▁Antonio	-11.8704
▁Curiosity	-11.8708
▁exhibited	-11.8708
rat	-11.871
Ma	-11.871
▁climatic	-11.8711
▁cereal	-11.8713
▁rolled	-11.8713
▁sealed	-11.8714
▁knife	-11.8714
▁filed	-11.8716
▁obligations	-11.8716
▁Idaho	-11.8716
normal	-11.8717
▁Easy	-11.8719
▁Gandhi	-11.8721
▁civilizations	-11.8725
▁inappropriate	-11.8725
▁Avenue	-11.8726
▁comprising	-11.8726
▁orbiting	-11.8727
RP	-11.8731
matic	-11.8731
▁headquarters	-11.8732
85	-11.8733
both	-11.8733
▁Austin	-11.8734
▁Comments	-11.8735
▁congenital	-11.8736
▁whereby	-11.8739
▁citations	-11.8741
link	-11.8745
▁trusted	-11.8745
years	-11.8747
▁disturbance	-11.8748
social	-11.8749
▁Pressure	-11.8749
▁glow	-11.875
fa	-11.8754
▁Essential	-11.8755
▁buds	-11.8756
▁rainforest	-11.8758
▁reactors	-11.8759
▁Costa	-11.8762
▁urge	-11.8765
52	-11.8766
▁Workers	-11.8768
▁1.3	-11.8772
uh	-11.8772
ep	-11.8776
▁1988	-11.8776
▁automation	-11.8777
▁Clinton	-11.8777
▁mess	-11.8777
▁relaxation	-11.8777
▁fees	-11.8778
tail	-11.8779
▁Proceedings	-11.8779
▁psychiatric	-11.8779
ib	-11.8779
▁horn	-11.8779
▁Classical	-11.8781
DR	-11.8782
▁representations	-11.8783
▁claiming	-11.8783
▁Beijing	-11.8783
▁assign	-11.8787
▁afterwards	-11.8787
▁persecution	-11.8792
▁yogurt	-11.8792
▁Robinson	-11.8792
efficient	-11.8793
lit	-11.8793
▁counseling	-11.8795
▁gambling	-11.8797
▁authorized	-11.8797
▁cake	-11.88
▁Bur	-11.8802
▁beloved	-11.8805
▁capsule	-11.8807
▁malnutrition	-11.8807
ME	-11.881
▁weaknesses	-11.8811
▁colder	-11.8811
▁el	-11.8814
del	-11.8814
sex	-11.8815
▁3.5	-11.8817
▁stimulating	-11.8818
▁definitive	-11.8819
▁merchant	-11.8819
ening	-11.8821
▁veterinary	-11.8822
▁PowerPoint	-11.8822
▁margins	-11.8825
▁inspiring	-11.8826
▁incentives	-11.8826
▁approached	-11.8828
▁Format	-11.8829
▁concludes	-11.883
▁sized	-11.8834
▁NY	-11.8836
▁(7	-11.8838
▁chat	-11.8838
3.	-11.884
▁genuine	-11.8844
▁legislature	-11.8845
▁unfamiliar	-11.8847
▁Consumer	-11.8849
ero	-11.8849
▁shortages	-11.885
▁capturing	-11.885
▁handled	-11.885
▁carriers	-11.8851
▁rated	-11.8855
▁archives	-11.8857
▁resolved	-11.8858
▁Female	-11.8859
▁lengths	-11.886
▁siblings	-11.8861
▁meats	-11.8861
▁None	-11.8861
▁vaginal	-11.8863
tr	-11.8863
▁stripes	-11.8864
▁Tip	-11.8865
▁Birth	-11.8866
▁births	-11.8867
▁junk	-11.8869
▁mulch	-11.8869
▁Medieval	-11.8869
▁Brazilian	-11.887
▁Buy	-11.887
▁theft	-11.8871
▁30,000	-11.8871
▁mindfulness	-11.8874
ban	-11.8874
▁adjustments	-11.8875
▁2014.	-11.8875
▁enlarged	-11.8876
▁badly	-11.8877
gas	-11.8878
acre	-11.888
▁wishes	-11.8885
▁Tibetan	-11.8885
▁floors	-11.8887
▁68	-11.889
▁Whatever	-11.889
▁semiconductor	-11.8891
▁tiger	-11.8891
▁semester	-11.8892
ole	-11.8895
▁gallery	-11.8895
click	-11.8896
▁emphasized	-11.8899
Saharan	-11.8899
NC	-11.89
▁defence	-11.89
▁Earl	-11.8901
▁advancing	-11.8903
▁chlorine	-11.8903
▁interfaces	-11.8904
have	-11.8904
▁armies	-11.8904
▁caution	-11.8907
▁selective	-11.8908
▁Napoleon	-11.8909
▁Normally	-11.8912
▁comparative	-11.8913
▁MB	-11.8914
▁Historically	-11.8918
▁neglected	-11.892
▁highlighting	-11.8921
▁mat	-11.8923
▁Users	-11.8923
▁Moscow	-11.8924
▁Atlas	-11.8924
▁rendering	-11.8924
▁chambers	-11.8925
▁harbor	-11.8926
word	-11.8927
ides	-11.8928
▁rectangular	-11.8929
lived	-11.8929
▁Against	-11.893
▁retreat	-11.893
▁Found	-11.8931
▁Rice	-11.8931
▁Job	-11.8932
▁stool	-11.8932
eri	-11.8935
WHO	-11.8939
kar	-11.8941
57	-11.8942
▁undergoing	-11.8942
▁resonance	-11.8944
▁Rules	-11.8946
▁guaranteed	-11.8946
▁1939	-11.8947
▁ESA	-11.8949
▁Win	-11.8949
▁Reader	-11.895
▁investigator	-11.8952
▁gardeners	-11.8952
▁mega	-11.8954
▁sap	-11.8954
▁glance	-11.8954
▁cerebral	-11.8957
▁Adding	-11.8959
oni	-11.896
▁imp	-11.8961
▁Effect	-11.8963
▁scientifically	-11.8965
uc	-11.8967
▁creator	-11.8968
▁su	-11.8971
▁soluble	-11.8972
▁risky	-11.8972
▁comprehend	-11.8973
SI	-11.8975
▁Campaign	-11.8975
▁cues	-11.8975
▁proportions	-11.8976
▁sores	-11.8977
▁downward	-11.8979
▁ceremonies	-11.898
▁arrangements	-11.898
▁1700	-11.8982
▁judges	-11.8983
From	-11.8984
▁accumulated	-11.8985
▁positioned	-11.8988
▁consultation	-11.899
▁Progress	-11.899
hal	-11.8993
▁locked	-11.8994
qu	-11.8997
▁grandfather	-11.8999
▁elite	-11.9
▁depicts	-11.9
▁swallowing	-11.9
▁Alfred	-11.9
▁investigators	-11.9002
▁Cha	-11.9003
▁astronomer	-11.9005
▁southeastern	-11.9006
lets	-11.9006
▁Pine	-11.9006
▁Twenty	-11.9008
▁herbal	-11.9009
▁explorers	-11.901
▁Path	-11.9011
000	-11.9012
▁1946	-11.9012
▁damp	-11.9012
▁accessing	-11.9014
▁disturbed	-11.9015
▁defensive	-11.9016
▁syrup	-11.9016
▁cathedral	-11.9016
▁ray	-11.9017
▁Maya	-11.9022
▁acted	-11.9025
▁Je	-11.9027
od	-11.9028
▁saint	-11.903
stein	-11.903
▁beverage	-11.9031
▁enforce	-11.9031
▁culturally	-11.9031
▁connectivity	-11.9032
▁paradigm	-11.9032
aceae	-11.9034
GS	-11.9039
vis	-11.9041
▁theatre	-11.9043
▁brightness	-11.9046
▁flags	-11.9048
▁norm	-11.9049
▁Yoga	-11.9051
▁melanoma	-11.9052
▁Mag	-11.9053
▁fee	-11.9054
▁tricks	-11.9054
▁magazines	-11.9054
▁fa	-11.9056
▁Welsh	-11.9056
yr	-11.9057
▁gifted	-11.9058
▁Eagle	-11.906
▁Sample	-11.9062
▁priests	-11.9062
▁metaphor	-11.9062
▁Karl	-11.9065
▁intriguing	-11.9068
▁Orthodox	-11.9068
▁conceived	-11.9068
CH	-11.9069
▁quarters	-11.907
▁clarify	-11.9071
▁inheritance	-11.9073
ila	-11.9074
▁seismic	-11.9076
▁roofs	-11.9076
▁nights	-11.9076
▁Intel	-11.9077
▁hairs	-11.9077
▁dropping	-11.9077
▁wanting	-11.9078
▁Byzantine	-11.908
▁appealing	-11.908
▁pad	-11.9085
▁GI	-11.9086
▁Hu	-11.9088
fall	-11.9089
▁Term	-11.9092
44	-11.9092
▁orbits	-11.9094
watch	-11.9097
▁frustration	-11.9099
▁discourse	-11.9099
–19	-11.91
▁lowered	-11.9103
▁warmth	-11.9104
▁signaling	-11.9106
▁anticipated	-11.9107
often	-11.9108
▁retirement	-11.9109
▁gloves	-11.9109
▁nationally	-11.911
▁Prevent	-11.911
▁firstname	-11.9112
▁organised	-11.9112
▁participant	-11.9112
▁Mayo	-11.9112
▁boot	-11.9113
▁Bull	-11.9113
Some	-11.9115
▁adequately	-11.9115
▁shores	-11.9116
▁earnings	-11.9117
▁rabbit	-11.9117
▁Leadership	-11.9117
▁guests	-11.9117
▁prohibited	-11.9122
▁equals	-11.9122
▁solids	-11.9123
▁Biodiversity	-11.9125
▁Violence	-11.9127
native	-11.9129
MD	-11.913
ming	-11.9132
▁plural	-11.9132
▁fathers	-11.9133
▁Speaking	-11.9133
▁serial	-11.9134
▁wore	-11.9135
▁Coastal	-11.9135
▁foremost	-11.9135
▁weighing	-11.9136
▁negotiations	-11.914
▁sediments	-11.914
▁Reef	-11.9141
▁activist	-11.9141
▁unsafe	-11.9142
▁typing	-11.9143
sensitive	-11.9145
▁basket	-11.9153
▁Auto	-11.9155
▁soup	-11.9155
▁marry	-11.9155
▁Acid	-11.9158
▁gotten	-11.9162
▁Sep	-11.9163
▁terror	-11.9164
▁99	-11.9166
▁digit	-11.9166
▁ranked	-11.9166
▁Conditions	-11.9168
▁astronomical	-11.9173
▁Legal	-11.9174
▁ethnicity	-11.9174
Time	-11.9176
▁shame	-11.9177
▁amendment	-11.9178
▁midst	-11.9182
▁secretary	-11.9183
▁Strong	-11.9185
▁Atlanta	-11.9185
▁Maps	-11.9186
▁succession	-11.9188
▁ALL	-11.919
nia	-11.919
path	-11.919
▁athletic	-11.9191
▁skip	-11.9192
▁removes	-11.9193
▁dragon	-11.9193
▁Tool	-11.9194
ency	-11.9195
val	-11.92
▁DNS	-11.9201
▁58	-11.9203
!!	-11.9205
will	-11.9206
▁audiences	-11.9206
▁Radiation	-11.9214
European	-11.9214
▁Plains	-11.9217
▁Morris	-11.9218
▁cage	-11.9219
▁Genetics	-11.9219
far	-11.922
▁signing	-11.9222
▁1910	-11.9222
▁bipolar	-11.9224
▁decimal	-11.9225
▁75%	-11.9227
▁lethal	-11.9232
▁unions	-11.9233
▁grip	-11.9233
▁Private	-11.9233
▁Pick	-11.9234
▁wiring	-11.9234
▁Located	-11.9236
▁1937	-11.9239
▁liked	-11.9239
mit	-11.924
▁Wa	-11.924
▁LA	-11.9242
▁Tan	-11.9243
▁loses	-11.9245
▁restrict	-11.9246
▁helmet	-11.9247
▁credits	-11.9249
▁delete	-11.9252
3)	-11.9252
win	-11.9255
positive	-11.9256
▁subjective	-11.9256
▁divorce	-11.9257
▁carrots	-11.9257
burn	-11.9257
▁opioid	-11.9258
using	-11.926
▁brave	-11.926
▁warnings	-11.9262
▁delays	-11.9262
▁95%	-11.9264
▁Block	-11.9264
▁identities	-11.9266
▁Jonathan	-11.9266
▁cardboard	-11.9267
▁diving	-11.9267
▁acre	-11.927
▁kernel	-11.9272
▁Mer	-11.9279
Is	-11.9281
▁Across	-11.9282
▁Bu	-11.929
▁blast	-11.9291
▁enclosed	-11.9292
after	-11.9292
▁activation	-11.9292
▁Coal	-11.9293
Le	-11.9293
▁disagree	-11.9293
▁intricate	-11.9295
cultural	-11.9296
▁Bang	-11.9297
▁wrap	-11.9298
▁Terms	-11.9298
▁antibody	-11.9299
▁Names	-11.93
print	-11.9301
▁aloud	-11.9301
▁bore	-11.9303
▁ratios	-11.9303
▁Likewise	-11.9304
▁Discussion	-11.9306
▁empirical	-11.9307
▁progresses	-11.9309
▁deficiencies	-11.9309
▁Des	-11.9309
NO	-11.931
▁AR	-11.9315
800	-11.9316
▁nobody	-11.9316
▁adolescence	-11.9319
▁Austrian	-11.932
▁Complex	-11.9324
ct	-11.9326
▁brake	-11.9326
▁fluorescent	-11.9327
▁hypo	-11.9328
▁coloured	-11.9328
▁Pat	-11.9331
▁commentary	-11.9331
▁paragraphs	-11.9331
▁hierarchy	-11.9335
▁Days	-11.9336
▁hatch	-11.9337
▁1957	-11.9338
▁naming	-11.9341
▁Rich	-11.9343
▁checks	-11.9344
▁formulas	-11.9344
ju	-11.9346
▁fluctuations	-11.9346
▁conquered	-11.9349
▁prairie	-11.9349
▁drove	-11.935
▁gram	-11.9351
▁provincial	-11.9353
▁Del	-11.9354
tle	-11.9357
▁esophagus	-11.9357
▁scary	-11.9359
▁firing	-11.9359
▁recipient	-11.936
▁invaded	-11.936
▁Helen	-11.9361
▁monks	-11.9361
▁Madison	-11.9362
▁kindness	-11.9362
▁earning	-11.9363
▁Strategies	-11.9363
▁Myth	-11.9363
▁62	-11.9364
02	-11.9365
▁automotive	-11.9367
▁inflamed	-11.9367
▁Bruce	-11.9369
worth	-11.937
▁menopause	-11.9371
▁activate	-11.9372
▁workout	-11.9374
▁Actually	-11.9377
▁Tanzania	-11.9378
EC	-11.9378
▁nanoparticles	-11.9381
▁1830	-11.9381
▁cube	-11.9383
▁Hemisphere	-11.9383
▁socioeconomic	-11.9383
▁Neither	-11.9384
maker	-11.9385
▁Ideas	-11.9386
place	-11.9387
▁Uganda	-11.9388
fin	-11.9389
RA	-11.9391
▁assisted	-11.9392
▁Charter	-11.9393
▁predator	-11.9393
▁900	-11.9394
▁Protein	-11.9396
▁Pe	-11.9398
▁59	-11.9399
▁simulate	-11.9399
▁arriving	-11.9405
RT	-11.9405
▁12-	-11.9405
▁undertake	-11.9405
▁anymore	-11.9406
▁Card	-11.941
ute	-11.9411
amine	-11.9411
Source	-11.9411
▁brands	-11.9412
▁starch	-11.9414
▁visualize	-11.9415
open	-11.9415
▁trafficking	-11.9416
▁Topic	-11.9417
▁leather	-11.9418
elle	-11.9418
▁fasting	-11.9419
▁projections	-11.9419
▁manifest	-11.942
▁Adobe	-11.9421
▁Diversity	-11.9421
▁oxidation	-11.9421
▁IQ	-11.9422
lia	-11.9424
ash	-11.9428
▁adopting	-11.943
▁responds	-11.9432
▁pumping	-11.9432
▁monarch	-11.9433
▁beams	-11.9433
▁woodland	-11.9434
▁pockets	-11.9436
▁govern	-11.9437
▁Status	-11.9438
▁fetus	-11.9441
08	-11.9442
▁contraction	-11.9444
▁Bee	-11.9445
▁hired	-11.9446
▁st	-11.9446
▁gamma	-11.9447
▁curves	-11.9449
och	-11.9449
▁stereotypes	-11.945
▁forage	-11.9451
▁outlet	-11.9452
98	-11.9453
NS	-11.9456
▁cache	-11.9461
away	-11.9462
▁Nazis	-11.9464
▁Difference	-11.9465
(1)	-11.9465
zz	-11.9468
▁amc	-11.9474
▁optimize	-11.9476
▁allies	-11.9478
generation	-11.9479
play	-11.9479
▁adjective	-11.9482
▁intolerance	-11.9483
▁poorest	-11.9484
▁enthusiasm	-11.9485
▁controller	-11.9486
▁authentication	-11.9486
▁electrodes	-11.9488
▁coach	-11.9489
▁shades	-11.9489
65	-11.949
▁Scripture	-11.949
▁PHP	-11.9492
▁backup	-11.9492
▁explosive	-11.9493
▁ASD	-11.9493
▁drone	-11.9494
▁2003,	-11.9494
rt	-11.9494
▁6:	-11.9495
ets	-11.9495
▁germ	-11.9496
▁basketball	-11.9496
-14	-11.9497
▁Arduino	-11.9498
▁bullet	-11.9499
▁Fat	-11.95
▁Institution	-11.9501
▁spores	-11.9502
▁Importance	-11.9502
▁headlines	-11.9502
▁ad	-11.9504
▁airway	-11.9504
▁Send	-11.9506
▁Girls	-11.9507
▁answering	-11.9511
▁pyramid	-11.9512
▁ubiquitous	-11.9512
▁captive	-11.9513
Figure	-11.9514
▁researched	-11.9514
cu	-11.9516
▁landfills	-11.9517
▁analyse	-11.9518
▁stamp	-11.9519
Part	-11.9522
▁opposing	-11.9523
▁pixels	-11.9524
▁barrel	-11.9527
▁hackers	-11.9529
▁pilots	-11.9529
▁Baker	-11.9534
▁Kindergarten	-11.9534
▁migrants	-11.9536
▁complementary	-11.9536
lines	-11.9536
▁distracted	-11.9536
▁Che	-11.9537
▁Stem	-11.9538
▁fame	-11.9539
▁wrapped	-11.954
▁Traditionally	-11.954
sy	-11.9544
▁pressed	-11.9545
wave	-11.9546
▁embryos	-11.9547
▁Jay	-11.9548
▁colonists	-11.9549
▁peninsula	-11.9549
▁Psychological	-11.9551
▁tennis	-11.9551
▁Renewable	-11.9553
▁composer	-11.9557
▁lightweight	-11.9558
▁360	-11.9559
▁droplets	-11.956
▁Allied	-11.9562
▁posters	-11.9564
▁dome	-11.9564
▁References	-11.9568
▁excluded	-11.9569
▁Single	-11.957
▁chew	-11.9571
▁(9	-11.9573
▁Had	-11.9573
▁Laws	-11.9576
▁matched	-11.9576
▁ne	-11.9577
▁eighteenth	-11.9577
▁cousin	-11.9579
▁lions	-11.958
▁commanded	-11.9581
▁inventions	-11.9583
▁narrator	-11.9583
▁countryside	-11.9585
▁ammonia	-11.9588
▁bucket	-11.9589
▁Liberty	-11.9592
▁Root	-11.9593
▁nut	-11.9594
▁glacier	-11.9594
▁Polar	-11.9596
AR	-11.9599
▁SI	-11.96
▁polluted	-11.9605
▁comply	-11.9606
▁Boy	-11.9608
▁pulses	-11.961
▁ovarian	-11.961
▁admission	-11.9611
mb	-11.9612
▁proportional	-11.9614
▁imagined	-11.9617
▁Includes	-11.9618
▁crafts	-11.9619
▁Above	-11.962
▁Distribution	-11.9622
▁Projects	-11.9622
CR	-11.9623
ral	-11.9627
▁amateur	-11.9628
mic	-11.9628
▁humble	-11.9628
▁Ber	-11.9629
saving	-11.963
▁Creation	-11.963
▁steal	-11.9632
▁Asthma	-11.9633
▁im	-11.9634
▁morality	-11.9635
▁curb	-11.9636
▁ridge	-11.9636
▁threads	-11.9637
▁BP	-11.9637
▁Behind	-11.9638
▁photovoltaic	-11.9638
▁salary	-11.9638
▁Haiti	-11.964
▁Return	-11.9642
▁bricks	-11.9642
▁Come	-11.9643
▁dopamine	-11.9643
▁grief	-11.9643
▁barley	-11.9645
▁photographic	-11.9645
▁qualitative	-11.9646
▁Original	-11.9646
▁Whole	-11.9646
▁200,000	-11.9647
▁contacts	-11.9648
▁Associated	-11.9648
▁jar	-11.9649
cor	-11.9652
▁Nothing	-11.9652
med	-11.9653
79	-11.9654
RO	-11.9659
▁spike	-11.966
▁banana	-11.9661
▁exile	-11.9662
▁Document	-11.9662
▁nm	-11.9662
▁evergreen	-11.9663
▁1982	-11.9664
▁publisher	-11.9664
▁Pole	-11.9664
▁weighs	-11.9669
▁logs	-11.9671
▁disciples	-11.9671
tive	-11.9673
▁worthy	-11.9675
▁Walker	-11.9676
▁Experiment	-11.9677
▁63	-11.968
▁competence	-11.9682
▁ACT	-11.9682
ory	-11.9682
▁privilege	-11.9684
▁teenage	-11.9687
▁vivid	-11.969
▁Syrian	-11.9691
▁handed	-11.9691
▁occupy	-11.9692
▁bent	-11.9692
fire	-11.9692
▁mushrooms	-11.9695
▁favorable	-11.9695
▁cognition	-11.9698
▁est	-11.97
gon	-11.9702
▁pottery	-11.9704
▁homeless	-11.9705
▁backed	-11.9705
eb	-11.9707
▁weaker	-11.9708
▁innocent	-11.9709
▁famine	-11.971
gue	-11.971
▁outward	-11.9713
▁Sanskrit	-11.9714
▁Double	-11.9714
ily	-11.9715
▁beads	-11.9715
▁definite	-11.9716
▁SAT	-11.9716
▁Rural	-11.9716
▁Cats	-11.9716
05	-11.972
▁restoring	-11.972
producing	-11.9722
▁prejudice	-11.9724
▁Explorer	-11.9726
▁Venice	-11.9726
▁Martian	-11.9727
▁convince	-11.9727
▁correlated	-11.9728
pers	-11.9729
▁notation	-11.973
▁autonomy	-11.9731
▁fortune	-11.9732
▁prescribe	-11.9733
▁genocide	-11.9734
▁migratory	-11.9734
eating	-11.9735
ug	-11.9736
▁feasible	-11.9736
▁glaucoma	-11.9737
▁hereditary	-11.9738
▁relaxed	-11.9739
RS	-11.9739
▁latitude	-11.9739
▁Gardens	-11.974
▁derive	-11.974
▁ancestry	-11.9742
▁li	-11.9744
▁rub	-11.9745
▁wonders	-11.9745
▁bean	-11.9746
▁11.	-11.9746
▁toll	-11.975
▁Institutes	-11.9752
▁Pra	-11.9753
shi	-11.9753
▁utilization	-11.9754
ima	-11.9754
▁suppliers	-11.9755
▁Bal	-11.9755
▁Older	-11.9757
03	-11.9759
▁Vo	-11.9759
three	-11.9759
▁Kent	-11.9762
▁miners	-11.9764
▁Manhattan	-11.9765
▁nickel	-11.9765
▁Hal	-11.9766
ses	-11.9767
▁bandwidth	-11.9768
GA	-11.9769
▁mysteries	-11.977
▁Colonial	-11.9774
▁Compared	-11.9775
▁posting	-11.9775
▁patience	-11.9776
▁pruning	-11.9776
ois	-11.9778
▁Material	-11.9779
▁satisfied	-11.978
rie	-11.9781
▁struggled	-11.9782
▁alkaline	-11.9785
▁racing	-11.9786
▁myriad	-11.9787
▁grouped	-11.9787
▁twins	-11.9789
▁suffers	-11.9789
▁Russell	-11.9789
kan	-11.979
▁eczema	-11.9792
▁pursuing	-11.9792
▁legendary	-11.9793
▁psychologists	-11.9795
cus	-11.9798
▁newsletter	-11.9799
▁Wiki	-11.9799
▁rhythms	-11.98
▁pray	-11.9801
▁flux	-11.9803
▁processors	-11.9804
▁Something	-11.9804
▁goats	-11.9804
▁Interest	-11.9805
▁conquest	-11.9807
World	-11.9807
▁calculating	-11.9809
▁Experience	-11.981
▁downstream	-11.9812
▁mesh	-11.9812
▁originate	-11.9816
▁airport	-11.9816
▁triple	-11.9817
▁overlap	-11.9822
▁Ghana	-11.9824
▁remembering	-11.9828
▁emails	-11.983
▁Include	-11.9831
▁enjoyable	-11.9832
▁soccer	-11.9833
▁Answers	-11.9834
▁photographer	-11.9835
▁legends	-11.9836
▁1973	-11.9836
▁analysed	-11.9836
▁Valentine	-11.9836
▁clever	-11.984
▁Religious	-11.984
value	-11.984
▁Nova	-11.9841
▁invite	-11.9842
▁Ri	-11.9843
▁contributor	-11.9844
▁pasture	-11.9845
ious	-11.9848
▁barrels	-11.9849
data	-11.9849
▁poets	-11.9852
94	-11.9853
dic	-11.9854
▁emergencies	-11.9854
▁deposition	-11.9855
2.5	-11.9857
ax	-11.9858
▁rendered	-11.9859
▁cocoa	-11.986
▁integrating	-11.986
▁festivals	-11.986
lum	-11.9863
▁Continental	-11.9866
▁1,500	-11.9869
CD	-11.9869
order	-11.9869
▁Ya	-11.987
▁iPhone	-11.9871
▁catching	-11.9872
▁Rico	-11.9872
▁5)	-11.9873
▁Johns	-11.9874
nu	-11.9874
▁dubbed	-11.9876
▁intimate	-11.9879
▁backward	-11.988
▁alloy	-11.9881
▁Wash	-11.9881
▁rewards	-11.9883
▁turkey	-11.9886
▁Kan	-11.9887
▁dizziness	-11.9888
▁canopy	-11.9888
▁underway	-11.989
ify	-11.989
▁masters	-11.989
other	-11.9891
▁clot	-11.9894
▁weights	-11.9895
▁67	-11.9896
▁Gu	-11.9897
▁attorney	-11.9897
▁rent	-11.9897
▁allergens	-11.9897
▁graduates	-11.9899
▁nicotine	-11.9899
▁judicial	-11.9899
▁consequently	-11.99
▁Shah	-11.99
▁Titan	-11.9901
▁transcription	-11.9903
▁Mor	-11.9904
▁1986	-11.9906
▁devised	-11.9906
▁Israelites	-11.9907
56	-11.9908
▁justify	-11.9908
▁skies	-11.9912
▁collisions	-11.9913
04	-11.9915
▁searches	-11.9915
eng	-11.9915
▁Emotional	-11.9916
Based	-11.9916
National	-11.992
▁disturbing	-11.9921
▁Rocky	-11.9922
wise	-11.9922
▁instructors	-11.9923
▁2019,	-11.9923
▁bred	-11.9926
▁rainbow	-11.9927
▁Protect	-11.9933
▁leaks	-11.9936
books	-11.9936
▁homeowners	-11.9937
▁Hungary	-11.9937
▁Giant	-11.9937
Bo	-11.9939
▁Handbook	-11.9939
▁interpretations	-11.9942
ec	-11.9943
▁reactive	-11.9943
▁constructing	-11.9944
▁leukemia	-11.9944
▁lined	-11.9944
▁golf	-11.9946
▁opt	-11.9946
▁Cu	-11.9948
▁optimum	-11.995
▁Gordon	-11.995
▁regulates	-11.9951
▁Celtic	-11.9953
▁corresponds	-11.9953
▁ho	-11.9956
▁subspecies	-11.9956
▁educating	-11.9956
▁outlook	-11.9957
▁advancements	-11.9959
▁Drive	-11.996
▁Campbell	-11.9961
▁observer	-11.9961
▁render	-11.9963
▁po	-11.9965
▁Apply	-11.9965
▁colleague	-11.9965
▁diamonds	-11.9965
▁fetal	-11.9969
▁Domestic	-11.9969
ters	-11.9969
▁verses	-11.997
▁Minor	-11.9971
▁indirectly	-11.9971
▁blanket	-11.9972
▁Whenever	-11.9973
PA	-11.9973
▁specification	-11.9975
▁hook	-11.9977
▁graduation	-11.9978
gal	-11.998
▁mirrors	-11.998
▁Flood	-11.9981
▁circulating	-11.9984
▁plantation	-11.9984
▁Express	-11.9984
bert	-11.9986
▁congestion	-11.9989
▁attendance	-11.999
▁Joshua	-11.9993
▁magical	-11.9995
▁deterioration	-11.9995
▁paralysis	-11.9995
▁declines	-11.9995
▁Improve	-11.9999
CE	-12
▁Surface	-12
▁awesome	-12.0001
700	-12.0001
▁fatalities	-12.0001
▁eleven	-12.0002
inus	-12.0003
▁stating	-12.0003
▁1967	-12.0005
ili	-12.0006
cer	-12.0006
▁stiffness	-12.0007
tailed	-12.0007
▁Alternative	-12.0008
▁accountability	-12.0009
▁Fu	-12.0012
▁Pop	-12.0012
▁demanded	-12.0014
ular	-12.0016
▁institute	-12.0016
▁broccoli	-12.0018
▁Saudi	-12.0018
▁eagle	-12.0019
▁somebody	-12.002
neurotransmitter	-12.002
▁complaints	-12.0021
▁supporters	-12.0023
▁guiding	-12.0023
▁1918	-12.0024
▁incorporates	-12.0024
▁61	-12.0025
▁cancerous	-12.0025
▁Webster	-12.0025
▁2-3	-12.0026
▁Carter	-12.0027
▁toothpaste	-12.0029
SP	-12.003
▁Gal	-12.0032
▁portrayed	-12.0032
▁duct	-12.0033
wi	-12.0034
People	-12.0034
▁Ana	-12.0034
▁Severe	-12.0034
▁Panama	-12.0035
MB	-12.0036
▁Virus	-12.0037
▁tunnels	-12.0039
▁GM	-12.004
▁uniquely	-12.0042
▁op	-12.0044
▁printers	-12.0045
▁statues	-12.0045
▁casting	-12.0046
▁penetrate	-12.0048
-13	-12.0048
Americans	-12.0049
▁uncle	-12.0049
▁energetic	-12.005
▁miniature	-12.0052
any	-12.0053
▁prophet	-12.0053
ev	-12.0055
▁Edinburgh	-12.0058
She	-12.0058
ways	-12.0058
▁heights	-12.0059
▁Kin	-12.0061
▁skeletal	-12.0063
standing	-12.0063
▁Astronomy	-12.0063
▁loves	-12.0065
▁arid	-12.0066
▁CC	-12.0066
▁acoustic	-12.0066
▁disturbances	-12.0067
▁gaming	-12.0069
II	-12.007
▁renamed	-12.0071
▁scalp	-12.0071
▁nouns	-12.0072
▁waist	-12.0074
▁baked	-12.0077
▁travelled	-12.0078
▁Hepatitis	-12.0078
▁switching	-12.0079
▁Aid	-12.008
▁obligation	-12.0081
▁Flowers	-12.0082
▁Steel	-12.0083
mel	-12.0084
▁Dublin	-12.0087
▁iPad	-12.0087
▁Qu	-12.0087
▁viewer	-12.0088
▁Milk	-12.009
▁Approach	-12.009
▁Forces	-12.0091
▁switches	-12.0091
▁Cassini	-12.0092
▁bathroom	-12.0093
via	-12.0093
▁Smoking	-12.0094
▁cents	-12.0095
▁designation	-12.0096
▁cleared	-12.0098
▁finite	-12.0098
▁northeastern	-12.0098
story	-12.0098
▁relying	-12.01
▁Biblical	-12.01
▁fabrics	-12.0101
▁guilt	-12.0101
pt	-12.0102
ras	-12.0102
uf	-12.0103
▁Nowadays	-12.0104
▁hotel	-12.0108
▁buses	-12.0109
▁pills	-12.0111
▁consecutive	-12.0111
▁learnt	-12.0112
▁2001,	-12.0113
▁API	-12.0113
▁1600	-12.0114
▁ver	-12.0115
▁innate	-12.0116
▁Steven	-12.0117
▁Classification	-12.012
▁Oh	-12.012
▁Yu	-12.012
▁recordings	-12.0121
▁hopefully	-12.0122
▁loving	-12.0122
mal	-12.0122
▁Move	-12.0124
star	-12.0125
looking	-12.0125
▁2030	-12.0125
tain	-12.0127
▁Covid	-12.0127
▁rotate	-12.0129
▁observers	-12.013
▁instability	-12.0131
Man	-12.0132
▁incoming	-12.0133
▁compensate	-12.0134
ira	-12.0134
▁Bru	-12.0135
▁Fine	-12.0135
funded	-12.0136
▁plantations	-12.0137
ye	-12.0138
▁Countries	-12.0138
▁visibility	-12.0141
▁Za	-12.0142
▁Events	-12.0143
More	-12.0145
▁coalition	-12.015
▁administrator	-12.0152
▁accidentally	-12.0154
▁Bed	-12.0155
▁Whereas	-12.0156
▁biopsy	-12.0156
▁partnerships	-12.0157
master	-12.0157
▁Mel	-12.0159
lier	-12.016
600	-12.0162
▁placebo	-12.0163
ao	-12.0163
▁homeland	-12.0168
▁Ltd	-12.0169
▁portraits	-12.017
▁tracked	-12.017
▁pa	-12.017
▁verification	-12.0173
▁descended	-12.0174
▁unusually	-12.0177
▁transforming	-12.0178
▁Lung	-12.0178
▁Setting	-12.0179
▁Voice	-12.0179
▁eager	-12.0181
▁moons	-12.0181
brain	-12.0182
zy	-12.0183
IA	-12.0185
▁hostile	-12.0185
zer	-12.0189
▁economists	-12.019
▁Roger	-12.0191
▁reside	-12.0193
FC	-12.0193
▁Citation	-12.0193
▁droughts	-12.0193
▁Brooklyn	-12.0196
▁1921	-12.0197
DC	-12.0197
▁Dream	-12.0197
▁feared	-12.02
▁Walk	-12.02
bird	-12.0201
▁Sexual	-12.0201
▁Economy	-12.0202
▁squash	-12.0202
berry	-12.0202
▁sunset	-12.0205
▁wi	-12.0206
▁funny	-12.0209
▁SA	-12.0211
▁maker	-12.0213
cher	-12.0214
eth	-12.0215
▁refuse	-12.0217
▁genius	-12.0217
sum	-12.0218
▁Britannica	-12.0219
ei	-12.0223
hole	-12.0224
▁thriving	-12.0225
▁uncover	-12.0226
▁arrange	-12.0226
▁sadness	-12.0226
▁Charlotte	-12.0227
▁conventions	-12.0228
▁scar	-12.0229
▁canals	-12.023
▁itching	-12.0231
▁Hills	-12.0232
▁politically	-12.0233
▁ICT	-12.0235
▁oppression	-12.0237
▁vibration	-12.0239
▁Wyoming	-12.0242
og	-12.0244
▁migraine	-12.0244
▁Increase	-12.0246
▁markings	-12.0247
▁poll	-12.0248
▁Exploration	-12.0248
CI	-12.0249
▁assuming	-12.0251
▁Monitor	-12.0252
Photo	-12.0252
▁lamps	-12.0252
▁CCSS	-12.0252
cast	-12.0259
▁enduring	-12.0262
ache	-12.0262
bra	-12.0265
▁theology	-12.0265
▁encounters	-12.0267
▁Computing	-12.0268
▁inhabit	-12.0269
▁optic	-12.027
▁pumpkin	-12.0271
▁reinforced	-12.0271
CS	-12.0271
▁quicker	-12.0272
▁manually	-12.0274
▁woven	-12.0274
▁Grow	-12.0277
▁eternal	-12.0277
▁undoubtedly	-12.0277
▁celestial	-12.0283
▁Pollution	-12.0283
▁genital	-12.0285
▁lovely	-12.0285
▁reminded	-12.0286
▁forestry	-12.0288
▁1981	-12.0289
ami	-12.0291
▁enhances	-12.0296
▁1919	-12.0296
ked	-12.0296
▁moss	-12.0297
▁Africans	-12.0298
▁Ruth	-12.0299
▁winters	-12.0299
▁Representatives	-12.0299
▁Cover	-12.03
37	-12.03
ography	-12.0302
▁predicting	-12.0305
▁sufferers	-12.0306
▁Officer	-12.0307
▁Storm	-12.0312
▁Fear	-12.0312
▁literal	-12.0313
▁travelers	-12.0313
▁nets	-12.0313
▁leafy	-12.0314
hard	-12.0314
▁slowing	-12.0315
▁Hans	-12.0315
degree	-12.0315
▁lady	-12.0317
▁arithmetic	-12.0318
▁okay	-12.0319
▁Occupational	-12.032
▁dataset	-12.032
▁Ring	-12.032
▁anterior	-12.0321
▁duck	-12.0323
▁VA	-12.0323
▁''	-12.0324
▁Miami	-12.0324
▁evenly	-12.0325
cr	-12.0325
▁refrigerator	-12.0327
▁compares	-12.0329
winning	-12.033
▁Grammar	-12.033
▁hardy	-12.0332
left	-12.0338
▁centimeters	-12.0338
▁1976	-12.0339
▁ligaments	-12.0339
▁Olympics	-12.0344
▁Monument	-12.0345
▁Flow	-12.0346
38	-12.0346
▁Vancouver	-12.0348
▁secrets	-12.0351
bus	-12.0352
ators	-12.0352
▁ambient	-12.0354
▁lemon	-12.0354
ean	-12.0357
▁commemorate	-12.0359
▁suppress	-12.0359
▁stainless	-12.036
▁southwestern	-12.036
[...]
